{
  "version": "1.0",
  "truncation": null,
  "padding": null,
  "added_tokens": [
    {
      "id": 0,
      "content": "<unk>",
      "single_word": false,
      "lstrip": false,
      "rstrip": false,
      "normalized": false,
      "special": true
    }
  ],
  "normalizer": null,
  "pre_tokenizer": {
    "type": "ByteLevel",
    "add_prefix_space": false,
    "trim_offsets": true,
    "use_regex": true
  },
  "post_processor": null,
  "decoder": {
    "type": "ByteLevel",
    "add_prefix_space": true,
    "trim_offsets": true,
    "use_regex": true
  },
  "model": {
    "type": "BPE",
    "dropout": null,
    "unk_token": "<unk>",
    "continuing_subword_prefix": null,
    "end_of_word_suffix": null,
    "fuse_unk": false,
    "byte_fallback": false,
    "ignore_merges": false,
    "vocab": {
      "<unk>": 0,
      "!": 1,
      "\"": 2,
      "#": 3,
      "$": 4,
      "%": 5,
      "&": 6,
      "'": 7,
      "(": 8,
      ")": 9,
      "*": 10,
      "+": 11,
      ",": 12,
      "-": 13,
      ".": 14,
      "/": 15,
      "0": 16,
      "1": 17,
      "2": 18,
      "3": 19,
      "4": 20,
      "5": 21,
      "6": 22,
      "7": 23,
      "8": 24,
      "9": 25,
      ":": 26,
      ";": 27,
      "<": 28,
      "=": 29,
      ">": 30,
      "?": 31,
      "@": 32,
      "A": 33,
      "B": 34,
      "C": 35,
      "D": 36,
      "E": 37,
      "F": 38,
      "G": 39,
      "H": 40,
      "I": 41,
      "J": 42,
      "K": 43,
      "L": 44,
      "M": 45,
      "N": 46,
      "O": 47,
      "P": 48,
      "Q": 49,
      "R": 50,
      "S": 51,
      "T": 52,
      "U": 53,
      "V": 54,
      "W": 55,
      "X": 56,
      "Y": 57,
      "Z": 58,
      "[": 59,
      "\\": 60,
      "]": 61,
      "^": 62,
      "_": 63,
      "`": 64,
      "a": 65,
      "b": 66,
      "c": 67,
      "d": 68,
      "e": 69,
      "f": 70,
      "g": 71,
      "h": 72,
      "i": 73,
      "j": 74,
      "k": 75,
      "l": 76,
      "m": 77,
      "n": 78,
      "o": 79,
      "p": 80,
      "q": 81,
      "r": 82,
      "s": 83,
      "t": 84,
      "u": 85,
      "v": 86,
      "w": 87,
      "x": 88,
      "y": 89,
      "z": 90,
      "{": 91,
      "|": 92,
      "}": 93,
      "~": 94,
      "¡": 95,
      "¢": 96,
      "£": 97,
      "¤": 98,
      "¥": 99,
      "¦": 100,
      "§": 101,
      "¨": 102,
      "©": 103,
      "ª": 104,
      "«": 105,
      "¬": 106,
      "®": 107,
      "¯": 108,
      "°": 109,
      "±": 110,
      "²": 111,
      "³": 112,
      "´": 113,
      "µ": 114,
      "¶": 115,
      "·": 116,
      "¸": 117,
      "¹": 118,
      "º": 119,
      "»": 120,
      "¼": 121,
      "½": 122,
      "¾": 123,
      "¿": 124,
      "À": 125,
      "Á": 126,
      "Â": 127,
      "Ã": 128,
      "Ä": 129,
      "Å": 130,
      "Æ": 131,
      "Ç": 132,
      "È": 133,
      "É": 134,
      "Ê": 135,
      "Ë": 136,
      "Ì": 137,
      "Í": 138,
      "Î": 139,
      "Ï": 140,
      "Ð": 141,
      "Ñ": 142,
      "Ò": 143,
      "Ó": 144,
      "Ô": 145,
      "Õ": 146,
      "Ö": 147,
      "×": 148,
      "Ø": 149,
      "Ù": 150,
      "Ú": 151,
      "Û": 152,
      "Ü": 153,
      "Ý": 154,
      "Þ": 155,
      "ß": 156,
      "à": 157,
      "á": 158,
      "â": 159,
      "ã": 160,
      "ä": 161,
      "å": 162,
      "æ": 163,
      "ç": 164,
      "è": 165,
      "é": 166,
      "ê": 167,
      "ë": 168,
      "ì": 169,
      "í": 170,
      "î": 171,
      "ï": 172,
      "ð": 173,
      "ñ": 174,
      "ò": 175,
      "ó": 176,
      "ô": 177,
      "õ": 178,
      "ö": 179,
      "÷": 180,
      "ø": 181,
      "ù": 182,
      "ú": 183,
      "û": 184,
      "ü": 185,
      "ý": 186,
      "þ": 187,
      "ÿ": 188,
      "Ā": 189,
      "ā": 190,
      "Ă": 191,
      "ă": 192,
      "Ą": 193,
      "ą": 194,
      "Ć": 195,
      "ć": 196,
      "Ĉ": 197,
      "ĉ": 198,
      "Ċ": 199,
      "ċ": 200,
      "Č": 201,
      "č": 202,
      "Ď": 203,
      "ď": 204,
      "Đ": 205,
      "đ": 206,
      "Ē": 207,
      "ē": 208,
      "Ĕ": 209,
      "ĕ": 210,
      "Ė": 211,
      "ė": 212,
      "Ę": 213,
      "ę": 214,
      "Ě": 215,
      "ě": 216,
      "Ĝ": 217,
      "ĝ": 218,
      "Ğ": 219,
      "ğ": 220,
      "Ġ": 221,
      "ġ": 222,
      "Ģ": 223,
      "ģ": 224,
      "Ĥ": 225,
      "ĥ": 226,
      "Ħ": 227,
      "ħ": 228,
      "Ĩ": 229,
      "ĩ": 230,
      "Ī": 231,
      "ī": 232,
      "Ĭ": 233,
      "ĭ": 234,
      "Į": 235,
      "į": 236,
      "İ": 237,
      "ı": 238,
      "Ĳ": 239,
      "ĳ": 240,
      "Ĵ": 241,
      "ĵ": 242,
      "Ķ": 243,
      "ķ": 244,
      "ĸ": 245,
      "Ĺ": 246,
      "ĺ": 247,
      "Ļ": 248,
      "ļ": 249,
      "Ľ": 250,
      "ľ": 251,
      "Ŀ": 252,
      "ŀ": 253,
      "Ł": 254,
      "ł": 255,
      "Ń": 256,
      "Ġt": 257,
      "Ġa": 258,
      "he": 259,
      "in": 260,
      "re": 261,
      "Ġthe": 262,
      "on": 263,
      "er": 264,
      "Ġo": 265,
      "at": 266,
      "Ġs": 267,
      "en": 268,
      "Ġc": 269,
      "es": 270,
      "Ġw": 271,
      "is": 272,
      "nd": 273,
      "it": 274,
      "or": 275,
      "Ġp": 276,
      "al": 277,
      "ed": 278,
      "Ġb": 279,
      "Ġof": 280,
      "an": 281,
      "Ġf": 282,
      "ing": 283,
      "Ġin": 284,
      "ar": 285,
      "ou": 286,
      "Ġm": 287,
      "Ġand": 288,
      "Ġto": 289,
      "ic": 290,
      "ion": 291,
      "Ġd": 292,
      "le": 293,
      "ro": 294,
      "as": 295,
      "Ġh": 296,
      "ent": 297,
      "Ġth": 298,
      "ct": 299,
      "Ġe": 300,
      "il": 301,
      "Ġre": 302,
      "om": 303,
      "ve": 304,
      "Ġl": 305,
      "st": 306,
      "Ġn": 307,
      "ly": 308,
      "Ġbe": 309,
      "Ġis": 310,
      "âĢ": 311,
      "ĠT": 312,
      "se": 313,
      "ol": 314,
      "Ġg": 315,
      "ation": 316,
      "im": 317,
      "id": 318,
      "et": 319,
      "ce": 320,
      "ut": 321,
      "ot": 322,
      "ur": 323,
      "ra": 324,
      "ch": 325,
      "ow": 326,
      "ĠA": 327,
      "ig": 328,
      "Ġfor": 329,
      "Ġthat": 330,
      "Ġu": 331,
      "ĠS": 332,
      "Ġon": 333,
      "Ġst": 334,
      "ver": 335,
      "ir": 336,
      "ĠC": 337,
      "Ġy": 338,
      "ĠI": 339,
      "ul": 340,
      "ay": 341,
      "am": 342,
      "Ġas": 343,
      "ith": 344,
      "el": 345,
      "ad": 346,
      "Ġpro": 347,
      "her": 348,
      "Ġcon": 349,
      "Ġare": 350,
      "Ġan": 351,
      "Ġwith": 352,
      "if": 353,
      "Ġwh": 354,
      "Ġit": 355,
      "Ġor": 356,
      "Ġal": 357,
      "Ġyou": 358,
      "ter": 359,
      "od": 360,
      "ĠM": 361,
      "Ġ(": 362,
      "ĠThe": 363,
      "ment": 364,
      "ge": 365,
      "Ġ1": 366,
      "ĠP": 367,
      "th": 368,
      "op": 369,
      "ate": 370,
      "ers": 371,
      "ist": 372,
      "Ġde": 373,
      "ess": 374,
      "ies": 375,
      "ab": 376,
      "ill": 377,
      "Ġhe": 378,
      "Ġex": 379,
      "ĠB": 380,
      "Ġsu": 381,
      "ect": 382,
      "Ġcom": 383,
      "ore": 384,
      "Ġwe": 385,
      "us": 386,
      "ity": 387,
      "est": 388,
      "âĢĻ": 389,
      "res": 390,
      "ac": 391,
      "ive": 392,
      "Ġha": 393,
      "ĠH": 394,
      "um": 395,
      "rom": 396,
      "ld": 397,
      "Ġv": 398,
      "os": 399,
      "Ġby": 400,
      "ke": 401,
      "qu": 402,
      "ant": 403,
      "em": 404,
      "iv": 405,
      "ain": 406,
      "nt": 407,
      "ĠW": 408,
      "Ġat": 409,
      "pp": 410,
      "igh": 411,
      "Ġwas": 412,
      "ĠD": 413,
      "ud": 414,
      "Ġcan": 415,
      "Ġfrom": 416,
      "ĠE": 417,
      "and": 418,
      "ort": 419,
      "oc": 420,
      "Ġr": 421,
      "Ġch": 422,
      "ĠR": 423,
      "Ġne": 424,
      "ĠF": 425,
      "ial": 426,
      "Ġse": 427,
      "Ġ2": 428,
      "ure": 429,
      "un": 430,
      "Ġnot": 431,
      "Ġle": 432,
      "ical": 433,
      "ĠN": 434,
      "art": 435,
      "ĠG": 436,
      "ĠâĢ": 437,
      "Ġhave": 438,
      "ri": 439,
      "ĠL": 440,
      "Ġsh": 441,
      "og": 442,
      "Ġen": 443,
      "Ġsp": 444,
      "Ġthis": 445,
      "ight": 446,
      "pt": 447,
      "all": 448,
      "red": 449,
      "ich": 450,
      "Ġab": 451,
      "rou": 452,
      "Ġwor": 453,
      "ions": 454,
      "00": 455,
      "ould": 456,
      "ther": 457,
      "ost": 458,
      "The": 459,
      "our": 460,
      "gh": 461,
      "du": 462,
      "ome": 463,
      "Ġim": 464,
      "ated": 465,
      "per": 466,
      "ine": 467,
      "ard": 468,
      "Ġpl": 469,
      "Ġus": 470,
      "out": 471,
      "ag": 472,
      "ff": 473,
      "Ġtheir": 474,
      "act": 475,
      "ide": 476,
      "ell": 477,
      "Ġint": 478,
      "pl": 479,
      "ĠO": 480,
      "ans": 481,
      "ear": 482,
      "ast": 483,
      "age": 484,
      "ust": 485,
      "ak": 486,
      "Ġwhich": 487,
      "ous": 488,
      "Ġwhe": 489,
      "ec": 490,
      "ĠJ": 491,
      "iz": 492,
      "Ġk": 493,
      "Ġthey": 494,
      "Ġyour": 495,
      "ĠU": 496,
      "Ġad": 497,
      "Ġcont": 498,
      "ib": 499,
      "ood": 500,
      "Ġall": 501,
      "cc": 502,
      "ult": 503,
      "end": 504,
      "Ġinc": 505,
      "ru": 506,
      "ĠIn": 507,
      "Ġwill": 508,
      "ap": 509,
      "Ġcomp": 510,
      "Ġdis": 511,
      "ong": 512,
      "Ġres": 513,
      "Ġmore": 514,
      "ations": 515,
      "ia": 516,
      "ew": 517,
      "ip": 518,
      "vel": 519,
      "Ġhas": 520,
      "âĢĿ": 521,
      "orm": 522,
      "ere": 523,
      "ary": 524,
      "so": 525,
      "Ġdo": 526,
      "ater": 527,
      "able": 528,
      "ĠTh": 529,
      "are": 530,
      "ence": 531,
      "Ġman": 532,
      "ual": 533,
      "Ġother": 534,
      "Ġcl": 535,
      "ks": 536,
      "ry": 537,
      "Ġwere": 538,
      "ild": 539,
      "Ġbut": 540,
      "'s": 541,
      "Ġper": 542,
      "ance": 543,
      "Ġimp": 544,
      "ind": 545,
      "ep": 546,
      "ents": 547,
      "Ġme": 548,
      "ach": 549,
      "Ġalso": 550,
      "Ġone": 551,
      "Ġte": 552,
      "ose": 553,
      "ign": 554,
      "ĠâĢľ": 555,
      "reat": 556,
      "ake": 557,
      "ass": 558,
      "ress": 559,
      "av": 560,
      "Ġ19": 561,
      "ase": 562,
      "au": 563,
      "ction": 564,
      "ition": 565,
      "Ġj": 566,
      "Ġso": 567,
      "Ġun": 568,
      "ice": 569,
      "ber": 570,
      "Ġar": 571,
      "Ġout": 572,
      "Ġapp": 573,
      "ime": 574,
      "Ġpart": 575,
      "one": 576,
      "ount": 577,
      "very": 578,
      "ace": 579,
      "Ġstud": 580,
      "ish": 581,
      "Ġev": 582,
      "ory": 583,
      "ord": 584,
      "Ġabout": 585,
      "ens": 586,
      "ire": 587,
      "ok": 588,
      "ack": 589,
      "Ġinf": 590,
      "ĠSt": 591,
      "Ġwho": 592,
      "ame": 593,
      "Ġpe": 594,
      "Ġcomm": 595,
      ").": 596,
      "Ġhis": 597,
      "ors": 598,
      "ub": 599,
      "ite": 600,
      "ces": 601,
      "Ġthem": 602,
      "Ġsc": 603,
      "ang": 604,
      "Ġ\"": 605,
      "Ġsy": 606,
      "ue": 607,
      "ree": 608,
      "ĠK": 609,
      "ike": 610,
      "ound": 611,
      "low": 612,
      "Ġpre": 613,
      "olog": 614,
      "now": 615,
      "ĠIt": 616,
      "Ġup": 617,
      "Ġbec": 618,
      "ric": 619,
      "Ġqu": 620,
      "Ġmay": 621,
      "Ġthan": 622,
      "ie": 623,
      "ile": 624,
      "iff": 625,
      "ays": 626,
      "Ġyear": 627,
      "ĠCh": 628,
      "ail": 629,
      "ople": 630,
      "Ġrec": 631,
      "Ġsome": 632,
      "Ġbeen": 633,
      "nder": 634,
      "ates": 635,
      "Ġits": 636,
      "Ġwhen": 637,
      "Ġthere": 638,
      "ian": 639,
      "Ġgo": 640,
      "mer": 641,
      "ings": 642,
      "Ġinto": 643,
      "Ġag": 644,
      "rit": 645,
      "Ġtra": 646,
      "vers": 647,
      "Ġ20": 648,
      "erv": 649,
      "ough": 650,
      "Ġtime": 651,
      "ĠThis": 652,
      "Ġwork": 653,
      "Ġover": 654,
      "ph": 655,
      "Ġthese": 656,
      "ons": 657,
      "ren": 658,
      "te": 659,
      "Ġdiff": 660,
      "Ġhad": 661,
      "Ġhow": 662,
      "Ġpeople": 663,
      "rough": 664,
      "Ġro": 665,
      "ĠV": 666,
      "Ġcons": 667,
      "ally": 668,
      "lud": 669,
      "ause": 670,
      "Ġtr": 671,
      "ific": 672,
      "ond": 673,
      "ms": 674,
      "Ġra": 675,
      "tern": 676,
      "Ġ3": 677,
      "ll": 678,
      "ove": 679,
      "Ġcol": 680,
      "Ġbet": 681,
      "we": 682,
      "Ġuse": 683,
      "Ġsa": 684,
      "Ġact": 685,
      "ities": 686,
      "lic": 687,
      "int": 688,
      "Ġmost": 689,
      "Ġunder": 690,
      "irst": 691,
      "Ġacc": 692,
      "Ġour": 693,
      "ments": 694,
      "alth": 695,
      "ys": 696,
      "Ġlike": 697,
      "Ġbl": 698,
      "Ġdes": 699,
      "row": 700,
      "Ġknow": 701,
      "ious": 702,
      "lect": 703,
      "ook": 704,
      "ject": 705,
      "Ġwould": 706,
      "ffect": 707,
      "les": 708,
      "Ġnew": 709,
      "ning": 710,
      "Ġtw": 711,
      "velop": 712,
      "Ġsuch": 713,
      "ĠY": 714,
      "Ġrep": 715,
      "Ġrel": 716,
      "Ġneed": 717,
      "stem": 718,
      "Ġif": 719,
      "ient": 720,
      "Ġgen": 721,
      "cess": 722,
      "ational": 723,
      "Ġinclud": 724,
      "hed": 725,
      "Ġany": 726,
      "Ġhel": 727,
      "ative": 728,
      "ob": 729,
      "Ġpr": 730,
      "ced": 731,
      "ple": 732,
      "Ġprov": 733,
      "ular": 734,
      "Ġprodu": 735,
      "Ġhelp": 736,
      "yp": 737,
      "Ġonly": 738,
      "ating": 739,
      "ov": 740,
      "Ġchild": 741,
      "Ġph": 742,
      "Ġwhat": 743,
      "Ġoff": 744,
      "Ġused": 745,
      "ool": 746,
      "Ġind": 747,
      "),": 748,
      "Ġam": 749,
      "Ġno": 750,
      "Ġfirst": 751,
      "Ġmany": 752,
      "Ġspec": 753,
      "Ġdevelop": 754,
      "ĠUn": 755,
      "Ġthrough": 756,
      "ath": 757,
      "Ġreg": 758,
      "Ġac": 759,
      "fter": 760,
      "Ġfe": 761,
      "uring": 762,
      "Ġem": 763,
      "ark": 764,
      "ise": 765,
      "erm": 766,
      "Ġexp": 767,
      "round": 768,
      "oss": 769,
      "ics": 770,
      "Ġpo": 771,
      "iet": 772,
      "ts": 773,
      "Ġtwo": 774,
      "uc": 775,
      "rib": 776,
      "hen": 777,
      "ful": 778,
      "Ġdiffere": 779,
      "iss": 780,
      "ink": 781,
      "Ġsystem": 782,
      "Ġob": 783,
      "ility": 784,
      "rop": 785,
      "ied": 786,
      "oth": 787,
      "als": 788,
      "ne": 789,
      "Ġdec": 790,
      "old": 791,
      "Ġadd": 792,
      "Ġass": 793,
      "ten": 794,
      "ible": 795,
      "ased": 796,
      "Ġsur": 797,
      "eth": 798,
      "Ġshould": 799,
      "arch": 800,
      "ange": 801,
      "Ġatt": 802,
      "ures": 803,
      "ower": 804,
      "Ġ-": 805,
      "Ġsupp": 806,
      "ife": 807,
      "fore": 808,
      "ween": 809,
      "ĠHe": 810,
      "ract": 811,
      "Ġ201": 812,
      "Ġwater": 813,
      "Ġwell": 814,
      "In": 815,
      "ert": 816,
      "ble": 817,
      "aw": 818,
      "Ġrem": 819,
      "ram": 820,
      "Ġinv": 821,
      "ĠâĢĵ": 822,
      "Ġyears": 823,
      "Ġsub": 824,
      "own": 825,
      "Ġfl": 826,
      "Ġco": 827,
      "ng": 828,
      "ution": 829,
      "gan": 830,
      "Ġhealth": 831,
      "Ġbetween": 832,
      "Ġ4": 833,
      "sel": 834,
      "Ġsm": 835,
      "ade": 836,
      "Ġ200": 837,
      "Ġhigh": 838,
      "Ġcould": 839,
      "cy": 840,
      "its": 841,
      "Ġpres": 842,
      "hes": 843,
      "ever": 844,
      "Ġwhere": 845,
      "Ġrese": 846,
      "form": 847,
      "ick": 848,
      "Ġtrans": 849,
      "ily": 850,
      "wn": 851,
      "ident": 852,
      "ants": 853,
      "uch": 854,
      "Ġmake": 855,
      "xt": 856,
      "ology": 857,
      "Ġimport": 858,
      "Ġ5": 859,
      "Ġget": 860,
      "ĠAs": 861,
      "Ġbu": 862,
      "Ġear": 863,
      "Ġpers": 864,
      "ited": 865,
      "chn": 866,
      "Ġinter": 867,
      "chool": 868,
      "ural": 869,
      "Ġher": 870,
      "ience": 871,
      "Ġpol": 872,
      "Ġmod": 873,
      "Ġform": 874,
      "ting": 875,
      "ivers": 876,
      "Ġnum": 877,
      "ines": 878,
      "ef": 879,
      "Ġinst": 880,
      "meric": 881,
      "ont": 882,
      "ata": 883,
      "Ġeffect": 884,
      "Ġdisc": 885,
      "Ġfound": 886,
      "ists": 887,
      "Ġexam": 888,
      "Ġdifferent": 889,
      "ict": 890,
      "land": 891,
      "Ġbecause": 892,
      "ness": 893,
      "ually": 894,
      "hat": 895,
      "ins": 896,
      "Ġlong": 897,
      "Ġafter": 898,
      "ature": 899,
      "Ġinform": 900,
      "Ġlar": 901,
      "Ġexper": 902,
      "oy": 903,
      "Ġcount": 904,
      "Ġdet": 905,
      "Ġcar": 906,
      "Ġsim": 907,
      "cept": 908,
      "Ġmed": 909,
      "Ġeven": 910,
      "Ġtyp": 911,
      "Ġworld": 912,
      "ism": 913,
      "ft": 914,
      "gy": 915,
      "Ġresp": 916,
      "Ġlear": 917,
      "Ġcent": 918,
      "Ġjust": 919,
      "Ġincre": 920,
      "Ġthen": 921,
      "Ġsign": 922,
      "Ġed": 923,
      "Ġhum": 924,
      "Ġvery": 925,
      "Ġ18": 926,
      "urn": 927,
      "Ġway": 928,
      "aking": 929,
      "Ġvar": 930,
      "get": 931,
      "vent": 932,
      "Ġgener": 933,
      "Ġsaid": 934,
      "Ġthose": 935,
      "other": 936,
      "ically": 937,
      "iew": 938,
      "Ġfol": 939,
      "Ġref": 940,
      "ĠAmeric": 941,
      "ives": 942,
      "Ġke": 943,
      "omm": 944,
      "Ġpub": 945,
      "Ġsee": 946,
      "arm": 947,
      "Ġprog": 948,
      "vern": 949,
      "cer": 950,
      "Ġext": 951,
      "Ġcall": 952,
      "Ġprocess": 953,
      "Ġresult": 954,
      "Ġpat": 955,
      "Ġfact": 956,
      "Ġsec": 957,
      "Ġloc": 958,
      "ros": 959,
      "ck": 960,
      "Ġca": 961,
      "ases": 962,
      "Ġevery": 963,
      "ues": 964,
      "ds": 965,
      "Ġrequ": 966,
      "Ġgra": 967,
      "Ġeach": 968,
      "iron": 969,
      "Ġsoc": 970,
      "led": 971,
      "Ġbeing": 972,
      "ruct": 973,
      "ages": 974,
      "ork": 975,
      "tle": 976,
      "Ġdist": 977,
      "Ġcommun": 978,
      "ps": 979,
      "Ġimportant": 980,
      "ved": 981,
      "Ġtechn": 982,
      ".âĢĿ": 983,
      "Ġpartic": 984,
      "Ġmon": 985,
      "ody": 986,
      "Ġlife": 987,
      "ĠAl": 988,
      "Ġdep": 989,
      "Th": 990,
      "Ġdef": 991,
      "Ġinformation": 992,
      "Ġduring": 993,
      "Ġchildren": 994,
      "Ġset": 995,
      "cent": 996,
      "Ġent": 997,
      "Ġart": 998,
      "Ġcre": 999,
      "Ġmuch": 1000,
      "ized": 1001,
      "Ġlead": 1002,
      "ward": 1003,
      "Ġfam": 1004,
      "ices": 1005,
      "ĠWe": 1006,
      "Ġshe": 1007,
      "io": 1008,
      "Ġfollow": 1009,
      "ĠPro": 1010,
      "Ġown": 1011,
      "ather": 1012,
      "any": 1013,
      "imes": 1014,
      "Ġstudy": 1015,
      "Ġdata": 1016,
      "Ġright": 1017,
      "Ġaut": 1018,
      "Ġstudents": 1019,
      "Ġread": 1020,
      "ĠThey": 1021,
      "Ġlevel": 1022,
      "Ġsk": 1023,
      "ĠRe": 1024,
      "ection": 1025,
      "ize": 1026,
      "Ġfood": 1027,
      "Ġsame": 1028,
      "Ġgrow": 1029,
      "..": 1030,
      "gg": 1031,
      "Ġmade": 1032,
      "Ġmy": 1033,
      "Ġav": 1034,
      "Ġ6": 1035,
      "Ġfind": 1036,
      "Ġdoes": 1037,
      "ted": 1038,
      "Ġmin": 1039,
      "Ġcur": 1040,
      "hip": 1041,
      "Ġproble": 1042,
      "Ġstr": 1043,
      "Ġgood": 1044,
      "Ġperson": 1045,
      "ale": 1046,
      "Ġback": 1047,
      "und": 1048,
      "onom": 1049,
      "Ġschool": 1050,
      "Ġboth": 1051,
      "Ġend": 1052,
      "Ġins": 1053,
      "Ġexpl": 1054,
      "Ġpop": 1055,
      "ĠIf": 1056,
      "the": 1057,
      "ĠAn": 1058,
      "viron": 1059,
      "Ġshow": 1060,
      "Ġhist": 1061,
      "Ġcomple": 1062,
      "ĠFor": 1063,
      "ality": 1064,
      "Ġsmall": 1065,
      "read": 1066,
      "Ġche": 1067,
      "Ġdi": 1068,
      "Ġgl": 1069,
      "Ġgrou": 1070,
      "Ġusing": 1071,
      "Ġbefore": 1072,
      "19": 1073,
      "Ġcor": 1074,
      "ential": 1075,
      "iel": 1076,
      "Ġtest": 1077,
      "ivid": 1078,
      "Ġmain": 1079,
      "stand": 1080,
      "ince": 1081,
      "ĠHow": 1082,
      "iversity": 1083,
      "rol": 1084,
      "Ġagain": 1085,
      ".,": 1086,
      "omen": 1087,
      "ĠAr": 1088,
      "ined": 1089,
      "Ġtreat": 1090,
      "ĠInd": 1091,
      "ars": 1092,
      "Ġbo": 1093,
      "20": 1094,
      "ty": 1095,
      "Ġstate": 1096,
      "ex": 1097,
      "Ġoften": 1098,
      "Ġbr": 1099,
      "der": 1100,
      "ished": 1101,
      "Ġprot": 1102,
      "inal": 1103,
      "000": 1104,
      "ock": 1105,
      "ix": 1106,
      "Ġresearch": 1107,
      "Ġwhile": 1108,
      "imate": 1109,
      "Ġless": 1110,
      "nce": 1111,
      "Ġsol": 1112,
      "Ġval": 1113,
      "Ġserv": 1114,
      "Ġtake": 1115,
      "Ġlit": 1116,
      "ute": 1117,
      "ergy": 1118,
      "Ġnow": 1119,
      "||": 1120,
      "Ġposs": 1121,
      "ien": 1122,
      "Ġpower": 1123,
      "ral": 1124,
      "ax": 1125,
      "ĠNew": 1126,
      "Ġorgan": 1127,
      "Ġec": 1128,
      "Ġhim": 1129,
      "Ġnumber": 1130,
      "Ġdise": 1131,
      "Ġmem": 1132,
      "Ġocc": 1133,
      "Ġday": 1134,
      "Ġprovid": 1135,
      "oh": 1136,
      "irect": 1137,
      "akes": 1138,
      "ulation": 1139,
      "vironment": 1140,
      "Ġgovern": 1141,
      "dition": 1142,
      "Ġris": 1143,
      "ier": 1144,
      "ĠSp": 1145,
      "Ġ10": 1146,
      "Ġhand": 1147,
      "air": 1148,
      "ered": 1149,
      "ah": 1150,
      "Ġvis": 1151,
      "Ġfun": 1152,
      "Ġbody": 1153,
      "Ġdown": 1154,
      "Ġdesign": 1155,
      "Ġsupport": 1156,
      "Ġhuman": 1157,
      "Ġthree": 1158,
      "iqu": 1159,
      "Ġchar": 1160,
      "Ġactiv": 1161,
      "ves": 1162,
      "Ġbel": 1163,
      "ĠSc": 1164,
      "ters": 1165,
      "up": 1166,
      "Ġcell": 1167,
      "Ġconf": 1168,
      "Ġredu": 1169,
      "Ġclass": 1170,
      "Ġest": 1171,
      "iving": 1172,
      "Ġcommon": 1173,
      "ital": 1174,
      "Ġmust": 1175,
      "Ġaround": 1176,
      "hers": 1177,
      "iety": 1178,
      "ury": 1179,
      "aj": 1180,
      "Ġreport": 1181,
      "rent": 1182,
      "ven": 1183,
      "Ġpoint": 1184,
      "Ġ7": 1185,
      "ium": 1186,
      "uss": 1187,
      "ains": 1188,
      "Ġland": 1189,
      "Ġlook": 1190,
      "Ġstart": 1191,
      "ger": 1192,
      "Ġcle": 1193,
      "Ġelect": 1194,
      "Ġdid": 1195,
      "Ġgreat": 1196,
      "Ġplan": 1197,
      "ving": 1198,
      "ave": 1199,
      "ĠBut": 1200,
      "ross": 1201,
      "âĢĶ": 1202,
      "Ġlarge": 1203,
      "Ġcontin": 1204,
      "Ġser": 1205,
      "itions": 1206,
      "cl": 1207,
      "day": 1208,
      "ee": 1209,
      "Ġcare": 1210,
      "This": 1211,
      "anc": 1212,
      "self": 1213,
      "Ġop": 1214,
      "orn": 1215,
      "Ġexample": 1216,
      "ared": 1217,
      ",âĢĿ": 1218,
      "eg": 1219,
      "ouse": 1220,
      "ional": 1221,
      "Ġallow": 1222,
      "Ġ8": 1223,
      "way": 1224,
      "ron": 1225,
      "ull": 1226,
      "Ġequ": 1227,
      "Ġincluding": 1228,
      "rain": 1229,
      "outh": 1230,
      "Ġwrit": 1231,
      "acter": 1232,
      "Ġconst": 1233,
      "ash": 1234,
      "Ġadv": 1235,
      "iver": 1236,
      ".\"": 1237,
      "Ġpublic": 1238,
      "Ġret": 1239,
      "inc": 1240,
      "ĠThere": 1241,
      "ĠIs": 1242,
      "Ġcour": 1243,
      "Ġcalled": 1244,
      "com": 1245,
      "Ġknown": 1246,
      "Ġunderstand": 1247,
      "gen": 1248,
      "Ġmet": 1249,
      "Ġthough": 1250,
      "iven": 1251,
      "ially": 1252,
      "ner": 1253,
      "ĠAnd": 1254,
      "Ġdr": 1255,
      "esp": 1256,
      "Ġeduc": 1257,
      "Ġbuild": 1258,
      "aterial": 1259,
      "Ġpract": 1260,
      "ired": 1261,
      "osed": 1262,
      "ividual": 1263,
      "Ġbeh": 1264,
      "Ġstill": 1265,
      "Ġquest": 1266,
      "âĢĵ": 1267,
      "Ġgu": 1268,
      "els": 1269,
      "ected": 1270,
      "lish": 1271,
      "ank": 1272,
      "Ġmat": 1273,
      "iod": 1274,
      "Ġmight": 1275,
      "ries": 1276,
      "oci": 1277,
      "Ġsom": 1278,
      "Ġ9": 1279,
      "erest": 1280,
      "itive": 1281,
      "Ġtem": 1282,
      "Ġplace": 1283,
      "Ġeas": 1284,
      "ources": 1285,
      "Ġthink": 1286,
      "10": 1287,
      "raph": 1288,
      "oun": 1289,
      "ering": 1290,
      "ĠYou": 1291,
      "ĠWh": 1292,
      "Ġappro": 1293,
      "Ġstand": 1294,
      "Ġgre": 1295,
      "oms": 1296,
      "bers": 1297,
      "Ġcaus": 1298,
      "Ġfew": 1299,
      "ason": 1300,
      "ĠThese": 1301,
      "ization": 1302,
      "ination": 1303,
      "Ġ199": 1304,
      "Ġdem": 1305,
      "Ġide": 1306,
      "ording": 1307,
      "eng": 1308,
      "ior": 1309,
      "ids": 1310,
      "Ġenvironment": 1311,
      "de": 1312,
      "Ġpresent": 1313,
      "Ġpur": 1314,
      "Ġchang": 1315,
      "Ġcap": 1316,
      "ffic": 1317,
      "Ġlight": 1318,
      "Ġproduct": 1319,
      "Ġwithin": 1320,
      "Ġiss": 1321,
      "ration": 1322,
      "Ġwithout": 1323,
      "ption": 1324,
      "Ġchange": 1325,
      "âĢľ": 1326,
      "ived": 1327,
      "ertain": 1328,
      "Ġindividual": 1329,
      "ĠâĢĺ": 1330,
      "ense": 1331,
      "Ġenergy": 1332,
      "me": 1333,
      "line": 1334,
      "angu": 1335,
      "ets": 1336,
      "Ġeng": 1337,
      "Ġmaterial": 1338,
      "Ġprof": 1339,
      "Ġdevelopment": 1340,
      "Ġdirect": 1341,
      "ĠDe": 1342,
      "Ġpot": 1343,
      "ĠEng": 1344,
      "Ġident": 1345,
      "Ġwant": 1346,
      "less": 1347,
      "Ġimpro": 1348,
      "Ġair": 1349,
      "Ġsl": 1350,
      "man": 1351,
      "ton": 1352,
      "Ġpos": 1353,
      "eral": 1354,
      "orth": 1355,
      "ability": 1356,
      "sp": 1357,
      "Ġphys": 1358,
      "Ġsym": 1359,
      "Ġben": 1360,
      "Ġwomen": 1361,
      "Ġve": 1362,
      "ĠUniversity": 1363,
      "illion": 1364,
      "iness": 1365,
      "Ġlaw": 1366,
      "agn": 1367,
      "alk": 1368,
      "Ġimm": 1369,
      "Ġsit": 1370,
      "Ġlearn": 1371,
      "ethod": 1372,
      "Ġplay": 1373,
      "ris": 1374,
      "ĠAmerican": 1375,
      "Ġarea": 1376,
      "Ġdisease": 1377,
      "Ġgovernment": 1378,
      "ians": 1379,
      "Ġproject": 1380,
      "Ġanal": 1381,
      "Ġbre": 1382,
      "Ġdon": 1383,
      "Ġ&": 1384,
      "rodu": 1385,
      "ental": 1386,
      "Ġess": 1387,
      "Ġpass": 1388,
      "Ġsocial": 1389,
      "ield": 1390,
      "Ġbelie": 1391,
      "Ġanother": 1392,
      "ĠAd": 1393,
      "tt": 1394,
      "Ġmark": 1395,
      "arent": 1396,
      "bs": 1397,
      "Ġbest": 1398,
      "Ġinterest": 1399,
      "ify": 1400,
      "ug": 1401,
      "Ġmeas": 1402,
      "ological": 1403,
      "Ġrest": 1404,
      "Ġwar": 1405,
      "Ġbas": 1406,
      "ĠCon": 1407,
      "ccess": 1408,
      "Ġopp": 1409,
      "Ġinclude": 1410,
      "'t": 1411,
      "ajor": 1412,
      "ified": 1413,
      "erc": 1414,
      "Ġcontrol": 1415,
      "ained": 1416,
      "It": 1417,
      "atural": 1418,
      "Ġpar": 1419,
      "Ġant": 1420,
      "Ġdesc": 1421,
      "ently": 1422,
      "Ġproper": 1423,
      "Ġanim": 1424,
      "Ġblood": 1425,
      "atic": 1426,
      "Ġhome": 1427,
      "Ġleg": 1428,
      "Ġmove": 1429,
      "Ġsever": 1430,
      "ats": 1431,
      "az": 1432,
      "Ġet": 1433,
      "Ġmus": 1434,
      "hor": 1435,
      "Ġlow": 1436,
      "Ġpain": 1437,
      "Ġrisk": 1438,
      "lished": 1439,
      "Ġmil": 1440,
      "arc": 1441,
      "Ġprogram": 1442,
      "Ġagainst": 1443,
      "ining": 1444,
      "Ġcult": 1445,
      "Ġeconom": 1446,
      "ource": 1447,
      "ĠHowever": 1448,
      "Ġearly": 1449,
      "Ġbecome": 1450,
      "ision": 1451,
      "Ġlast": 1452,
      "Ġbetter": 1453,
      "Ġprovide": 1454,
      "Ġoper": 1455,
      "here": 1456,
      "Ġavail": 1457,
      "ern": 1458,
      "ider": 1459,
      "to": 1460,
      "ways": 1461,
      "ĠPh": 1462,
      "Ġfore": 1463,
      "ission": 1464,
      "ware": 1465,
      "Ġold": 1466,
      "gin": 1467,
      "str": 1468,
      "Ġhere": 1469,
      "ĠSh": 1470,
      "Ġtre": 1471,
      "rist": 1472,
      "ik": 1473,
      "Ġhistory": 1474,
      "Ġmeans": 1475,
      "Ġtoo": 1476,
      "ards": 1477,
      "Ġtop": 1478,
      "Ġpercent": 1479,
      "Ġorder": 1480,
      "Ġele": 1481,
      "Ġindu": 1482,
      "Ġsecond": 1483,
      "Ġcause": 1484,
      "ead": 1485,
      "Ġmethod": 1486,
      "ills": 1487,
      "Ġkeep": 1488,
      "ention": 1489,
      "Ġter": 1490,
      "Ġgroup": 1491,
      "Ġmajor": 1492,
      "Ġfamily": 1493,
      "Ġcurrent": 1494,
      "Ġaddition": 1495,
      "eed": 1496,
      "Ġperform": 1497,
      "view": 1498,
      "amp": 1499,
      "rap": 1500,
      "Ġoccur": 1501,
      "ator": 1502,
      "Ġreal": 1503,
      "Ġsaf": 1504,
      "Ġdev": 1505,
      "Ġinvol": 1506,
      "Ġ[": 1507,
      "Ġparticular": 1508,
      "ients": 1509,
      "Ġinfl": 1510,
      "ĠUnited": 1511,
      "ote": 1512,
      "irc": 1513,
      "Ġseveral": 1514,
      "omp": 1515,
      "ples": 1516,
      "Ġnear": 1517,
      "Ġhig": 1518,
      "Ġsay": 1519,
      "Ġperiod": 1520,
      "ĠEx": 1521,
      "Ġplant": 1522,
      "Ġspecies": 1523,
      "ĠâĢĶ": 1524,
      "Ġlangu": 1525,
      "ograph": 1526,
      "Ġpossible": 1527,
      "ina": 1528,
      "oid": 1529,
      "ĠRes": 1530,
      "ĠCl": 1531,
      "Ġfin": 1532,
      "ĠWhen": 1533,
      "Ġprom": 1534,
      ",\"": 1535,
      "Ġsignific": 1536,
      "Ġbenef": 1537,
      "ĠCol": 1538,
      "use": 1539,
      "icle": 1540,
      "Ġunt": 1541,
      "Ġmean": 1542,
      "urop": 1543,
      "Ġmen": 1544,
      "idence": 1545,
      "Ġamong": 1546,
      "Ġ15": 1547,
      "ĠComm": 1548,
      "Ġopen": 1549,
      "Ġable": 1550,
      "Ġlim": 1551,
      "Ġorig": 1552,
      "Ġsays": 1553,
      "Ġcost": 1554,
      "Ġscient": 1555,
      "Ġhapp": 1556,
      "Ġ.": 1557,
      "Ġnon": 1558,
      "ogn": 1559,
      "ret": 1560,
      "Ġmar": 1561,
      "Ġaffect": 1562,
      "Ġsince": 1563,
      "Ġprop": 1564,
      "Ġbus": 1565,
      "Ġareas": 1566,
      "Ġcountry": 1567,
      "sy": 1568,
      "Ġcal": 1569,
      "Ġel": 1570,
      "ĠCan": 1571,
      "ĠGod": 1572,
      "Ġavailable": 1573,
      "though": 1574,
      "ilar": 1575,
      "ories": 1576,
      "Ġlearning": 1577,
      "ĠSe": 1578,
      "of": 1579,
      "Ġthings": 1580,
      "Ġfollowing": 1581,
      "par": 1582,
      "Ġfour": 1583,
      "ĠTo": 1584,
      "What": 1585,
      "Ġprevent": 1586,
      "Ġfre": 1587,
      "ended": 1588,
      "Ġaccess": 1589,
      "Ġfac": 1590,
      "Ġname": 1591,
      "Ġhead": 1592,
      "Ġdel": 1593,
      "ĠPl": 1594,
      "Ġtreatment": 1595,
      "ĠQ": 1596,
      "ling": 1597,
      "Ġbased": 1598,
      "ances": 1599,
      "ploy": 1600,
      "Ġcond": 1601,
      "ĠZ": 1602,
      "olution": 1603,
      "Ġothers": 1604,
      "Ġfree": 1605,
      "ames": 1606,
      "cing": 1607,
      "ane": 1608,
      "osp": 1609,
      "Ġtimes": 1610,
      "Ġcertain": 1611,
      "ots": 1612,
      "ĠStates": 1613,
      "ends": 1614,
      "ocus": 1615,
      "Ġlab": 1616,
      "Ġcase": 1617,
      "urther": 1618,
      "ole": 1619,
      "Ġstruct": 1620,
      "Ġwee": 1621,
      "une": 1622,
      "Ġrece": 1623,
      "Ġfeel": 1624,
      "Ġview": 1625,
      "Ġcome": 1626,
      "urope": 1627,
      "sc": 1628,
      "elf": 1629,
      "Ġpost": 1630,
      "Ġlo": 1631,
      "be": 1632,
      "hy": 1633,
      "Ġmonth": 1634,
      "ably": 1635,
      "ĠAt": 1636,
      "Ġgr": 1637,
      "Ġrun": 1638,
      "Ġsuccess": 1639,
      "ression": 1640,
      "Ġlocal": 1641,
      "Ġproblem": 1642,
      "ring": 1643,
      "Ġobject": 1644,
      "work": 1645,
      "Ġput": 1646,
      "Ġbi": 1647,
      "Ġimpact": 1648,
      "Ġ17": 1649,
      "oint": 1650,
      "aper": 1651,
      "Ġconn": 1652,
      "ised": 1653,
      "Ġpress": 1654,
      "Ġnatural": 1655,
      "We": 1656,
      "Ġage": 1657,
      "Ġtype": 1658,
      "Ġbro": 1659,
      "Ġflow": 1660,
      "Ġassoci": 1661,
      "Ġintern": 1662,
      "Ġbir": 1663,
      "ĠEn": 1664,
      "Ġ12": 1665,
      "Ġlevels": 1666,
      "Ġsignificant": 1667,
      "icult": 1668,
      "Ġamount": 1669,
      "Ġlittle": 1670,
      "ones": 1671,
      "ope": 1672,
      "br": 1673,
      "Ġproblems": 1674,
      "Ġvir": 1675,
      "Ġlet": 1676,
      "ggest": 1677,
      "ww": 1678,
      "Ġcreat": 1679,
      "Ġhard": 1680,
      "resent": 1681,
      "ĠCent": 1682,
      "por": 1683,
      "Ġfar": 1684,
      "Ġcells": 1685,
      "ĠNational": 1686,
      "12": 1687,
      "Ġdue": 1688,
      "Ġinvest": 1689,
      "Ġlist": 1690,
      "ately": 1691,
      "ĠAf": 1692,
      "hem": 1693,
      "ortun": 1694,
      "Ġbook": 1695,
      "ides": 1696,
      "Ġdeterm": 1697,
      "Ġmult": 1698,
      "stit": 1699,
      "over": 1700,
      "ured": 1701,
      "ĠTe": 1702,
      "Ġmaking": 1703,
      "ged": 1704,
      "Ġgiven": 1705,
      "ĠEurope": 1706,
      "As": 1707,
      "Ġvol": 1708,
      "atory": 1709,
      "Ġsw": 1710,
      "Ġuntil": 1711,
      "agement": 1712,
      "Ġturn": 1713,
      "Ġfocus": 1714,
      "Ġshort": 1715,
      "Ġpotential": 1716,
      "If": 1717,
      "Ġcho": 1718,
      "Ġlater": 1719,
      "Ġyoung": 1720,
      "Ġpolit": 1721,
      "ither": 1722,
      "oks": 1723,
      "uture": 1724,
      "Ġsuggest": 1725,
      "Ġdays": 1726,
      "not": 1727,
      "18": 1728,
      "Ġobs": 1729,
      "ething": 1730,
      "ĠChrist": 1731,
      "ication": 1732,
      "Ġcirc": 1733,
      "Ġrad": 1734,
      "Ġcomput": 1735,
      "ĠBe": 1736,
      "Ġbehav": 1737,
      "Ġfunction": 1738,
      "pect": 1739,
      "ledge": 1740,
      "aken": 1741,
      "ĠOn": 1742,
      "orts": 1743,
      "Ġseem": 1744,
      "ĠOr": 1745,
      "Ġtemper": 1746,
      "ĠFr": 1747,
      "face": 1748,
      "ohn": 1749,
      "Ġalong": 1750,
      "Ġhy": 1751,
      "ape": 1752,
      "Ġlikely": 1753,
      "Ġdra": 1754,
      "Ġcommunity": 1755,
      "Ġeducation": 1756,
      "Ġdeath": 1757,
      "Ġfil": 1758,
      "ried": 1759,
      "Ġcomb": 1760,
      "Ġsystems": 1761,
      "Ġ0": 1762,
      "Ġrele": 1763,
      "Ġeffective": 1764,
      "Ġauthor": 1765,
      "Ġheart": 1766,
      "Ġresults": 1767,
      "ĠAll": 1768,
      "ĠWhat": 1769,
      "aps": 1770,
      "cle": 1771,
      "Ġcrit": 1772,
      "ned": 1773,
      "Ġspecific": 1774,
      "Ġcourse": 1775,
      "Ġusually": 1776,
      "Ġlanguage": 1777,
      "Ġtechnology": 1778,
      "vious": 1779,
      "pr": 1780,
      "Ġappear": 1781,
      "Ġincrease": 1782,
      "ending": 1783,
      "ored": 1784,
      "Ġmillion": 1785,
      "Ġ$": 1786,
      "Ġconsum": 1787,
      "aster": 1788,
      "Ġdifficult": 1789,
      "Ġclear": 1790,
      "Ġ'": 1791,
      "orld": 1792,
      "Ġconditions": 1793,
      "Ġpopulation": 1794,
      "Ġsomething": 1795,
      "Ġalways": 1796,
      "aining": 1797,
      "Ġteac": 1798,
      "Ġcreate": 1799,
      "mit": 1800,
      "ours": 1801,
      "Ġsimilar": 1802,
      "ember": 1803,
      "isc": 1804,
      "ecially": 1805,
      "af": 1806,
      "Ġsing": 1807,
      "Ġ16": 1808,
      "Ġvarious": 1809,
      "Ġnecess": 1810,
      "Ġpast": 1811,
      "idd": 1812,
      "Ġenc": 1813,
      "ĠUS": 1814,
      "app": 1815,
      "ĠBrit": 1816,
      "ators": 1817,
      "__": 1818,
      "Ġexist": 1819,
      "Ġcr": 1820,
      "ribut": 1821,
      "Ġabove": 1822,
      "50": 1823,
      "Ġill": 1824,
      "asing": 1825,
      "ĠSo": 1826,
      "Ġwords": 1827,
      "min": 1828,
      "Ġleast": 1829,
      "Ġexperience": 1830,
      "Ġprofess": 1831,
      "ler": 1832,
      "Ġdescrib": 1833,
      "Ġspace": 1834,
      "Ġneeds": 1835,
      "Ġworks": 1836,
      "Ġapplic": 1837,
      "Ġcancer": 1838,
      "Ġhigher": 1839,
      "There": 1840,
      "Ġgive": 1841,
      "Ġtoday": 1842,
      "Ġhowever": 1843,
      "Ġer": 1844,
      "Ġmov": 1845,
      "Ġrecord": 1846,
      "Ġacross": 1847,
      "rug": 1848,
      "ilities": 1849,
      "Ġestab": 1850,
      "iation": 1851,
      "Ġcharacter": 1852,
      "ateg": 1853,
      "etic": 1854,
      "Ġdiscuss": 1855,
      "ĠAfric": 1856,
      "Ġwhy": 1857,
      "Ġfuture": 1858,
      "Ġcountries": 1859,
      "Ġdam": 1860,
      "Ġspecial": 1861,
      "Ġnext": 1862,
      "ĠBl": 1863,
      "Ġline": 1864,
      "especially": 1865,
      "Ġbrain": 1866,
      "Ġcentury": 1867,
      "Ġplants": 1868,
      "obal": 1869,
      "Ġey": 1870,
      "Ġrequire": 1871,
      "ysis": 1872,
      "Ġside": 1873,
      "Ġchanges": 1874,
      "ptoms": 1875,
      "11": 1876,
      "St": 1877,
      "ruction": 1878,
      "Ġbegin": 1879,
      "Ġstrong": 1880,
      "Ġtoget": 1881,
      "Ġtogether": 1882,
      "How": 1883,
      "Ġrespons": 1884,
      "Ġbusiness": 1885,
      "Ġresearc": 1886,
      "ique": 1887,
      "Ġparent": 1888,
      "Ġeffects": 1889,
      "Ġask": 1890,
      "atch": 1891,
      "sw": 1892,
      "ray": 1893,
      "Ġgeneral": 1894,
      "ĠGerm": 1895,
      "most": 1896,
      "aces": 1897,
      "ĠMed": 1898,
      "ox": 1899,
      "ĠEar": 1900,
      "lement": 1901,
      "nal": 1902,
      "Ġimprove": 1903,
      "Ġtry": 1904,
      "Ġkind": 1905,
      "Ġmot": 1906,
      "Ġworking": 1907,
      "Ġterm": 1908,
      "Ġcomplete": 1909,
      "acy": 1910,
      "ym": 1911,
      "ode": 1912,
      "selves": 1913,
      "by": 1914,
      "aves": 1915,
      "Ġtool": 1916,
      "let": 1917,
      "Ġleft": 1918,
      "ument": 1919,
      "Ġaway": 1920,
      "Ġnet": 1921,
      "ales": 1922,
      "Ġnever": 1923,
      "oot": 1924,
      "Ġstudies": 1925,
      "Ġprim": 1926,
      "Ġpred": 1927,
      "Ġenough": 1928,
      "acc": 1929,
      "Ġtru": 1930,
      "Ġways": 1931,
      "Ġcy": 1932,
      "Ġopt": 1933,
      "Ġkey": 1934,
      "Ġtypes": 1935,
      "for": 1936,
      "alf": 1937,
      "Ġespecially": 1938,
      "Ġcolle": 1939,
      "Ġrelations": 1940,
      "Ġconsider": 1941,
      "iting": 1942,
      "port": 1943,
      "Ġpolic": 1944,
      "reen": 1945,
      "Ġens": 1946,
      "Ġrole": 1947,
      "ires": 1948,
      "Ġsubject": 1949,
      "Ġfull": 1950,
      "Ġteam": 1951,
      "Ġz": 1952,
      "duct": 1953,
      "Ġcases": 1954,
      "Ġinflu": 1955,
      "Ġpatients": 1956,
      "ley": 1957,
      "ĠJohn": 1958,
      "ued": 1959,
      "aring": 1960,
      "Ġchem": 1961,
      "ĠGo": 1962,
      "ipp": 1963,
      "Ġgoing": 1964,
      "ilt": 1965,
      "Ġwhether": 1966,
      "oney": 1967,
      "ush": 1968,
      "ges": 1969,
      "Ġsens": 1970,
      "Ġhaving": 1971,
      "Ġstep": 1972,
      "oman": 1973,
      "Ġcity": 1974,
      "aim": 1975,
      "Ġaccount": 1976,
      "Ġ198": 1977,
      "omes": 1978,
      "amm": 1979,
      "200": 1980,
      "Ġsum": 1981,
      "Ġbecame": 1982,
      "Ġreason": 1983,
      "Ġfund": 1984,
      "chie": 1985,
      "Ġconcer": 1986,
      "ready": 1987,
      "ĠWar": 1988,
      "Ġrepresent": 1989,
      "atures": 1990,
      "Ġprotect": 1991,
      "side": 1992,
      "itor": 1993,
      "Ġground": 1994,
      "aching": 1995,
      "istic": 1996,
      "Ġproduction": 1997,
      "Ġlower": 1998,
      "Ġnorm": 1999,
      "An": 2000,
      "Ġeff": 2001,
      "Ġfurther": 2002,
      "apt": 2003,
      "thing": 2004,
      "ĠSome": 2005,
      "ung": 2006,
      "ann": 2007,
      "Ġchall": 2008,
      "ĠWith": 2009,
      "ency": 2010,
      "...": 2011,
      "ables": 2012,
      "Ġemploy": 2013,
      "Ġoffic": 2014,
      "Ġknowledge": 2015,
      "NA": 2016,
      "Ġ30": 2017,
      "Ġquestion": 2018,
      "ery": 2019,
      "ĠEnglish": 2020,
      "ĠGen": 2021,
      "Ġlive": 2022,
      "ification": 2023,
      "Ġgrowth": 2024,
      "Ġsymptoms": 2025,
      "ird": 2026,
      "Ġhouse": 2027,
      "15": 2028,
      "Ġwr": 2029,
      "30": 2030,
      "Ġmodel": 2031,
      "cul": 2032,
      "Ġdig": 2033,
      "Ġtoward": 2034,
      "ibility": 2035,
      "Ġself": 2036,
      "rel": 2037,
      "For": 2038,
      "Ġscience": 2039,
      "Ġindic": 2040,
      "Ġphysical": 2041,
      "Ġbig": 2042,
      "Ġresources": 2043,
      "iple": 2044,
      "edi": 2045,
      "Ġrange": 2046,
      "Ġlot": 2047,
      "Ġalready": 2048,
      "Ġmakes": 2049,
      "Ġoil": 2050,
      "Ġ14": 2051,
      "Ġfall": 2052,
      "mber": 2053,
      "Ġmind": 2054,
      "erence": 2055,
      "Ġur": 2056,
      "ĠWorld": 2057,
      "ites": 2058,
      "ae": 2059,
      "sych": 2060,
      "ĠThat": 2061,
      "ott": 2062,
      "Ġbelow": 2063,
      "Ġstat": 2064,
      "unt": 2065,
      "Ġtext": 2066,
      "verage": 2067,
      "ĠCar": 2068,
      "Ġactivity": 2069,
      "ĠOne": 2070,
      "ream": 2071,
      "Ġfield": 2072,
      "lo": 2073,
      "Ġclose": 2074,
      "fact": 2075,
      "uation": 2076,
      "ands": 2077,
      "urch": 2078,
      "Ġquality": 2079,
      "Ġgroups": 2080,
      "ĠLe": 2081,
      "ĠIntern": 2082,
      "Ġsure": 2083,
      "Ġseen": 2084,
      "Ġpaper": 2085,
      "Ġproducts": 2086,
      "Ġaccording": 2087,
      "Ġvalue": 2088,
      "Ġwind": 2089,
      "ĠAm": 2090,
      "Ġnut": 2091,
      "//": 2092,
      "ival": 2093,
      "Ġloss": 2094,
      "ĠAb": 2095,
      "bon": 2096,
      "oura": 2097,
      "Ġparticip": 2098,
      "Ġobserv": 2099,
      "Ġphot": 2100,
      "Ġdone": 2101,
      "Ġrather": 2102,
      "Ġreally": 2103,
      "Ġword": 2104,
      "aut": 2105,
      "iam": 2106,
      "rams": 2107,
      "ĠBy": 2108,
      "Ġindust": 2109,
      "Ġachie": 2110,
      "Ġneg": 2111,
      "Ġtradition": 2112,
      "Ġevent": 2113,
      "augh": 2114,
      "Ġactivities": 2115,
      "Ġmass": 2116,
      "Ġmic": 2117,
      "Ġfive": 2118,
      "ublic": 2119,
      "Ġdiet": 2120,
      "urity": 2121,
      "Ġstory": 2122,
      "esc": 2123,
      "16": 2124,
      "Ġann": 2125,
      "Ġdeveloped": 2126,
      "ivil": 2127,
      "ER": 2128,
      "iol": 2129,
      "Ġsurface": 2130,
      "etimes": 2131,
      "ĠSouth": 2132,
      "Ġsoil": 2133,
      "Ġeither": 2134,
      "Ġfr": 2135,
      "Ġclimate": 2136,
      "val": 2137,
      "Ġrate": 2138,
      "amin": 2139,
      "Ġinit": 2140,
      "Ġresearchers": 2141,
      "Ġissues": 2142,
      "Ġreduce": 2143,
      "Ġbat": 2144,
      "Ġdeg": 2145,
      "idered": 2146,
      "Ġsource": 2147,
      "ĠNorth": 2148,
      "Ġaddress": 2149,
      "Ġrecogn": 2150,
      "Ġsite": 2151,
      "Ġabs": 2152,
      "ĠDr": 2153,
      "ĠGe": 2154,
      "ison": 2155,
      "Ġarticle": 2156,
      "earch": 2157,
      "Ġsingle": 2158,
      "Ġmembers": 2159,
      "osis": 2160,
      "Ġprob": 2161,
      "Ġtaken": 2162,
      "When": 2163,
      "ĠHealth": 2164,
      "Ġupon": 2165,
      "fficient": 2166,
      "Ġrecomm": 2167,
      "Ġonce": 2168,
      "overed": 2169,
      "Ġred": 2170,
      "Ġfail": 2171,
      "Ġdrug": 2172,
      "Ġlay": 2173,
      "ĠCal": 2174,
      "://": 2175,
      "Ġmedical": 2176,
      "Ġmarket": 2177,
      "ety": 2178,
      "Ġbuilding": 2179,
      "Ġintrodu": 2180,
      "yn": 2181,
      "Ġconcept": 2182,
      "rect": 2183,
      "Ġmeet": 2184,
      "Ġquestions": 2185,
      "put": 2186,
      "14": 2187,
      "Ġfrequ": 2188,
      "eter": 2189,
      "17": 2190,
      "Ġnational": 2191,
      "Ġsize": 2192,
      "Ġcut": 2193,
      "Ġ=": 2194,
      "Ġtot": 2195,
      "fer": 2196,
      "Ġsent": 2197,
      "ask": 2198,
      "ĠTr": 2199,
      "Ġanimals": 2200,
      "Ġevidence": 2201,
      "ai": 2202,
      "Ġwhole": 2203,
      "Ġskills": 2204,
      "ule": 2205,
      "Ġconsidered": 2206,
      "Ġreturn": 2207,
      "Ġcollect": 2208,
      "Ġstates": 2209,
      "Ġcreated": 2210,
      "ĠMar": 2211,
      "Ġnature": 2212,
      "roll": 2213,
      "Ġfish": 2214,
      "ights": 2215,
      "Ġpolitical": 2216,
      "Ġwide": 2217,
      "Ġblack": 2218,
      "ips": 2219,
      "\".": 2220,
      "Ġpay": 2221,
      "Ġver": 2222,
      "Ġassociated": 2223,
      "ĠIm": 2224,
      "ivity": 2225,
      "Ġdom": 2226,
      "epend": 2227,
      "ĠAmerica": 2228,
      "Ġhistor": 2229,
      "Ġdoct": 2230,
      "ournal": 2231,
      "Ġthemselves": 2232,
      "sh": 2233,
      "rict": 2234,
      "Ġdetail": 2235,
      "itud": 2236,
      "eb": 2237,
      "Ġmaint": 2238,
      "Ġrelig": 2239,
      "like": 2240,
      "Ġincreased": 2241,
      "SA": 2242,
      "Ġrepl": 2243,
      "ensive": 2244,
      "ober": 2245,
      "Ġopportun": 2246,
      "13": 2247,
      "leep": 2248,
      "Ġcame": 2249,
      "reme": 2250,
      "ibr": 2251,
      "ĠMay": 2252,
      "ĠComp": 2253,
      "ĠShe": 2254,
      "illed": 2255,
      "Ġengine": 2256,
      "Ġpractice": 2257,
      "reg": 2258,
      "Ġcannot": 2259,
      "Ġhold": 2260,
      "Ġunderstanding": 2261,
      "Ġpressure": 2262,
      "Ġdest": 2263,
      "Ġwhite": 2264,
      "Ġrequired": 2265,
      "Ġskin": 2266,
      "Ġsun": 2267,
      "Ġliving": 2268,
      "Ġrelated": 2269,
      "ĠRep": 2270,
      "Ġtell": 2271,
      "enn": 2272,
      "ĠPr": 2273,
      "sequ": 2274,
      "aced": 2275,
      "Ch": 2276,
      "Ġpublished": 2277,
      "ĠMan": 2278,
      "acks": 2279,
      "Ġneeded": 2280,
      "artment": 2281,
      "Ġrelationship": 2282,
      "Ġsound": 2283,
      "Ġfri": 2284,
      "Ġflu": 2285,
      "Ġdoc": 2286,
      "oph": 2287,
      "Ġanalysis": 2288,
      "ĠStud": 2289,
      "Ġpurp": 2290,
      "Ġansw": 2291,
      "Ġentire": 2292,
      "ications": 2293,
      "Ġrights": 2294,
      "Ġweek": 2295,
      "Ġarg": 2296,
      "Ġmaterials": 2297,
      "oon": 2298,
      "Ġservices": 2299,
      "org": 2300,
      "Ġadult": 2301,
      "Ġessential": 2302,
      "Ġactually": 2303,
      "ĠAss": 2304,
      "Ġeconomic": 2305,
      "Ġgas": 2306,
      "ened": 2307,
      "Ġcomplex": 2308,
      "Ġmanagement": 2309,
      "Ġsimple": 2310,
      "Ġparts": 2311,
      "go": 2312,
      "Ġprovides": 2313,
      "--": 2314,
      "Ġdog": 2315,
      "Ġability": 2316,
      "Ġvers": 2317,
      "ging": 2318,
      "chan": 2319,
      "Ġquick": 2320,
      "Ġthought": 2321,
      "aging": 2322,
      "Ġhealthy": 2323,
      "Ġ197": 2324,
      "Ġglobal": 2325,
      "ĠAust": 2326,
      "Ġsal": 2327,
      "Ġnecessary": 2328,
      "hib": 2329,
      "Ġfamil": 2330,
      "gest": 2331,
      "Ġitself": 2332,
      "Ġport": 2333,
      "Ġ13": 2334,
      "Ġavoid": 2335,
      "âĢ¦": 2336,
      "uel": 2337,
      "Ġmodern": 2338,
      ".)": 2339,
      "itary": 2340,
      "Ġfactors": 2341,
      "oses": 2342,
      "Ġfeed": 2343,
      "ĠDep": 2344,
      "Al": 2345,
      "Ġalmost": 2346,
      "aged": 2347,
      "lying": 2348,
      "utions": 2349,
      "Ġidea": 2350,
      "ĠGu": 2351,
      "Ġstudent": 2352,
      "erve": 2353,
      "pro": 2354,
      "Ġexerc": 2355,
      "ĠState": 2356,
      "ĠYork": 2357,
      "hing": 2358,
      "Ġcat": 2359,
      "Ġcomes": 2360,
      "Ġreact": 2361,
      "irm": 2362,
      "ney": 2363,
      "bo": 2364,
      "Ġbar": 2365,
      "Ġprote": 2366,
      "ening": 2367,
      "Ġmonths": 2368,
      "rad": 2369,
      "vere": 2370,
      "izing": 2371,
      "Ġspe": 2372,
      "Ġfarm": 2373,
      "Ġexperien": 2374,
      "Ġmor": 2375,
      "ĠEarth": 2376,
      "urs": 2377,
      "Ġfat": 2378,
      "To": 2379,
      "Ġhalf": 2380,
      "lor": 2381,
      "ript": 2382,
      "Ġarr": 2383,
      "ĠSoc": 2384,
      "Ġcondition": 2385,
      "Ġlink": 2386,
      "onse": 2387,
      "oll": 2388,
      "usion": 2389,
      "Ġprinc": 2390,
      "Ġsam": 2391,
      "abit": 2392,
      "Ġstress": 2393,
      "Ġpriv": 2394,
      "Ġapproach": 2395,
      "Ġliter": 2396,
      "Ġtook": 2397,
      "Ġcontent": 2398,
      "cient": 2399,
      "ĠAct": 2400,
      "Ġmoney": 2401,
      "Ġcoll": 2402,
      "Ġregion": 2403,
      "based": 2404,
      "ĠSy": 2405,
      "Ġpersonal": 2406,
      "Ġconduct": 2407,
      "abor": 2408,
      "Ġweight": 2409,
      "ĠX": 2410,
      "ences": 2411,
      "Ġwriting": 2412,
      "Ġbegan": 2413,
      "Wh": 2414,
      "ores": 2415,
      "Ġwin": 2416,
      "Ġindividuals": 2417,
      "ump": 2418,
      "Ġsuper": 2419,
      "Ġpath": 2420,
      "Ġge": 2421,
      "Ġsuff": 2422,
      "ĠBritish": 2423,
      "Ġregard": 2424,
      "my": 2425,
      "Ġassess": 2426,
      "Ġemer": 2427,
      "mb": 2428,
      "Ġarch": 2429,
      "igure": 2430,
      "iddle": 2431,
      "ĠHis": 2432,
      "utes": 2433,
      "ections": 2434,
      "Ġsepar": 2435,
      "Ġ100": 2436,
      "Ġproduce": 2437,
      "emic": 2438,
      "Ġaction": 2439,
      "Ġever": 2440,
      "Ġmeasure": 2441,
      "olic": 2442,
      "Ġpattern": 2443,
      "het": 2444,
      "ĠCont": 2445,
      "ply": 2446,
      "nces": 2447,
      "ume": 2448,
      "Ġcolor": 2449,
      "Ġjob": 2450,
      "Ġsoft": 2451,
      "ĠJew": 2452,
      "ccording": 2453,
      "Ġut": 2454,
      "ĠDo": 2455,
      "ops": 2456,
      "Ġcompany": 2457,
      "Ġshows": 2458,
      "Ġthroughout": 2459,
      "Ġla": 2460,
      "Ġfire": 2461,
      "Ġyet": 2462,
      "son": 2463,
      "Ġgreen": 2464,
      "Ġpopular": 2465,
      "Ġstructure": 2466,
      "Ġparents": 2467,
      "Ġclaim": 2468,
      "eds": 2469,
      "anced": 2470,
      "Ġhtt": 2471,
      "Ġsex": 2472,
      "estern": 2473,
      "Ġinteract": 2474,
      "ĠHist": 2475,
      "Ġtar": 2476,
      "empt": 2477,
      "ma": 2478,
      "Ġbur": 2479,
      "Ġ50": 2480,
      "Ġtemperature": 2481,
      "Ġchemical": 2482,
      "Ġreading": 2483,
      "Ġrul": 2484,
      "erous": 2485,
      "Ġrecent": 2486,
      "Ġtaking": 2487,
      "Ġcomputer": 2488,
      "Ġindustry": 2489,
      "ze": 2490,
      "ĠCo": 2491,
      "Ġsurv": 2492,
      "Ġrev": 2493,
      "rown": 2494,
      "minist": 2495,
      "Ġtherap": 2496,
      "iction": 2497,
      "Ġfru": 2498,
      "Ġtotal": 2499,
      "ES": 2500,
      "Ġincreasing": 2501,
      "ising": 2502,
      "You": 2503,
      "Ġcaused": 2504,
      "Ġlonger": 2505,
      "iment": 2506,
      "Ġhours": 2507,
      "ĠNe": 2508,
      "Ġposition": 2509,
      "ches": 2510,
      "Ġterms": 2511,
      "Ġbehavior": 2512,
      "yl": 2513,
      "Ġsix": 2514,
      "Ġdeb": 2515,
      "Ã©": 2516,
      "pid": 2517,
      "Ġonline": 2518,
      "Ġprevious": 2519,
      "ulations": 2520,
      "):": 2521,
      "ese": 2522,
      "ĠAfter": 2523,
      "ricult": 2524,
      "Ġmatter": 2525,
      "Ġservice": 2526,
      "Ġcauses": 2527,
      "hold": 2528,
      "ively": 2529,
      "Ġsense": 2530,
      "Ġschools": 2531,
      "Ġcop": 2532,
      "Ġenvironmental": 2533,
      "ĠPe": 2534,
      "yle": 2535,
      "Ġsociety": 2536,
      "Ġtraining": 2537,
      "Ġ196": 2538,
      "Ġprovided": 2539,
      "Ġmach": 2540,
      "ID": 2541,
      "icles": 2542,
      "rought": 2543,
      "Ġbuilt": 2544,
      "ene": 2545,
      "Ġvari": 2546,
      "reng": 2547,
      "Ġ11": 2548,
      "Ġtravel": 2549,
      "Ġtalk": 2550,
      "ĠWhile": 2551,
      "Ġheat": 2552,
      "AT": 2553,
      "wh": 2554,
      "ows": 2555,
      "apan": 2556,
      "ister": 2557,
      "Ġaccept": 2558,
      "Ġspread": 2559,
      "Ġbenefits": 2560,
      "Ġclean": 2561,
      "uck": 2562,
      "ĠCanad": 2563,
      "Ġdiagn": 2564,
      "Ġ25": 2565,
      "Ġheav": 2566,
      "order": 2567,
      "ĠEm": 2568,
      "ropri": 2569,
      "Ġconc": 2570,
      "Ġbreak": 2571,
      "Ġsat": 2572,
      "Ġ|": 2573,
      "vey": 2574,
      "Ġstandard": 2575,
      "Ġprec": 2576,
      "Ġpositive": 2577,
      "ufact": 2578,
      "Ġcontact": 2579,
      "Ġtrue": 2580,
      "aily": 2581,
      "fully": 2582,
      "Ġshown": 2583,
      "AR": 2584,
      "itation": 2585,
      "Ġlives": 2586,
      "lt": 2587,
      "Ġreported": 2588,
      "Ġdesigned": 2589,
      "Ġce": 2590,
      "Ġste": 2591,
      "ederal": 2592,
      "Ġdeep": 2593,
      "istics": 2594,
      "Ġmeaning": 2595,
      "Ġwild": 2596,
      "astic": 2597,
      "ns": 2598,
      "Ġprograms": 2599,
      "lex": 2600,
      "Ġcheck": 2601,
      "ched": 2602,
      "Ġcompan": 2603,
      "aff": 2604,
      "Ġbring": 2605,
      "Ġsleep": 2606,
      "Ġcontain": 2607,
      "eration": 2608,
      "ĠNo": 2609,
      "ĠResearch": 2610,
      "istance": 2611,
      "ials": 2612,
      "hood": 2613,
      "inary": 2614,
      "light": 2615,
      "Ġthing": 2616,
      "Ġmovement": 2617,
      "ĠII": 2618,
      "Ġled": 2619,
      "Ġsafe": 2620,
      "Ġmechan": 2621,
      "Ġeasy": 2622,
      "Ġgreater": 2623,
      "ners": 2624,
      "imately": 2625,
      "rench": 2626,
      "Ġincludes": 2627,
      "ĠSec": 2628,
      "Ġaverage": 2629,
      "Ġresponse": 2630,
      "Ġearth": 2631,
      "Ġthreat": 2632,
      "Ġsubst": 2633,
      "Ġvariety": 2634,
      "ĠÂ": 2635,
      "Ġinj": 2636,
      "Ġidentify": 2637,
      "Ġregular": 2638,
      "ĠSchool": 2639,
      "Ġissue": 2640,
      "Ġ194": 2641,
      "Ġrelative": 2642,
      "ĠIndia": 2643,
      "ĠSu": 2644,
      "Ġscientists": 2645,
      "Ġface": 2646,
      "Ġeat": 2647,
      "osition": 2648,
      "ster": 2649,
      "ronic": 2650,
      "verse": 2651,
      "rior": 2652,
      "Ġensure": 2653,
      "mon": 2654,
      "Ġetc": 2655,
      "ĠInstit": 2656,
      "Ġcompl": 2657,
      "Ġ--": 2658,
      "atives": 2659,
      "Ġstop": 2660,
      "arily": 2661,
      "Ġfem": 2662,
      "Ġreview": 2663,
      "ĠPar": 2664,
      "aving": 2665,
      "Ġrespect": 2666,
      "Ġexc": 2667,
      "Ġorigin": 2668,
      "Ġsources": 2669,
      "ĠKing": 2670,
      "Ġcust": 2671,
      "Ġinvolved": 2672,
      "Ġimplement": 2673,
      "Ġbelieve": 2674,
      "Ġevents": 2675,
      "Ġbacter": 2676,
      "Ġvide": 2677,
      "Ġslow": 2678,
      "new": 2679,
      "Ġremov": 2680,
      "Ġsometimes": 2681,
      "Ġhelps": 2682,
      "asc": 2683,
      "Ġlif": 2684,
      "ĠMin": 2685,
      "Ġmethods": 2686,
      "Ġtarget": 2687,
      "Ġcompet": 2688,
      "dom": 2689,
      "Ġimage": 2690,
      "Ġwritten": 2691,
      "Ġsimply": 2692,
      "Ġencoura": 2693,
      "ades": 2694,
      "ength": 2695,
      "amed": 2696,
      "Ġstreng": 2697,
      "lands": 2698,
      "But": 2699,
      "Ġviol": 2700,
      "know": 2701,
      "aries": 2702,
      "ief": 2703,
      "Ġcarbon": 2704,
      "ĠPres": 2705,
      "umb": 2706,
      "ender": 2707,
      "rim": 2708,
      "rast": 2709,
      "Ġnormal": 2710,
      "Ġaff": 2711,
      "duc": 2712,
      "Ġuses": 2713,
      "Ġemb": 2714,
      "Ġdoing": 2715,
      "Ġsust": 2716,
      "Ġnetwork": 2717,
      "Ġpict": 2718,
      "Ġlat": 2719,
      "Ġinteg": 2720,
      "Ġoriginal": 2721,
      "ĠJapan": 2722,
      "Ġpsych": 2723,
      "Ġoutside": 2724,
      "Ġdemon": 2725,
      "Ġcamp": 2726,
      "osure": 2727,
      "Ġmusic": 2728,
      "cil": 2729,
      "IN": 2730,
      "Ġcoun": 2731,
      "Ġvirus": 2732,
      "Ġparticularly": 2733,
      "icine": 2734,
      "ervation": 2735,
      "Ġdamage": 2736,
      "Ġpoll": 2737,
      "Ġforce": 2738,
      "Ġlove": 2739,
      "aling": 2740,
      "ached": 2741,
      "Ġpolicy": 2742,
      "gar": 2743,
      "Ġsafety": 2744,
      "Ġtheory": 2745,
      "Ġforms": 2746,
      "Ġchalleng": 2747,
      "Ġforest": 2748,
      "Ġcompon": 2749,
      "Ġgenerally": 2750,
      "Ġharm": 2751,
      "rated": 2752,
      "Ġbal": 2753,
      "lies": 2754,
      "ington": 2755,
      "Ġpoor": 2756,
      "Ġsqu": 2757,
      "Ġpage": 2758,
      "Ġlate": 2759,
      "ĠAustral": 2760,
      "Ġfoods": 2761,
      "ĠCO": 2762,
      "oor": 2763,
      "uge": 2764,
      "Ġmanufact": 2765,
      "ban": 2766,
      "rie": 2767,
      "Ġculture": 2768,
      "Ġrefer": 2769,
      "Ġattempt": 2770,
      "Ġbasic": 2771,
      "Ġproduced": 2772,
      "Ġattention": 2773,
      "25": 2774,
      "ĠChina": 2775,
      "Ġelectric": 2776,
      "Ġgrowing": 2777,
      "isions": 2778,
      "aches": 2779,
      "rand": 2780,
      "Ġtax": 2781,
      "ius": 2782,
      "Ġextreme": 2783,
      "Ġdeveloping": 2784,
      "ĠMe": 2785,
      "Ġlack": 2786,
      "ĠPer": 2787,
      "Ġple": 2788,
      "oly": 2789,
      "Ġselect": 2790,
      "Ġfeet": 2791,
      "issions": 2792,
      "Ġwebs": 2793,
      "erson": 2794,
      "Ġinvestig": 2795,
      "ĠScience": 2796,
      "part": 2797,
      "Ġconsist": 2798,
      "Ġindepend": 2799,
      "Ġnumbers": 2800,
      "Ġshare": 2801,
      "ctions": 2802,
      "idge": 2803,
      "raft": 2804,
      "room": 2805,
      "Ġdefin": 2806,
      "ĠWill": 2807,
      "Ġdraw": 2808,
      "Ġincluded": 2809,
      "Ġ24": 2810,
      "Ġhyd": 2811,
      "Ġcontinue": 2812,
      "Ġcit": 2813,
      "Ġanimal": 2814,
      "Ġlog": 2815,
      "Ġdispl": 2816,
      "ming": 2817,
      "Ġfa": 2818,
      "Ġir": 2819,
      "Ġcorrect": 2820,
      "ana": 2821,
      "Ġfinanc": 2822,
      "ises": 2823,
      "Ġserious": 2824,
      "Ġwood": 2825,
      "imum": 2826,
      "Ġemot": 2827,
      "Ġaware": 2828,
      "ĠCount": 2829,
      "Ġperformance": 2830,
      "ĠHar": 2831,
      "osing": 2832,
      "Ġmedia": 2833,
      "Ġprobably": 2834,
      "ĠApp": 2835,
      "ems": 2836,
      "Ġgetting": 2837,
      "Ġvisit": 2838,
      "Ġessay": 2839,
      "Ġcommit": 2840,
      "Ġinternational": 2841,
      "ĠMore": 2842,
      "elling": 2843,
      "ĠQu": 2844,
      "Ġexpress": 2845,
      "Ġdou": 2846,
      "ĠAug": 2847,
      "Ġveget": 2848,
      "ucle": 2849,
      "Ġpatient": 2850,
      "bor": 2851,
      "cies": 2852,
      "Ġleaders": 2853,
      "abet": 2854,
      "set": 2855,
      "Ġsold": 2856,
      "ĠMany": 2857,
      "oles": 2858,
      "ography": 2859,
      "irit": 2860,
      "Ġprep": 2861,
      "Ġtree": 2862,
      "Ġ/": 2863,
      "Ġteachers": 2864,
      "uary": 2865,
      "Ġtakes": 2866,
      "Ġi": 2867,
      "Ġnight": 2868,
      "Ġmess": 2869,
      "Ġcivil": 2870,
      "itude": 2871,
      "ecause": 2872,
      "ground": 2873,
      "ided": 2874,
      "Ġsea": 2875,
      "Ġtherefore": 2876,
      "Ġago": 2877,
      "Ġcapt": 2878,
      "asons": 2879,
      "ĠPre": 2880,
      "Ġestim": 2881,
      "Ġdiv": 2882,
      "ĠJan": 2883,
      "ĠJu": 2884,
      "ties": 2885,
      "Ġmicro": 2886,
      "Ġmagn": 2887,
      "On": 2888,
      "Ġwall": 2889,
      "Ġthus": 2890,
      "Ġcommunities": 2891,
      "fect": 2892,
      "hel": 2893,
      "Ġeasily": 2894,
      "ribution": 2895,
      "IS": 2896,
      "Ġcover": 2897,
      "Ġcompanies": 2898,
      "Ġcolon": 2899,
      "ĠAg": 2900,
      "Ġvacc": 2901,
      "Ġlooking": 2902,
      "Ġideas": 2903,
      "ext": 2904,
      "where": 2905,
      "rate": 2906,
      "Ġtown": 2907,
      "Ġattack": 2908,
      "ĠEd": 2909,
      "Ġdaily": 2910,
      "Ġrout": 2911,
      "Ġdoesn": 2912,
      "Ġful": 2913,
      "Ġox": 2914,
      "Ġtraditional": 2915,
      "ension": 2916,
      "vention": 2917,
      "Ġconcent": 2918,
      "Ġcritical": 2919,
      "rs": 2920,
      "22": 2921,
      "overy": 2922,
      "ino": 2923,
      "Ġquite": 2924,
      "Ġseries": 2925,
      "ĠInt": 2926,
      "Ġallows": 2927,
      "uth": 2928,
      "Ġmother": 2929,
      "ellow": 2930,
      "Ġprimary": 2931,
      "Ġoffer": 2932,
      "ads": 2933,
      "Ġprint": 2934,
      "Ġestablished": 2935,
      "ancy": 2936,
      "Ġappropri": 2937,
      "Ġsil": 2938,
      "ĠCenter": 2939,
      "iforn": 2940,
      "Ġkids": 2941,
      "oes": 2942,
      "rew": 2943,
      "Ġtools": 2944,
      "Ġmental": 2945,
      "Ġspeed": 2946,
      "ĠBo": 2947,
      "Ġadded": 2948,
      "Ġachieve": 2949,
      "Ġdifference": 2950,
      "ĠFrench": 2951,
      "iency": 2952,
      "Ġunique": 2953,
      "iot": 2954,
      "Ġsomeone": 2955,
      "Ġsou": 2956,
      "pril": 2957,
      "Ġbab": 2958,
      "Ġeth": 2959,
      "iers": 2960,
      "Ġshall": 2961,
      "pe": 2962,
      "Ġthous": 2963,
      "Ġheld": 2964,
      "Ġdetermine": 2965,
      "ĠPart": 2966,
      "Ġnation": 2967,
      "Ġeval": 2968,
      "Ġ40": 2969,
      "Ġadditional": 2970,
      "Ġmultiple": 2971,
      "Ġmilitary": 2972,
      "Ġdang": 2973,
      "haps": 2974,
      "Ġfront": 2975,
      "Ġcross": 2976,
      "Ġdry": 2977,
      "Ġstarted": 2978,
      "orks": 2979,
      "erg": 2980,
      "Ġpoints": 2981,
      "ĠCons": 2982,
      "na": 2983,
      "Ġcompared": 2984,
      "Ġdiseases": 2985,
      "Ġbooks": 2986,
      "ying": 2987,
      "Ġscientific": 2988,
      "Ġreve": 2989,
      "Ġinstead": 2990,
      "Ġwarm": 2991,
      "ceed": 2992,
      "AN": 2993,
      "Ġthird": 2994,
      "arr": 2995,
      "Ġdecre": 2996,
      "Ġreflect": 2997,
      "Ġsecurity": 2998,
      "ĠEuropean": 2999,
      "term": 3000,
      "ĠEl": 3001,
      "Ġprogress": 3002,
      "Ġimmedi": 3003,
      "ĠWest": 3004,
      "Ġhumans": 3005,
      "Ġ2012": 3006,
      "Ġfav": 3007,
      "inks": 3008,
      "ha": 3009,
      "ĠOct": 3010,
      "Ġquickly": 3011,
      "ĠGerman": 3012,
      "undred": 3013,
      "Ġdirectly": 3014,
      "ifornia": 3015,
      "formation": 3016,
      "ror": 3017,
      "ĠIndian": 3018,
      "Ġanswer": 3019,
      "Ġinstit": 3020,
      "Ġunc": 3021,
      "ille": 3022,
      "thern": 3023,
      "Ġtend": 3024,
      "Ġvit": 3025,
      "Ġdocument": 3026,
      "ĠDepartment": 3027,
      "Ġaltern": 3028,
      "Ġlabor": 3029,
      "ĠMost": 3030,
      "Ġtur": 3031,
      "Ġcustom": 3032,
      "ĠEduc": 3033,
      "Ġhighly": 3034,
      "Ġtrees": 3035,
      "ĠRuss": 3036,
      "cell": 3037,
      "elt": 3038,
      "ĠInstitute": 3039,
      "Ġinfection": 3040,
      "ift": 3041,
      "Ġlarger": 3042,
      "Ġgard": 3043,
      "Ġcentral": 3044,
      "ĠMarch": 3045,
      "ĠGl": 3046,
      "Ġacid": 3047,
      "Ġaspect": 3048,
      "Ġaccur": 3049,
      "ĠYour": 3050,
      "Ġhabit": 3051,
      "Ġinside": 3052,
      "Ġhar": 3053,
      "icated": 3054,
      "Ġdecl": 3055,
      "Ġsupply": 3056,
      "Ġ2010": 3057,
      "Ġalthough": 3058,
      "Ġhost": 3059,
      "hern": 3060,
      "One": 3061,
      "Ġleading": 3062,
      "Ġhor": 3063,
      "ĠAc": 3064,
      "Ġdemonstr": 3065,
      "ims": 3066,
      "cean": 3067,
      "21": 3068,
      "Ġmount": 3069,
      "vant": 3070,
      "Ġcapital": 3071,
      "ĠSm": 3072,
      "Ġextra": 3073,
      "ON": 3074,
      "Ġwrite": 3075,
      "rig": 3076,
      "Ġanaly": 3077,
      "gency": 3078,
      "Ġactive": 3079,
      "lied": 3080,
      "ĠRiver": 3081,
      "yr": 3082,
      "ounds": 3083,
      "Ġhot": 3084,
      "Ġsoon": 3085,
      "Ġexercise": 3086,
      "Ġcontribut": 3087,
      "aly": 3088,
      "Ġwent": 3089,
      "iques": 3090,
      "Ġbirth": 3091,
      "Ġsevere": 3092,
      "ĠAfrica": 3093,
      "Ġproced": 3094,
      "oming": 3095,
      "ulate": 3096,
      "Ġnegative": 3097,
      "omet": 3098,
      "lier": 3099,
      "Ġpurpose": 3100,
      "den": 3101,
      "ĠJune": 3102,
      "cial": 3103,
      "nov": 3104,
      "ils": 3105,
      "Ġtowards": 3106,
      "Ġtri": 3107,
      "Ġquant": 3108,
      "anks": 3109,
      "Ġbehind": 3110,
      "ĠCalifornia": 3111,
      "Ġspeak": 3112,
      "Ġprior": 3113,
      "IC": 3114,
      "Ġtiss": 3115,
      "isms": 3116,
      "'re": 3117,
      "ls": 3118,
      "Ġwhose": 3119,
      "Ġbroad": 3120,
      "www": 3121,
      "Ġeye": 3122,
      "Ġstay": 3123,
      "Ġsolar": 3124,
      "Ġdrink": 3125,
      "Ġsearch": 3126,
      "Ġfamilies": 3127,
      "chol": 3128,
      "Ġworkers": 3129,
      "ilos": 3130,
      "Ġbit": 3131,
      "Ġstrateg": 3132,
      "joy": 3133,
      "sect": 3134,
      "ĠGovern": 3135,
      "Ġreceived": 3136,
      "ĠNot": 3137,
      "Ġlimited": 3138,
      "Ġwalk": 3139,
      "Ġbad": 3140,
      "Ġclin": 3141,
      "useum": 3142,
      "orthern": 3143,
      "hens": 3144,
      "Ġbeginning": 3145,
      "ĠAfrican": 3146,
      "OR": 3147,
      "Ġdoctor": 3148,
      "Ġ,": 3149,
      "mar": 3150,
      "ĠAugust": 3151,
      "Ġjud": 3152,
      "Ġsituation": 3153,
      "Ġaud": 3154,
      "Ġsustain": 3155,
      "Ġfinancial": 3156,
      "Ġprotection": 3157,
      "Ġobt": 3158,
      "Ġfoot": 3159,
      "ĠInternational": 3160,
      "Ġnorth": 3161,
      "Ġinfluence": 3162,
      "ĠRec": 3163,
      "Ġhands": 3164,
      "rael": 3165,
      "ĠUs": 3166,
      "Ġadminist": 3167,
      "yond": 3168,
      "ĠOf": 3169,
      "Ġsoftware": 3170,
      "Ġstra": 3171,
      "Ġseems": 3172,
      "Ġsection": 3173,
      "Ġfeatures": 3174,
      "Ġuseful": 3175,
      "Ġagree": 3176,
      "ĠMus": 3177,
      "rote": 3178,
      "Ġ2011": 3179,
      "Ġord": 3180,
      "Ġhundred": 3181,
      "Ġfram": 3182,
      "Ġminutes": 3183,
      "Ġsn": 3184,
      "40": 3185,
      "Ġexpect": 3186,
      "Ġfight": 3187,
      "Ġx": 3188,
      "Ġlargest": 3189,
      "Ġbase": 3190,
      "Ġmill": 3191,
      "He": 3192,
      "lection": 3193,
      "ĠChar": 3194,
      "Ġcontains": 3195,
      "Ġang": 3196,
      "ĠArt": 3197,
      "Ġagricult": 3198,
      "inct": 3199,
      "oring": 3200,
      "iber": 3201,
      "Ġones": 3202,
      "bit": 3203,
      "ĠOther": 3204,
      "Ġvalues": 3205,
      "Ġtransport": 3206,
      "ĠApril": 3207,
      "ields": 3208,
      "Ġthinking": 3209,
      "âĢ¢": 3210,
      "Ġprotein": 3211,
      "Ġbrought": 3212,
      "Ġancient": 3213,
      "rag": 3214,
      "ĠReg": 3215,
      "Ġrates": 3216,
      "ĠSept": 3217,
      "23": 3218,
      "Ġstri": 3219,
      "Ġdemand": 3220,
      "Ġimpl": 3221,
      "Ġadj": 3222,
      "ĠHer": 3223,
      "equ": 3224,
      "Ġcarry": 3225,
      "come": 3226,
      "ĠAlthough": 3227,
      "Ġlength": 3228,
      "pper": 3229,
      "Ġteaching": 3230,
      "istry": 3231,
      "oke": 3232,
      "And": 3233,
      "ipment": 3234,
      "ĠServ": 3235,
      "Ġprivate": 3236,
      "att": 3237,
      "Ġinterp": 3238,
      "Ġhttp": 3239,
      "izations": 3240,
      "Ġseason": 3241,
      "EN": 3242,
      "So": 3243,
      "Ġnews": 3244,
      "gn": 3245,
      "Ġexact": 3246,
      "Ġrequires": 3247,
      "Ġlost": 3248,
      "eal": 3249,
      "ologies": 3250,
      "Ġapplication": 3251,
      "Ġimportance": 3252,
      "hest": 3253,
      "ibrary": 3254,
      "ĠCong": 3255,
      "ĠChild": 3256,
      "Ġmom": 3257,
      "Ġdescribed": 3258,
      "Ġestablish": 3259,
      "ĠMon": 3260,
      "Ġvideo": 3261,
      "Ġexcept": 3262,
      "Ġweeks": 3263,
      "cks": 3264,
      "Ġlines": 3265,
      "Ġblock": 3266,
      "Ġcred": 3267,
      "Ġefforts": 3268,
      "Ġpack": 3269,
      "Ġlocated": 3270,
      "life": 3271,
      "Ġfit": 3272,
      "see": 3273,
      "Ġprocesses": 3274,
      "coh": 3275,
      "ĠRet": 3276,
      "ulated": 3277,
      "Ġmiles": 3278,
      "Ġdisp": 3279,
      "Ġtold": 3280,
      "Ġdevices": 3281,
      "ĠJes": 3282,
      "rogen": 3283,
      "ĠPol": 3284,
      "Ġelements": 3285,
      "ĠFirst": 3286,
      "ĠJuly": 3287,
      "Ġlaws": 3288,
      "uries": 3289,
      "Ġproperty": 3290,
      "Ġimages": 3291,
      "ran": 3292,
      "wise": 3293,
      "itch": 3294,
      "ĠTra": 3295,
      "ription": 3296,
      "oud": 3297,
      "con": 3298,
      "uman": 3299,
      "Ġcard": 3300,
      "Ġstru": 3301,
      "ĠCor": 3302,
      "Ġplaces": 3303,
      "Ġfast": 3304,
      "ĠAnt": 3305,
      "Ġleaves": 3306,
      "fort": 3307,
      "60": 3308,
      "vest": 3309,
      "Ġdecision": 3310,
      "Ġsouth": 3311,
      "IV": 3312,
      "used": 3313,
      "AS": 3314,
      "Ġsummer": 3315,
      "Ġnearly": 3316,
      "aid": 3317,
      "reek": 3318,
      "ĠWash": 3319,
      "omb": 3320,
      "itis": 3321,
      "rition": 3322,
      "Ġdark": 3323,
      "Ġgot": 3324,
      "Ġadapt": 3325,
      "Ġcosts": 3326,
      "Ġ2013": 3327,
      "lam": 3328,
      "ĠKe": 3329,
      "mission": 3330,
      "year": 3331,
      "ĠChristian": 3332,
      "uous": 3333,
      "med": 3334,
      "bol": 3335,
      "Ġelse": 3336,
      "Ġremain": 3337,
      "Ġwa": 3338,
      "Ġmole": 3339,
      "80": 3340,
      "uk": 3341,
      "Ġadults": 3342,
      "Ġ21": 3343,
      "ixed": 3344,
      "water": 3345,
      "Ġcapac": 3346,
      "Ġwaste": 3347,
      "abetes": 3348,
      "Ġcommand": 3349,
      "Ġmemory": 3350,
      "Ġrespond": 3351,
      "Ġmention": 3352,
      "Ġenjoy": 3353,
      "Ġsolution": 3354,
      "Ġsites": 3355,
      "Ġgame": 3356,
      "imal": 3357,
      "199": 3358,
      "Ġgoal": 3359,
      "Ġtests": 3360,
      "Ġremains": 3361,
      "ĠHere": 3362,
      "Ġtesting": 3363,
      "Ġadop": 3364,
      "idents": 3365,
      "arian": 3366,
      "Ġbasis": 3367,
      "alt": 3368,
      "imin": 3369,
      "Ġsurround": 3370,
      "ĠHistory": 3371,
      "Ġveh": 3372,
      "Ġborn": 3373,
      "Ġjo": 3374,
      "Ġapplications": 3375,
      "itect": 3376,
      "Ġcitiz": 3377,
      "ham": 3378,
      "Ġappropriate": 3379,
      "ĠPresident": 3380,
      "Ġcultural": 3381,
      "Ġwebsite": 3382,
      "Ġreligious": 3383,
      "isl": 3384,
      "ĠFrom": 3385,
      "24": 3386,
      "orders": 3387,
      "Ġrare": 3388,
      "Ġfuel": 3389,
      "ĠIsrael": 3390,
      "Ġadvant": 3391,
      "king": 3392,
      "Ġcru": 3393,
      "odies": 3394,
      "Ġcreating": 3395,
      "ED": 3396,
      "ĠTw": 3397,
      "Ġnucle": 3398,
      "Ġreach": 3399,
      "Ġtechniques": 3400,
      "ĠSw": 3401,
      "Ġtypically": 3402,
      "ellig": 3403,
      "Ġbacteria": 3404,
      "Ġcool": 3405,
      "ĠProg": 3406,
      "ama": 3407,
      "Ġrapid": 3408,
      "ĠBar": 3409,
      "back": 3410,
      "Ġult": 3411,
      "iter": 3412,
      "ipl": 3413,
      "Ġcrop": 3414,
      "ĠDav": 3415,
      "ding": 3416,
      "izes": 3417,
      "Ġdead": 3418,
      "Ġvict": 3419,
      "cember": 3420,
      "Ġcommunication": 3421,
      "Ġautom": 3422,
      "Ġhimself": 3423,
      "Ġinstall": 3424,
      "ĠPress": 3425,
      "resh": 3426,
      "Ġeyes": 3427,
      "Ġbreat": 3428,
      "Ġtable": 3429,
      "Ġep": 3430,
      "iles": 3431,
      "Ġconstruction": 3432,
      "bur": 3433,
      "estic": 3434,
      "Ġmonitor": 3435,
      "Ġtherapy": 3436,
      "ony": 3437,
      "Ġtransl": 3438,
      "Ġbecomes": 3439,
      "Ġexposure": 3440,
      "ari": 3441,
      "ĠAssoci": 3442,
      "Ġdied": 3443,
      "Ġfinal": 3444,
      "Ġprojects": 3445,
      "PA": 3446,
      "Ġconflic": 3447,
      "Ġpan": 3448,
      "Ġreasons": 3449,
      "At": 3450,
      "Ġund": 3451,
      "Ġking": 3452,
      "Ġrain": 3453,
      "Ġteacher": 3454,
      "Ġcold": 3455,
      "Ġtrade": 3456,
      "ĠChurch": 3457,
      "IT": 3458,
      "inese": 3459,
      "Ġexpected": 3460,
      "ondon": 3461,
      "Ġcenter": 3462,
      "Ġproviding": 3463,
      "sec": 3464,
      "Ġcou": 3465,
      "head": 3466,
      "Ġgives": 3467,
      "ĠCanada": 3468,
      "ĠEngland": 3469,
      "atur": 3470,
      "Ġpractices": 3471,
      "uments": 3472,
      "apter": 3473,
      "Ġgradu": 3474,
      "Ġson": 3475,
      "uff": 3476,
      "Ġconstit": 3477,
      "Ġmiddle": 3478,
      "ĠPark": 3479,
      "Ġbul": 3480,
      "Ġoverall": 3481,
      "Ġegg": 3482,
      "Ġdepend": 3483,
      "Ġhope": 3484,
      "Ġpen": 3485,
      "Ġhyp": 3486,
      "ĠWilliam": 3487,
      "Ġmid": 3488,
      "airs": 3489,
      "Ġbeaut": 3490,
      "itable": 3491,
      "Ġequipment": 3492,
      "ĠDay": 3493,
      "ovember": 3494,
      "ĠGreat": 3495,
      "Ġenh": 3496,
      "ribute": 3497,
      "____": 3498,
      "Ġresponsible": 3499,
      "Ġcoast": 3500,
      "iece": 3501,
      "By": 3502,
      "strial": 3503,
      "iar": 3504,
      "Ġeating": 3505,
      "ula": 3506,
      "ĠIS": 3507,
      "Ġfruit": 3508,
      "rab": 3509,
      "Ġlegal": 3510,
      "âĢĿ.": 3511,
      "Ġaffected": 3512,
      "ests": 3513,
      "Ġpredict": 3514,
      "Ġdevice": 3515,
      "Ġ2009": 3516,
      "Ġweb": 3517,
      "Ġnothing": 3518,
      "ĠAmericans": 3519,
      "Ġstage": 3520,
      "Ġspirit": 3521,
      "Ġmodels": 3522,
      "Ġcalcul": 3523,
      "illing": 3524,
      "Ġanti": 3525,
      "cohol": 3526,
      "oe": 3527,
      "Ġten": 3528,
      "Ġhous": 3529,
      "Ġrecommend": 3530,
      "ĠJesus": 3531,
      "book": 3532,
      "These": 3533,
      "men": 3534,
      "Ġfriends": 3535,
      "ĠJanuary": 3536,
      "Ġcontroll": 3537,
      "ĠMc": 3538,
      "ĠWashington": 3539,
      "Ġdigital": 3540,
      "ĠMy": 3541,
      "mitted": 3542,
      "Ġexamples": 3543,
      "ĠCommun": 3544,
      "Ġwinter": 3545,
      "Ġbott": 3546,
      "Ġfather": 3547,
      "Ġvirt": 3548,
      "Ġforces": 3549,
      "Ġrecently": 3550,
      "Ġasked": 3551,
      "unch": 3552,
      "Ġice": 3553,
      "Ġfederal": 3554,
      "Ġ2008": 3555,
      "Ġcam": 3556,
      "ĠSeptember": 3557,
      "aters": 3558,
      "Ġeconomy": 3559,
      "Ġreceive": 3560,
      "Ġchoose": 3561,
      "Ġstandards": 3562,
      "Ġbenefit": 3563,
      "cles": 3564,
      "Ġeffort": 3565,
      "ica": 3566,
      "Ġbehavi": 3567,
      "Ġsaw": 3568,
      "ĠTechn": 3569,
      "Ġbeyond": 3570,
      "ĠFeb": 3571,
      "Ġtit": 3572,
      "Ġopportunity": 3573,
      "Ġcode": 3574,
      "ĠEc": 3575,
      "Ġfollowed": 3576,
      "Ġcele": 3577,
      "ought": 3578,
      "Ġder": 3579,
      "Ġweather": 3580,
      "ĠInc": 3581,
      "mosp": 3582,
      "exic": 3583,
      "Ġprofessional": 3584,
      "iples": 3585,
      "Ġanything": 3586,
      "Ġconsequ": 3587,
      "Ġmeasures": 3588,
      "aught": 3589,
      "Ġdate": 3590,
      "Ġroom": 3591,
      "Ġrise": 3592,
      "Ġsmaller": 3593,
      "ĠCounty": 3594,
      "ĠOctober": 3595,
      "With": 3596,
      "Ġinsp": 3597,
      "time": 3598,
      "aul": 3599,
      "Ġfear": 3600,
      "Ġ23": 3601,
      "Ġwrote": 3602,
      "Ġusers": 3603,
      "irection": 3604,
      "Ġguid": 3605,
      "Ġ:": 3606,
      "Ġformer": 3607,
      "Ġsequ": 3608,
      "Ġinstru": 3609,
      "Ġeverything": 3610,
      "ĠFl": 3611,
      "ĠEducation": 3612,
      "Ġsett": 3613,
      "Ġimag": 3614,
      "Ġorganization": 3615,
      "Ġconnect": 3616,
      "Ġmaintain": 3617,
      "ev": 3618,
      "Ġobjects": 3619,
      "ĠAccording": 3620,
      "Ġstrength": 3621,
      "Ġoccurs": 3622,
      "Ġrob": 3623,
      "While": 3624,
      "icate": 3625,
      "Ġyourself": 3626,
      "Ġcateg": 3627,
      "Ġshape": 3628,
      "hemat": 3629,
      "Ex": 3630,
      "Ġcommerc": 3631,
      "Ġlocation": 3632,
      "Ġvia": 3633,
      "Ġearlier": 3634,
      "Ġalone": 3635,
      "Ġteeth": 3636,
      "Ġsuccessful": 3637,
      "Ġapprox": 3638,
      "edia": 3639,
      "Ġwon": 3640,
      "Ġhon": 3641,
      "reet": 3642,
      "Ġexec": 3643,
      "Ġbirds": 3644,
      "Ġcurrently": 3645,
      "enge": 3646,
      "Ġhistorical": 3647,
      "ĠOur": 3648,
      "Ġdifferences": 3649,
      "Ġwoman": 3650,
      "ype": 3651,
      "rees": 3652,
      "Ġ193": 3653,
      "Ġpregn": 3654,
      "Ġcry": 3655,
      "Ġball": 3656,
      "vert": 3657,
      "Ġrock": 3658,
      "ĠEast": 3659,
      "Ġvisual": 3660,
      "Ġroad": 3661,
      "fl": 3662,
      "Ġmax": 3663,
      "Ġdegree": 3664,
      "ford": 3665,
      "Ġcompletely": 3666,
      "Ġrich": 3667,
      "Ġolder": 3668,
      "ĠJournal": 3669,
      "ocr": 3670,
      "Ġscreen": 3671,
      "ĠLear": 3672,
      "rec": 3673,
      "more": 3674,
      "oday": 3675,
      "Ġconstant": 3676,
      "Ġcontinued": 3677,
      "Ġpurch": 3678,
      "ira": 3679,
      "Ġsugar": 3680,
      "ĠCity": 3681,
      "ruary": 3682,
      "amb": 3683,
      "Ġ60": 3684,
      "ĠEven": 3685,
      "Ġtrying": 3686,
      "aur": 3687,
      "Ġbeg": 3688,
      "ĠDevelop": 3689,
      "Ġrules": 3690,
      "Ġsect": 3691,
      "Ġtrack": 3692,
      "load": 3693,
      "Ġinteresting": 3694,
      "Ġfile": 3695,
      "Ġsteps": 3696,
      "Ġneigh": 3697,
      "eech": 3698,
      "ingu": 3699,
      "Ġallowed": 3700,
      "AC": 3701,
      "wide": 3702,
      "Ġcommonly": 3703,
      "aint": 3704,
      "Ġ22": 3705,
      "Ġleave": 3706,
      "Ġeveryone": 3707,
      "Ġscale": 3708,
      "Ġpow": 3709,
      "edom": 3710,
      "Ġnamed": 3711,
      "enty": 3712,
      "Ġbillion": 3713,
      "Ġpeace": 3714,
      "oration": 3715,
      "ĠCoun": 3716,
      "Ġisn": 3717,
      "Ġpet": 3718,
      "rick": 3719,
      "ĠVal": 3720,
      "su": 3721,
      "Ġoccup": 3722,
      "Ġreduced": 3723,
      "can": 3724,
      "ĠDecember": 3725,
      "Ġenter": 3726,
      "ĠVir": 3727,
      "Ġdrugs": 3728,
      "Ġplaced": 3729,
      "ĠGermany": 3730,
      "Ġhosp": 3731,
      "EC": 3732,
      "Ġdeal": 3733,
      ");": 3734,
      "Ġgenetic": 3735,
      "ĠMod": 3736,
      "Ġdestro": 3737,
      "ĠChinese": 3738,
      "emy": 3739,
      "Ġgave": 3740,
      "Ġacqu": 3741,
      "Ġevolution": 3742,
      "rieved": 3743,
      "Ġcontext": 3744,
      "lin": 3745,
      "ĠSystem": 3746,
      "Ġmember": 3747,
      "tery": 3748,
      "Ġgoes": 3749,
      "Ġswe": 3750,
      "Ġcontract": 3751,
      "Ġcook": 3752,
      "aled": 3753,
      "ĠLondon": 3754,
      "Ġcompar": 3755,
      "Ġeight": 3756,
      "ocks": 3757,
      "ĠHouse": 3758,
      "ĠSur": 3759,
      "Ġidentified": 3760,
      "Ġlimit": 3761,
      "Ġstatus": 3762,
      "Ġperfect": 3763,
      "Ġrat": 3764,
      "70": 3765,
      "Ġsigns": 3766,
      "Ġphilos": 3767,
      "ĠMexic": 3768,
      "iable": 3769,
      "Ġ2014": 3770,
      "Ġpowerful": 3771,
      "ĠDis": 3772,
      "Ġ28": 3773,
      "Ġcoming": 3774,
      "Ġrule": 3775,
      "AL": 3776,
      "ĠSan": 3777,
      "Ġelectr": 3778,
      "igen": 3779,
      "ĠLaw": 3780,
      "craft": 3781,
      "Ġfair": 3782,
      "Ġuser": 3783,
      "Ġacad": 3784,
      "Ġshowed": 3785,
      "Ġden": 3786,
      "Ġcra": 3787,
      "Ġcollection": 3788,
      "ĠRed": 3789,
      "Ġmajority": 3790,
      "ĠRo": 3791,
      "que": 3792,
      "Ġdisplay": 3793,
      "bl": 3794,
      "ĠDuring": 3795,
      "ĠBi": 3796,
      "Ġbra": 3797,
      "Ġformed": 3798,
      "ĠSim": 3799,
      "Ġ+": 3800,
      "ĠNovember": 3801,
      "ensity": 3802,
      "Ġplanet": 3803,
      "Ġdirection": 3804,
      "iring": 3805,
      "Ġfully": 3806,
      "Ġ2007": 3807,
      "Ġefficient": 3808,
      "ament": 3809,
      "ĠHigh": 3810,
      "Ġasse": 3811,
      "Ġstrugg": 3812,
      "ees": 3813,
      "gery": 3814,
      "Some": 3815,
      "Ġapplied": 3816,
      "Ġmachine": 3817,
      "anish": 3818,
      "phas": 3819,
      "cious": 3820,
      "rehens": 3821,
      "Ġdiscovered": 3822,
      "Ġversion": 3823,
      "ibly": 3824,
      "Ġbelief": 3825,
      "29": 3826,
      "bre": 3827,
      "ĠInst": 3828,
      "Ġproperties": 3829,
      "ĠTrans": 3830,
      "ero": 3831,
      "Ġsitu": 3832,
      "Ġgold": 3833,
      "Ġdat": 3834,
      "Ġillust": 3835,
      "Ġchurch": 3836,
      "abilities": 3837,
      "Ġcourt": 3838,
      "Ġemp": 3839,
      "Ġmiss": 3840,
      "ogen": 3841,
      "known": 3842,
      "osy": 3843,
      "ĠThen": 3844,
      "Ġmis": 3845,
      "off": 3846,
      "Ġincreases": 3847,
      "Ġpresence": 3848,
      "ĠCour": 3849,
      "Ġperhaps": 3850,
      "Ġchoice": 3851,
      "Ġchallenges": 3852,
      "orge": 3853,
      "Ġpoly": 3854,
      "Ġmig": 3855,
      "Ġinsect": 3856,
      "ĠUnion": 3857,
      "Ġpatterns": 3858,
      "Ġdistance": 3859,
      "Ġarchitect": 3860,
      "Ġdiabetes": 3861,
      "ĠRead": 3862,
      "ĠSince": 3863,
      "encies": 3864,
      "\",": 3865,
      "care": 3866,
      "ocol": 3867,
      "Ġcapacity": 3868,
      "Ġtox": 3869,
      "Ġmoving": 3870,
      "Ġteach": 3871,
      "ĠRoman": 3872,
      "ĠBr": 3873,
      "Ġcities": 3874,
      "Ġoffers": 3875,
      "odes": 3876,
      "Ġreports": 3877,
      "rief": 3878,
      "Ġemissions": 3879,
      "Ġeffic": 3880,
      "ĠCongress": 3881,
      "Ġnote": 3882,
      "Ġillness": 3883,
      "ĠProf": 3884,
      "Ġobserved": 3885,
      "Ġrelatively": 3886,
      "Ġequal": 3887,
      "Ġforward": 3888,
      "26": 3889,
      "rupt": 3890,
      "Ġremember": 3891,
      "Ġfindings": 3892,
      "Ġiniti": 3893,
      "resp": 3894,
      "Ġopportunities": 3895,
      "Ġimmune": 3896,
      "Ġmob": 3897,
      "Ġpromot": 3898,
      "Ġwid": 3899,
      "ĠFrance": 3900,
      "ĠAustralia": 3901,
      "ĠGeneral": 3902,
      "Ġregions": 3903,
      "Ġprice": 3904,
      "Ġelement": 3905,
      "Ġjoint": 3906,
      "Ġworth": 3907,
      "related": 3908,
      "Ġvill": 3909,
      "Ġsymbol": 3910,
      "Ġstim": 3911,
      "Ġfactor": 3912,
      "Ad": 3913,
      "Ġwond": 3914,
      "Ġfemale": 3915,
      "ogle": 3916,
      "Ġexisting": 3917,
      "28": 3918,
      "Ġatmosp": 3919,
      "Ġdivid": 3920,
      "force": 3921,
      "ĠPat": 3922,
      "ternal": 3923,
      "oma": 3924,
      "ĠAlso": 3925,
      "ara": 3926,
      "ĠSociety": 3927,
      "Ġnames": 3928,
      "orage": 3929,
      "Ġactions": 3930,
      "Ġpicture": 3931,
      "Ġincor": 3932,
      "Ġ195": 3933,
      "ords": 3934,
      "Ġmal": 3935,
      "ste": 3936,
      "Ġnutri": 3937,
      "Ġbaby": 3938,
      "Ġconvers": 3939,
      "Ġqual": 3940,
      "Ġconsumption": 3941,
      "Ġappears": 3942,
      "Ġdidn": 3943,
      "27": 3944,
      "Ġassign": 3945,
      "che": 3946,
      "ĠNA": 3947,
      "Ġchanged": 3948,
      "Pro": 3949,
      "ĠBecause": 3950,
      "Is": 3951,
      "Ġfresh": 3952,
      "ĠDNA": 3953,
      "ĠBlack": 3954,
      "Ġtou": 3955,
      "Ġtask": 3956,
      "inated": 3957,
      "Ġmoment": 3958,
      "Ġbank": 3959,
      "Ġgarden": 3960,
      "Ġdetect": 3961,
      "Ġexpand": 3962,
      "Ġassist": 3963,
      "Ġtransfer": 3964,
      "ĠNow": 3965,
      "Ġast": 3966,
      "house": 3967,
      "Ġalcohol": 3968,
      "ĠWater": 3969,
      "Ġriver": 3970,
      "Ġbelieved": 3971,
      "Ġap": 3972,
      "Ġspring": 3973,
      "aste": 3974,
      "Ġstaff": 3975,
      "ĠJewish": 3976,
      "Ġstrategies": 3977,
      "Ġunit": 3978,
      "uls": 3979,
      "Ġ26": 3980,
      "Ġworked": 3981,
      "aign": 3982,
      "Ġtele": 3983,
      "Ġexperim": 3984,
      "Ġmut": 3985,
      "Ġassum": 3986,
      "iences": 3987,
      "Ġstar": 3988,
      "Ġcomponents": 3989,
      "eding": 3990,
      "Ġhair": 3991,
      "Ġinnov": 3992,
      "ĠUK": 3993,
      "Ġmission": 3994,
      "Ġoffice": 3995,
      "ux": 3996,
      "Ġcitizens": 3997,
      "ĠFin": 3998,
      "Ġevalu": 3999,
      "Ġfunctions": 4000,
      "ĠProt": 4001,
      "Ġinstance": 4002,
      "Ġabsor": 4003,
      "lim": 4004,
      "Ġcollabor": 4005,
      "Ġmouth": 4006,
      "ĠPal": 4007,
      "Ġguide": 4008,
      "Ġrunning": 4009,
      "ĠPeople": 4010,
      "Ġaim": 4011,
      "ĠRetrieved": 4012,
      "Ġeducational": 4013,
      "ĠConf": 4014,
      "HE": 4015,
      "Ġsusp": 4016,
      "Ġsignificantly": 4017,
      "Ġjournal": 4018,
      "Ġlegisl": 4019,
      "ĠAre": 4020,
      "cont": 4021,
      "ession": 4022,
      "icip": 4023,
      "Ġantib": 4024,
      "Ġing": 4025,
      "Ġsurvey": 4026,
      "Ġconstruct": 4027,
      "ĠFebruary": 4028,
      "Ġforeign": 4029,
      "ĠPhil": 4030,
      "hors": 4031,
      "Ġattract": 4032,
      "Ġroot": 4033,
      "II": 4034,
      "Ġexplain": 4035,
      "Ġinstruct": 4036,
      "Ġstyle": 4037,
      "Ġplanning": 4038,
      "Ġ2015": 4039,
      "iful": 4040,
      "Ġexcess": 4041,
      "ĠArch": 4042,
      "Ġoptions": 4043,
      "Ġboard": 4044,
      "iny": 4045,
      "Ġgir": 4046,
      "apers": 4047,
      "bed": 4048,
      "gypt": 4049,
      "Ġexplore": 4050,
      "Ġ27": 4051,
      "Ġpassed": 4052,
      "nes": 4053,
      "Ġrepe": 4054,
      "Ġcommercial": 4055,
      "ĠGovernment": 4056,
      "Ġbalance": 4057,
      "ĠEnvironment": 4058,
      "Ġseparate": 4059,
      "Ġmap": 4060,
      "Ġincome": 4061,
      "Ġweak": 4062,
      "Ġpiece": 4063,
      "Ġ2000": 4064,
      "pris": 4065,
      "Ġintellig": 4066,
      "Ġgiving": 4067,
      "ĠUse": 4068,
      "ĠLat": 4069,
      "Ġbound": 4070,
      "Ġchance": 4071,
      "Ġcarried": 4072,
      "iance": 4073,
      "Ġblue": 4074,
      "ky": 4075,
      "ĠAng": 4076,
      "asion": 4077,
      "Ġfigure": 4078,
      "ĠTheir": 4079,
      "Ġorganizations": 4080,
      "ĠJust": 4081,
      "Un": 4082,
      "Ġpresident": 4083,
      "Ġstories": 4084,
      "Ġplans": 4085,
      "Ġsexual": 4086,
      "RE": 4087,
      "era": 4088,
      "Ġfaith": 4089,
      "ald": 4090,
      "ĠBra": 4091,
      "Ġtissue": 4092,
      "co": 4093,
      "Ġeventually": 4094,
      "ĠCouncil": 4095,
      "ĠMor": 4096,
      "Ġresistance": 4097,
      "Ġthousands": 4098,
      "Ġiron": 4099,
      "Ġrequirements": 4100,
      "Ġfamous": 4101,
      "All": 4102,
      "Ġnative": 4103,
      "Ġglass": 4104,
      "Ġhighest": 4105,
      "Ġrot": 4106,
      "Ġdisorder": 4107,
      "Ġindustrial": 4108,
      "Â°": 4109,
      "rome": 4110,
      "Ġseven": 4111,
      "Ġhuge": 4112,
      "Ġdefined": 4113,
      "Ġemphas": 4114,
      "Ġ2006": 4115,
      "ĠCom": 4116,
      "Ġextremely": 4117,
      "Be": 4118,
      "Ġconducted": 4119,
      "Ġpresented": 4120,
      "omas": 4121,
      "ĠWestern": 4122,
      "ĠMich": 4123,
      "Ġwrong": 4124,
      "oice": 4125,
      "asks": 4126,
      "Ġsac": 4127,
      "Ġstructures": 4128,
      "Ġvision": 4129,
      "ĠAssociation": 4130,
      "iding": 4131,
      "ifically": 4132,
      "ĠInternet": 4133,
      "After": 4134,
      "iox": 4135,
      "ĠProgram": 4136,
      "Ġbed": 4137,
      "Ġfriend": 4138,
      "icial": 4139,
      "Ġves": 4140,
      "Ġtechnologies": 4141,
      "Ġtrust": 4142,
      "Ġfavor": 4143,
      "Ġoperations": 4144,
      "Ġdetails": 4145,
      "Ġmo": 4146,
      "Ġurban": 4147,
      "ĠEach": 4148,
      "Ġimmediately": 4149,
      "Ġapproximately": 4150,
      "Ġclassroom": 4151,
      "ĠColle": 4152,
      "Ġtemperatures": 4153,
      "Ġsuggests": 4154,
      "pped": 4155,
      "ĠVol": 4156,
      "Ġhappen": 4157,
      "ĠChe": 4158,
      "Ġapply": 4159,
      "ST": 4160,
      "Ġmale": 4161,
      "Ġtreated": 4162,
      "Ġdecades": 4163,
      "Ġunivers": 4164,
      "ologist": 4165,
      "ares": 4166,
      "ĠSch": 4167,
      "Ġgain": 4168,
      "ygen": 4169,
      "Ġdyn": 4170,
      "change": 4171,
      "Ġsample": 4172,
      "yd": 4173,
      "Ġfeature": 4174,
      "ĠNet": 4175,
      "Ġactual": 4176,
      "iant": 4177,
      "Ġheavy": 4178,
      "Ġpp": 4179,
      "tee": 4180,
      "Ġclinical": 4181,
      "ĠLord": 4182,
      "Ġneu": 4183,
      "Ġflood": 4184,
      "ĠLet": 4185,
      "Ġperspect": 4186,
      "Ġmuscle": 4187,
      "wards": 4188,
      "Ġtopic": 4189,
      "ii": 4190,
      "Ġutil": 4191,
      "ortion": 4192,
      "Ġexhib": 4193,
      "Ġanx": 4194,
      "ĠThus": 4195,
      "Ġbox": 4196,
      "Ġwatch": 4197,
      "urt": 4198,
      "ĠInter": 4199,
      "Ġletter": 4200,
      "enth": 4201,
      "ophy": 4202,
      "uild": 4203,
      "ĠJames": 4204,
      "uit": 4205,
      "Ġphen": 4206,
      "iate": 4207,
      "ographic": 4208,
      "Ġmedicine": 4209,
      "Ġslight": 4210,
      "ĠMat": 4211,
      "Ġhom": 4212,
      "imens": 4213,
      "Ġvary": 4214,
      "ĠWeb": 4215,
      "Ġexperiences": 4216,
      "DA": 4217,
      "Ġlayer": 4218,
      "Ġliterature": 4219,
      "Ġpopulations": 4220,
      "Ġserve": 4221,
      "Ġchallenge": 4222,
      "Ġresource": 4223,
      "Ġmoved": 4224,
      "90": 4225,
      "Ġbodies": 4226,
      "Ġmag": 4227,
      "erate": 4228,
      "They": 4229,
      "Ġplastic": 4230,
      "Ġbone": 4231,
      "Ġrelease": 4232,
      "Ġgoals": 4233,
      "Ġarm": 4234,
      "Ġtruth": 4235,
      "och": 4236,
      "Ġmer": 4237,
      "udd": 4238,
      "ager": 4239,
      "Ġopin": 4240,
      "Ġspeech": 4241,
      "Ġ80": 4242,
      "ching": 4243,
      "ĠRev": 4244,
      "Ġfert": 4245,
      "Ġalternative": 4246,
      "Ġcelebr": 4247,
      "zz": 4248,
      "Ġagg": 4249,
      "Ġgeneration": 4250,
      "Ġcycle": 4251,
      "Ġestimated": 4252,
      "ĠUN": 4253,
      "ĠSpec": 4254,
      "Ġplat": 4255,
      "Ġexperiment": 4256,
      "Ġliqu": 4257,
      "isher": 4258,
      "ĠPublic": 4259,
      "porary": 4260,
      "olved": 4261,
      "ĠEgypt": 4262,
      "ĠRepublic": 4263,
      "bal": 4264,
      "Ġlearned": 4265,
      "Ġitems": 4266,
      "Ġdecisions": 4267,
      "Ġpick": 4268,
      "35": 4269,
      "ss": 4270,
      "Ġdepression": 4271,
      "Ġstatement": 4272,
      "Ġeasier": 4273,
      "Ġelectricity": 4274,
      "ĠDes": 4275,
      "Ġdrive": 4276,
      "Ġrecommended": 4277,
      "Ġremove": 4278,
      "unction": 4279,
      "rest": 4280,
      "ias": 4281,
      "ĠFound": 4282,
      "Ġcontrast": 4283,
      "Ġdestroy": 4284,
      "Ġfrequently": 4285,
      "Ġstore": 4286,
      "Ġ2005": 4287,
      "Ġcircum": 4288,
      "ĠAv": 4289,
      "Ġfields": 4290,
      "ken": 4291,
      "eces": 4292,
      "uses": 4293,
      "ida": 4294,
      "ĠTherefore": 4295,
      "cular": 4296,
      "ĠGreen": 4297,
      "Ġintroduced": 4298,
      "Ġshap": 4299,
      "Ġbecoming": 4300,
      "Ġaspects": 4301,
      "ET": 4302,
      "Ġign": 4303,
      "Ġgraph": 4304,
      "char": 4305,
      "Ġnumerous": 4306,
      "ĠMic": 4307,
      "Ġ190": 4308,
      "rows": 4309,
      "antic": 4310,
      "Ġspect": 4311,
      "Ġsave": 4312,
      "Ġfailure": 4313,
      "Ġdoub": 4314,
      "Ġreleased": 4315,
      "isation": 4316,
      "raction": 4317,
      "tered": 4318,
      "Ġreference": 4319,
      "Ġrisks": 4320,
      "cast": 4321,
      "Ġminor": 4322,
      "Ġbreast": 4323,
      "ingly": 4324,
      "âĢĿ,": 4325,
      "Ġhomes": 4326,
      "Ġwidely": 4327,
      "Ġstorage": 4328,
      "hetic": 4329,
      "ĠAut": 4330,
      "ously": 4331,
      "Ġreducing": 4332,
      "Ġnoted": 4333,
      "Ġnovel": 4334,
      "Ġindependent": 4335,
      "Ġmilk": 4336,
      "Ġmeat": 4337,
      "Ġnor": 4338,
      "ĠSol": 4339,
      "Ġadjust": 4340,
      "clus": 4341,
      "Ġparty": 4342,
      "ĠDon": 4343,
      "ĠUnder": 4344,
      "ĠOver": 4345,
      "ructure": 4346,
      "ulf": 4347,
      "Ġlived": 4348,
      "Ġperformed": 4349,
      "ube": 4350,
      "Ġcand": 4351,
      "Ġesc": 4352,
      "Ġrecords": 4353,
      "nam": 4354,
      "Ġocean": 4355,
      "ĠDavid": 4356,
      "Ġstream": 4357,
      "AP": 4358,
      "Ġappe": 4359,
      "Ġbuy": 4360,
      "Ġdistribution": 4361,
      "Sh": 4362,
      "ĠSee": 4363,
      "ams": 4364,
      "Ġmetal": 4365,
      "Ġthr": 4366,
      "ollow": 4367,
      "Ġprefer": 4368,
      ".;": 4369,
      "Ġconnected": 4370,
      "Ġinvolves": 4371,
      "Ġfig": 4372,
      "Ġ2016": 4373,
      "Ġpolicies": 4374,
      "Ġvitamin": 4375,
      "othes": 4376,
      "ĠAir": 4377,
      "Ġbattle": 4378,
      "Ġcounter": 4379,
      "raw": 4380,
      "Ġâ": 4381,
      "works": 4382,
      "elines": 4383,
      "essor": 4384,
      "Ġgene": 4385,
      "Ġchanging": 4386,
      "Ġorganic": 4387,
      "Ġchronic": 4388,
      "Ġpartners": 4389,
      "ologists": 4390,
      "Ġreality": 4391,
      "Ġclearly": 4392,
      "erved": 4393,
      "Ġfilm": 4394,
      "Ġnuclear": 4395,
      "rant": 4396,
      "Ġdesp": 4397,
      "Ġannual": 4398,
      "ĠMary": 4399,
      "ped": 4400,
      "ĠTex": 4401,
      "Ġdogs": 4402,
      "Ġkilled": 4403,
      "ilit": 4404,
      "tical": 4405,
      "Ġcharacteristics": 4406,
      "Ġtum": 4407,
      "Ġdisorders": 4408,
      "ognitive": 4409,
      "Ar": 4410,
      "Ġdistinct": 4411,
      "Ġcreation": 4412,
      "erences": 4413,
      "onds": 4414,
      "Ġresulting": 4415,
      "Ġstarting": 4416,
      "Ġsurgery": 4417,
      "ressive": 4418,
      "45": 4419,
      "Ġauthors": 4420,
      "Ġdrop": 4421,
      "Ġremoved": 4422,
      "Ġnutrition": 4423,
      "Ġcombination": 4424,
      "Ġconnection": 4425,
      "Ġvessel": 4426,
      "ĠCollege": 4427,
      "Ġvul": 4428,
      "ĠDec": 4429,
      "Ġgets": 4430,
      "Ġmathemat": 4431,
      "Ġsolutions": 4432,
      "Ġcausing": 4433,
      "ĠDevelopment": 4434,
      "Ġnotes": 4435,
      "urance": 4436,
      "Ġtrig": 4437,
      "ios": 4438,
      "Ġupper": 4439,
      "ĠFore": 4440,
      "ulum": 4441,
      "Ġtim": 4442,
      "Ġschol": 4443,
      "Ġbottom": 4444,
      "Ġreprodu": 4445,
      "Ġkid": 4446,
      "ressed": 4447,
      "Ġgrass": 4448,
      "cers": 4449,
      "Ġwanted": 4450,
      "roup": 4451,
      "Ġcampaign": 4452,
      "AM": 4453,
      "stitution": 4454,
      "Ġacademic": 4455,
      "Ġconflict": 4456,
      "Ġcomprehens": 4457,
      "anging": 4458,
      "Ġtrib": 4459,
      "Ġparticipants": 4460,
      "Ġprepar": 4461,
      "Ġpric": 4462,
      "atically": 4463,
      "Ġsand": 4464,
      "Ġsetting": 4465,
      "Ġinitial": 4466,
      "Ġdiscussion": 4467,
      "ĠTest": 4468,
      "ĠPlan": 4469,
      "Ġmentioned": 4470,
      "Ġthick": 4471,
      "Ġinfections": 4472,
      "According": 4473,
      "ĠJe": 4474,
      "Ġeffectively": 4475,
      "Ġcris": 4476,
      "Ġtrend": 4477,
      "Ġconv": 4478,
      "roph": 4479,
      "Ġcollege": 4480,
      "Ġalg": 4481,
      "ĠMount": 4482,
      "Ġ29": 4483,
      "met": 4484,
      "Ġturned": 4485,
      "à¤": 4486,
      "Ġemail": 4487,
      "Ġexactly": 4488,
      "istan": 4489,
      "ĠCur": 4490,
      "Ġfarmers": 4491,
      "iveness": 4492,
      "Ġded": 4493,
      "Ġrelationships": 4494,
      "Ġphysic": 4495,
      "Ġreferred": 4496,
      "ĠHuman": 4497,
      "ĠOff": 4498,
      "Ġprinciples": 4499,
      "Ġbuildings": 4500,
      "Ġhorm": 4501,
      "Ġfreedom": 4502,
      "do": 4503,
      "Ġ2004": 4504,
      "78": 4505,
      "Ġtransform": 4506,
      "Ġoxygen": 4507,
      "Ġproperly": 4508,
      "Ġburn": 4509,
      "ĠLa": 4510,
      "Ġspot": 4511,
      "Ġmeeting": 4512,
      "cop": 4513,
      "Ġmostly": 4514,
      "Ġrelevant": 4515,
      "ieties": 4516,
      "Ġinternal": 4517,
      "ĠSocial": 4518,
      "Ġbackground": 4519,
      "Ġencourage": 4520,
      "Ġassessment": 4521,
      "Ġclasses": 4522,
      "ault": 4523,
      "ĠCath": 4524,
      "Ġadvanced": 4525,
      "Ġconfirm": 4526,
      "Ġdetermined": 4527,
      "ĠRel": 4528,
      "Ph": 4529,
      "Ġhear": 4530,
      "uration": 4531,
      "Ġanyone": 4532,
      "Ġhousehold": 4533,
      "well": 4534,
      "ĠJapanese": 4535,
      "Ġwhom": 4536,
      "Ġradio": 4537,
      "Ġ...": 4538,
      "33": 4539,
      "EM": 4540,
      "ception": 4541,
      "Ġbelong": 4542,
      "ander": 4543,
      "Ġupd": 4544,
      "Ġready": 4545,
      "ĠGeorge": 4546,
      "Ġvot": 4547,
      "Ġscen": 4548,
      "Ġfinding": 4549,
      "Ġterrit": 4550,
      "itz": 4551,
      "Ġload": 4552,
      "inter": 4553,
      "Ġcovered": 4554,
      "Ġjour": 4555,
      "However": 4556,
      "Ġmessage": 4557,
      "uted": 4558,
      "Ġisol": 4559,
      "Ġradiation": 4560,
      "ĠWhite": 4561,
      "Sp": 4562,
      "Ġnorthern": 4563,
      "Ġtrou": 4564,
      "ĠIslam": 4565,
      "Ġgrant": 4566,
      "tes": 4567,
      "Ġregarding": 4568,
      "ĠChildren": 4569,
      "ample": 4570,
      "Ġdepending": 4571,
      "Ġfine": 4572,
      "Ġdri": 4573,
      "ij": 4574,
      "Ġtechnique": 4575,
      "acific": 4576,
      "Ġhappens": 4577,
      "ĠJews": 4578,
      "Ġpromote": 4579,
      "Res": 4580,
      "Ġexposed": 4581,
      "lick": 4582,
      "Ġserved": 4583,
      "ĠService": 4584,
      "rog": 4585,
      "Ġseed": 4586,
      "Ġhelped": 4587,
      "ĠAsia": 4588,
      "Ġdangerous": 4589,
      "Ġinvolve": 4590,
      "RO": 4591,
      "Ġdegrees": 4592,
      "osystem": 4593,
      "Ġconservation": 4594,
      "Ġlandsc": 4595,
      "Ġincorpor": 4596,
      "ĠIts": 4597,
      "Ġviolence": 4598,
      "Ġreb": 4599,
      "Ġkill": 4600,
      "Ġgenes": 4601,
      "orial": 4602,
      "Ġvolume": 4603,
      "ĠMuseum": 4604,
      "Ġexpression": 4605,
      "ocal": 4606,
      "ĠGreek": 4607,
      "ĠSun": 4608,
      "ĠRober": 4609,
      "Ġsquare": 4610,
      "Ġsav": 4611,
      "Ġexpert": 4612,
      "Ġexperts": 4613,
      "Ġdie": 4614,
      "Ġexperienced": 4615,
      "ĠST": 4616,
      "Ġdiss": 4617,
      "Ġsem": 4618,
      "Ġmanufacture": 4619,
      "alled": 4620,
      "ĠFood": 4621,
      "Ġproposed": 4622,
      "ĠOb": 4623,
      "Ġinterested": 4624,
      "Ġreplace": 4625,
      "Ġexcell": 4626,
      "ĠWork": 4627,
      "Ġcast": 4628,
      "ping": 4629,
      "Ġcompleted": 4630,
      "Ġlinked": 4631,
      "Ġrace": 4632,
      "standing": 4633,
      "Ġadvantage": 4634,
      "Ġlanguages": 4635,
      "Ġsouthern": 4636,
      "ieces": 4637,
      "ago": 4638,
      "zing": 4639,
      "Ġinterpret": 4640,
      "Ġefficiency": 4641,
      "Ġwaters": 4642,
      "key": 4643,
      "Ġkept": 4644,
      "itors": 4645,
      "Ġconcerns": 4646,
      "Ġprepared": 4647,
      "ĠOrgan": 4648,
      "ĠTur": 4649,
      "ĠPaul": 4650,
      "Ġreaction": 4651,
      "Ġmel": 4652,
      "PS": 4653,
      "Ġnav": 4654,
      "Ġprofession": 4655,
      "Ġinh": 4656,
      "Ġcrucial": 4657,
      "Ġpages": 4658,
      "Ġsolid": 4659,
      "Ġoperation": 4660,
      "Ġreached": 4661,
      "75": 4662,
      "Ġsort": 4663,
      "ya": 4664,
      "clusion": 4665,
      "Ġelimin": 4666,
      "Ġprofessor": 4667,
      "rep": 4668,
      "Ġamounts": 4669,
      "inate": 4670,
      "ĠGra": 4671,
      "Ġmath": 4672,
      "Ġaid": 4673,
      "Ġinflamm": 4674,
      "uing": 4675,
      "Ġdescribe": 4676,
      "Ġpun": 4677,
      "ĠWhy": 4678,
      "ortunately": 4679,
      "Ġrevolution": 4680,
      "Ġsaying": 4681,
      "Ġheard": 4682,
      "Ġ70": 4683,
      "Ġmanage": 4684,
      "Ġprocessing": 4685,
      "Ġ186": 4686,
      "Ġmotor": 4687,
      "ĠMars": 4688,
      "Ġround": 4689,
      "ĠOnce": 4690,
      "ributed": 4691,
      "Ġwest": 4692,
      "Ġlib": 4693,
      "igenous": 4694,
      "Ġ90": 4695,
      "Ġpal": 4696,
      "Ġinput": 4697,
      "Ġplease": 4698,
      "Ġunf": 4699,
      "Ġcoal": 4700,
      "mat": 4701,
      "Ġarticles": 4702,
      "Ġofficial": 4703,
      "Ġfeeling": 4704,
      "Ġbud": 4705,
      "Ġoption": 4706,
      "ĠMark": 4707,
      "Ġpreviously": 4708,
      "ĠTexas": 4709,
      "rete": 4710,
      "ĠHen": 4711,
      "Ġcore": 4712,
      "ĠHIV": 4713,
      "Ġimproved": 4714,
      "ĠBel": 4715,
      "Ġvegetables": 4716,
      "Ġreligion": 4717,
      "Many": 4718,
      "ategy": 4719,
      "ĠProject": 4720,
      "CO": 4721,
      "ball": 4722,
      "Ġclick": 4723,
      "Ġsustainable": 4724,
      "Ġmanner": 4725,
      "ĠBritain": 4726,
      "Ġgames": 4727,
      "Ġconsult": 4728,
      "Ġyellow": 4729,
      "mal": 4730,
      "Ġunits": 4731,
      "ifying": 4732,
      "Ġcontribute": 4733,
      "Ġobvious": 4734,
      "Ġallowing": 4735,
      "mark": 4736,
      "Here": 4737,
      "Ġsynt": 4738,
      "ĠCentral": 4739,
      "Ġappoint": 4740,
      "Ġleads": 4741,
      "ĠSpanish": 4742,
      "Ġemotional": 4743,
      "astern": 4744,
      "Ġmeant": 4745,
      "Ġconclud": 4746,
      "36": 4747,
      "Ġdram": 4748,
      "road": 4749,
      "Ġspent": 4750,
      "lig": 4751,
      "Ġstrategy": 4752,
      "ĠBer": 4753,
      "Ġdecided": 4754,
      "Ġdatab": 4755,
      "oyal": 4756,
      "Ġ#": 4757,
      "aker": 4758,
      "Ġship": 4759,
      "Why": 4760,
      "Ġoutput": 4761,
      "That": 4762,
      "Ġflowers": 4763,
      "Ġbrother": 4764,
      "Ġconcepts": 4765,
      "acing": 4766,
      "berg": 4767,
      "Ġdefinition": 4768,
      "Ġphase": 4769,
      "ishing": 4770,
      "ĠCourt": 4771,
      "Ġtour": 4772,
      "uable": 4773,
      "za": 4774,
      "Ġbeautiful": 4775,
      "ĠMal": 4776,
      "ĠRich": 4777,
      "Ġsecret": 4778,
      "iverse": 4779,
      "ĠCommission": 4780,
      "ta": 4781,
      "Ġnit": 4782,
      "ĠDem": 4783,
      "Ġplatform": 4784,
      "board": 4785,
      "ĠIsland": 4786,
      "Ġcomfort": 4787,
      "Ġvolunt": 4788,
      "Con": 4789,
      "Ġpip": 4790,
      "Ġgender": 4791,
      "nic": 4792,
      "wood": 4793,
      "Ġcontinues": 4794,
      "Ġeggs": 4795,
      "Ġvulner": 4796,
      "Ġhelping": 4797,
      "with": 4798,
      "lease": 4799,
      "Ġtro": 4800,
      "Although": 4801,
      "alle": 4802,
      "ounced": 4803,
      "Ġinjury": 4804,
      "Ġmort": 4805,
      "Ġseeds": 4806,
      "vision": 4807,
      "amental": 4808,
      "ĠEv": 4809,
      "Ġsector": 4810,
      "Our": 4811,
      "olid": 4812,
      "ĠMiss": 4813,
      "ĠPhys": 4814,
      "riage": 4815,
      "Ġdro": 4816,
      "Ġinvent": 4817,
      "Ġowners": 4818,
      "Ġhour": 4819,
      "Ġcharge": 4820,
      "Ġawareness": 4821,
      "Ġlung": 4822,
      "Ġ2017": 4823,
      "Ġdefic": 4824,
      "Ġinfluen": 4825,
      "ĠPort": 4826,
      "onic": 4827,
      "Ġwealth": 4828,
      "Ġsen": 4829,
      "38": 4830,
      "Ġcalc": 4831,
      "Ġnotice": 4832,
      "Ġmist": 4833,
      "Ġpul": 4834,
      "Ġclim": 4835,
      "Ġ2003": 4836,
      "Ġsupported": 4837,
      "ĠSub": 4838,
      "Ġengineering": 4839,
      "Ġatmosphere": 4840,
      "Ġseek": 4841,
      "Ġclos": 4842,
      "Ġprocedure": 4843,
      "Ġhop": 4844,
      "riculum": 4845,
      "aughter": 4846,
      "Ġdynam": 4847,
      "umn": 4848,
      "rans": 4849,
      "place": 4850,
      "iology": 4851,
      "Ġpret": 4852,
      "leg": 4853,
      "AD": 4854,
      "Ġconcern": 4855,
      "ĠHel": 4856,
      "Ġban": 4857,
      "ndrome": 4858,
      "Ġsnow": 4859,
      "onomic": 4860,
      "ĠBas": 4861,
      "Ġconver": 4862,
      "Ġsufficient": 4863,
      "ĠRem": 4864,
      "Ġfoss": 4865,
      "inger": 4866,
      "Ġcredit": 4867,
      "Ġcorresp": 4868,
      "rum": 4869,
      "oking": 4870,
      "ĠNASA": 4871,
      "Ġbird": 4872,
      "Most": 4873,
      "Ġyouth": 4874,
      "ĠSer": 4875,
      "Ġdiscover": 4876,
      "ria": 4877,
      "Ġanxiety": 4878,
      "Ġprimarily": 4879,
      "Ġdiagnosis": 4880,
      "Ġisland": 4881,
      "ĠJer": 4882,
      "100": 4883,
      "Ġrenew": 4884,
      "Ġdigest": 4885,
      "Ġhit": 4886,
      "Ġremained": 4887,
      "Ġfacts": 4888,
      "'ll": 4889,
      "rence": 4890,
      "ĠMr": 4891,
      "ek": 4892,
      "Ġfrequency": 4893,
      "akers": 4894,
      "Ġauthority": 4895,
      "comes": 4896,
      "Ġfocused": 4897,
      "ses": 4898,
      "Ġstation": 4899,
      "Ġinstitutions": 4900,
      "itness": 4901,
      "rations": 4902,
      "Ġwet": 4903,
      "Ġgod": 4904,
      "ĠNews": 4905,
      "Ġflex": 4906,
      "Im": 4907,
      "ĠAI": 4908,
      "New": 4909,
      "gra": 4910,
      "ixt": 4911,
      "Ġforced": 4912,
      "which": 4913,
      "verty": 4914,
      "going": 4915,
      "Ġextensive": 4916,
      "Ġmotiv": 4917,
      "Ġintended": 4918,
      "Ġcoord": 4919,
      "west": 4920,
      "Ġmainly": 4921,
      "Ġgovernments": 4922,
      "Ġvaccine": 4923,
      "Ġrecorded": 4924,
      "ĠLou": 4925,
      "Ġpoverty": 4926,
      "Ġtechnical": 4927,
      "Ġsamples": 4928,
      "Ġpresc": 4929,
      "Ġindicate": 4930,
      "ĠSam": 4931,
      "ormal": 4932,
      "oper": 4933,
      "Ġchemicals": 4934,
      "eria": 4935,
      "ĠKore": 4936,
      "Ġpurposes": 4937,
      "Ġformation": 4938,
      "ĠAcad": 4939,
      "ĠMexico": 4940,
      "ossible": 4941,
      "Ġpollution": 4942,
      "Ġkinds": 4943,
      "Ġleader": 4944,
      "Ġmix": 4945,
      "Ġvital": 4946,
      "roc": 4947,
      "Ġgrade": 4948,
      "Ġtrad": 4949,
      "Ġsituations": 4950,
      "Ġcombined": 4951,
      "ĠBC": 4952,
      "Ġshared": 4953,
      "osite": 4954,
      "Ġlooks": 4955,
      "'ve": 4956,
      "ĠAD": 4957,
      "Ġsyn": 4958,
      "ĠSen": 4959,
      "ĠCivil": 4960,
      "Ġtasks": 4961,
      "ĠÃ": 4962,
      "Ġquar": 4963,
      "point": 4964,
      "Ġdrinking": 4965,
      "ĠArmy": 4966,
      "Ġarmy": 4967,
      "ishes": 4968,
      "ĠMac": 4969,
      "anch": 4970,
      "Now": 4971,
      "Ġbrief": 4972,
      "Ġoccurred": 4973,
      "ĠEvery": 4974,
      "ĠStudents": 4975,
      "Ġfib": 4976,
      "Ġheight": 4977,
      "Ġelectrical": 4978,
      "Ġpieces": 4979,
      "Ġpractical": 4980,
      "Ġhearing": 4981,
      "99": 4982,
      "down": 4983,
      "Ġmorning": 4984,
      "EL": 4985,
      "Ġ35": 4986,
      "Ġshowing": 4987,
      "Ġtreatments": 4988,
      "Ġlargely": 4989,
      "Ġextent": 4990,
      "RI": 4991,
      "No": 4992,
      "ĠVirgin": 4993,
      "oo": 4994,
      "Ġphenomen": 4995,
      "inent": 4996,
      "iated": 4997,
      "iling": 4998,
      "Ġofficials": 4999,
      "vis": 5000,
      "Ġsong": 5001,
      "Ġformat": 5002,
      "Ġcareer": 5003,
      "Ġjobs": 5004,
      "Ġsurrounding": 5005,
      "ĠMet": 5006,
      "34": 5007,
      "ĠSal": 5008,
      "ĠâĢ¦": 5009,
      "Ġbegins": 5010,
      "ado": 5011,
      "arrow": 5012,
      "Ġ2001": 5013,
      "atric": 5014,
      "Ġreform": 5015,
      "ague": 5016,
      "ĠFranc": 5017,
      "ship": 5018,
      "Ġoffered": 5019,
      "ĠFre": 5020,
      "Ġfirm": 5021,
      "Ġgoods": 5022,
      "Cl": 5023,
      "ĠArab": 5024,
      "ĠPacific": 5025,
      "Ġcere": 5026,
      "ĠData": 5027,
      "Ġtooth": 5028,
      "omy": 5029,
      "Ġeast": 5030,
      "Ġfelt": 5031,
      "rates": 5032,
      "ĠDirect": 5033,
      "Ġliquid": 5034,
      "roke": 5035,
      "Ġsignal": 5036,
      "Ġdoll": 5037,
      "Ġlinks": 5038,
      "ĠOld": 5039,
      "Ġideal": 5040,
      "Ġresponsibility": 5041,
      "Ġfaster": 5042,
      "Ġsin": 5043,
      "Ġtoxic": 5044,
      "ulating": 5045,
      "ĠFurther": 5046,
      "ĠCle": 5047,
      "Ġstraight": 5048,
      "ĠSecond": 5049,
      "Ġfinally": 5050,
      "what": 5051,
      "Ġmaximum": 5052,
      "Ġperman": 5053,
      "Ġidentity": 5054,
      "Ġmoist": 5055,
      "Ġnerv": 5056,
      "Ġexistence": 5057,
      "ears": 5058,
      "kin": 5059,
      "Ġsettle": 5060,
      "Ġagricultural": 5061,
      "Ġecosystem": 5062,
      "espite": 5063,
      "ipped": 5064,
      "Ġemergency": 5065,
      "Ġhospital": 5066,
      "ĠThomas": 5067,
      "ificial": 5068,
      "Ġju": 5069,
      "Ġrequest": 5070,
      "Ġpark": 5071,
      "Ġlesson": 5072,
      "Ġconsequences": 5073,
      "osen": 5074,
      "ĠEnergy": 5075,
      "pen": 5076,
      "OS": 5077,
      "Ġtopics": 5078,
      "ules": 5079,
      "ancing": 5080,
      "Ġmaster": 5081,
      "Ġadvance": 5082,
      "Ġhabitat": 5083,
      "fall": 5084,
      "name": 5085,
      "olute": 5086,
      "Ġreduction": 5087,
      "Ġinterests": 5088,
      "Ġlic": 5089,
      "Ġspecifically": 5090,
      "Ġther": 5091,
      "Ġpaint": 5092,
      "Ġspend": 5093,
      "Ġwife": 5094,
      "Ġrefers": 5095,
      "Ġkeeping": 5096,
      "Ġbright": 5097,
      "Ġrail": 5098,
      "Ġnutrients": 5099,
      "39": 5100,
      "ĠDi": 5101,
      "Ġsche": 5102,
      "Ġcertainly": 5103,
      "From": 5104,
      "Ġimpacts": 5105,
      "Ġmere": 5106,
      "Ab": 5107,
      "Ġfort": 5108,
      "Ġstorm": 5109,
      "Ġdepth": 5110,
      "CC": 5111,
      "Ġvast": 5112,
      "OT": 5113,
      "gment": 5114,
      "tion": 5115,
      "Ġoperating": 5116,
      "oster": 5117,
      "Americ": 5118,
      "Ġstars": 5119,
      "ĠInformation": 5120,
      "ĠClass": 5121,
      "aturally": 5122,
      "Ġvalid": 5123,
      "ĠNav": 5124,
      "Ġparticles": 5125,
      "US": 5126,
      "Ġwonder": 5127,
      "Ġletters": 5128,
      "Ġsuggested": 5129,
      "rier": 5130,
      "ĠSpace": 5131,
      "gal": 5132,
      "Ġnations": 5133,
      "Ã¡": 5134,
      "ĠAtl": 5135,
      "Ġsubjects": 5136,
      "ĠBay": 5137,
      "Ġtail": 5138,
      "ĠLake": 5139,
      "Ġdetailed": 5140,
      "Ġmeasured": 5141,
      "eline": 5142,
      "Ġtested": 5143,
      "Ġaccurate": 5144,
      "Ġmonitoring": 5145,
      "Ġ2020": 5146,
      "Ġperiods": 5147,
      "Ġdouble": 5148,
      "Ġfundamental": 5149,
      "Ġperspective": 5150,
      "rolog": 5151,
      "ĠDise": 5152,
      "Ġ1990": 5153,
      "Ġbill": 5154,
      "Ġcomment": 5155,
      "Ġapparent": 5156,
      "Ġstone": 5157,
      "37": 5158,
      "win": 5159,
      "ĠJud": 5160,
      "that": 5161,
      "unk": 5162,
      "Ġ2002": 5163,
      "Ġdespite": 5164,
      "Ġtypical": 5165,
      "Ġmuscles": 5166,
      "oviet": 5167,
      "Ġexplan": 5168,
      "Ġcrisis": 5169,
      "right": 5170,
      "48": 5171,
      "BC": 5172,
      "Ġchief": 5173,
      "Ġfle": 5174,
      "Ġsubstant": 5175,
      "ĠMart": 5176,
      "ĠLife": 5177,
      "Ġtaught": 5178,
      "Ġprinciple": 5179,
      "Ġraised": 5180,
      "hi": 5181,
      "Ġreturned": 5182,
      "Ġtrial": 5183,
      "Ġdivided": 5184,
      "Ġgar": 5185,
      "ĠBible": 5186,
      "ework": 5187,
      "li": 5188,
      "Ġslightly": 5189,
      "Ġonto": 5190,
      "Ġvent": 5191,
      "Ġattacks": 5192,
      "Ġstudied": 5193,
      "Ġadvice": 5194,
      "ĠDist": 5195,
      "ĠFlor": 5196,
      "iced": 5197,
      "Ġlov": 5198,
      "ĠSou": 5199,
      "anges": 5200,
      "acters": 5201,
      "oughly": 5202,
      "Ġmotion": 5203,
      "ND": 5204,
      "Ġtrain": 5205,
      "Ġdiam": 5206,
      "ĠLatin": 5207,
      "Ġcollected": 5208,
      "Ġplayed": 5209,
      "Ġfacilities": 5210,
      "Ġexternal": 5211,
      "eters": 5212,
      "Ġcomponent": 5213,
      "Ġexplains": 5214,
      "ĠMedical": 5215,
      "ey": 5216,
      "ĠHol": 5217,
      "Ġthin": 5218,
      "Ġfamiliar": 5219,
      "Ġotherwise": 5220,
      "ĠTwo": 5221,
      "la": 5222,
      "Ġpersons": 5223,
      "Ġpotentially": 5224,
      "utive": 5225,
      "rapy": 5226,
      "Ġexplained": 5227,
      "ĠFoundation": 5228,
      "Ġkn": 5229,
      "Ġbiological": 5230,
      "Ġprices": 5231,
      "ĠMil": 5232,
      "Ġresist": 5233,
      "ION": 5234,
      "ensus": 5235,
      "ĠRussian": 5236,
      "ĠRussia": 5237,
      "otic": 5238,
      "Ġoral": 5239,
      "ael": 5240,
      "Ġpig": 5241,
      "Ġexcellent": 5242,
      "Ġstock": 5243,
      "ĠMass": 5244,
      "nel": 5245,
      "enses": 5246,
      "Ġcenturies": 5247,
      "Ġhappened": 5248,
      "Ġstem": 5249,
      "Ġgrown": 5250,
      "Ġliver": 5251,
      "ĠCam": 5252,
      "ĠMedicine": 5253,
      "Ġsubsequ": 5254,
      "Ġinstrument": 5255,
      "BN": 5256,
      "aks": 5257,
      "roid": 5258,
      "Ġaffects": 5259,
      "More": 5260,
      "Ġconsists": 5261,
      "Ġdu": 5262,
      "athy": 5263,
      "ĠToday": 5264,
      "Ġroll": 5265,
      "Ġfruits": 5266,
      "umber": 5267,
      "yright": 5268,
      "Ġrural": 5269,
      "ompl": 5270,
      "Ġhelpful": 5271,
      "Ġpolice": 5272,
      "Ġcontrolled": 5273,
      "ĠHam": 5274,
      "zy": 5275,
      "DF": 5276,
      "ĠBen": 5277,
      "Ġproteins": 5278,
      "Ġpray": 5279,
      "rich": 5280,
      "Ġfif": 5281,
      "Ġintroduction": 5282,
      "Ġgreatest": 5283,
      "Pl": 5284,
      "stood": 5285,
      "ĠSom": 5286,
      "col": 5287,
      "Ġcognitive": 5288,
      "ĠBoth": 5289,
      "Ġkm": 5290,
      "Ġsurpris": 5291,
      "Ġcert": 5292,
      "Ġleaf": 5293,
      "Ġhyper": 5294,
      "ĠEmp": 5295,
      "].": 5296,
      "Ġroots": 5297,
      "Ġsatis": 5298,
      "isp": 5299,
      "Ġcontaining": 5300,
      "ĠDef": 5301,
      "Ġ2018": 5302,
      "stronom": 5303,
      "ĠIr": 5304,
      "Ġprison": 5305,
      "Ġelev": 5306,
      "umin": 5307,
      "Ġtips": 5308,
      "Ġemployees": 5309,
      "ĠTechnology": 5310,
      "Ġvehicle": 5311,
      "Ġchann": 5312,
      "mp": 5313,
      "Ġaren": 5314,
      "Ġwestern": 5315,
      "state": 5316,
      "Ġdepends": 5317,
      "bing": 5318,
      "resents": 5319,
      "cript": 5320,
      "Ġblog": 5321,
      "Ġmit": 5322,
      "Ġalt": 5323,
      "Ġargument": 5324,
      "ache": 5325,
      "ooth": 5326,
      "Ġneighbor": 5327,
      "Ġcrops": 5328,
      "Go": 5329,
      "Ġneut": 5330,
      "Ġconcerned": 5331,
      "ĠBur": 5332,
      "Ġsoldiers": 5333,
      "Ġrecy": 5334,
      "rastructure": 5335,
      "Ġintelligence": 5336,
      "oral": 5337,
      "Ġspl": 5338,
      "Ġlatest": 5339,
      "Ġshar": 5340,
      "tenance": 5341,
      "ĠCarol": 5342,
      "Ġdeliver": 5343,
      "Ġvoice": 5344,
      "Ġcontinuous": 5345,
      "Ġkil": 5346,
      "Ġcircumst": 5347,
      "Ġwalls": 5348,
      "ĠCatholic": 5349,
      "Ġtried": 5350,
      "Ġinches": 5351,
      "Ġinvestment": 5352,
      "Ġhundreds": 5353,
      "Ġphone": 5354,
      "Ġgrand": 5355,
      "burg": 5356,
      "Ġfunding": 5357,
      "Ġwel": 5358,
      "ĠUsing": 5359,
      "inding": 5360,
      "Ġflat": 5361,
      "ras": 5362,
      "lar": 5363,
      "Ġinterview": 5364,
      "Ġprotected": 5365,
      "Ġharvest": 5366,
      "lers": 5367,
      "ĠCD": 5368,
      "Ġspiritual": 5369,
      "Ġdisapp": 5370,
      "Ġassemb": 5371,
      "ĠOut": 5372,
      "ava": 5373,
      "ĠSea": 5374,
      "Ġincreasingly": 5375,
      "ht": 5376,
      "MS": 5377,
      "Ġhaz": 5378,
      "Ġdut": 5379,
      "ĠRobert": 5380,
      "field": 5381,
      "Ġsend": 5382,
      "ded": 5383,
      "omin": 5384,
      "Ġlose": 5385,
      "active": 5386,
      "Ġhealthcare": 5387,
      "Ġpaid": 5388,
      "Ġbusinesses": 5389,
      "Ġsalt": 5390,
      "Ġrand": 5391,
      "Ġnarr": 5392,
      "ĠSoviet": 5393,
      "Ġsounds": 5394,
      "ĠMiddle": 5395,
      "ĠRef": 5396,
      "Ġcharacters": 5397,
      "ĠQue": 5398,
      "Ġdistingu": 5399,
      "Ġpil": 5400,
      "Ġvaluable": 5401,
      "ventional": 5402,
      "Ġdirector": 5403,
      "ota": 5404,
      "Ġthoughts": 5405,
      "Ġtitle": 5406,
      "Ġappearance": 5407,
      "band": 5408,
      "Ġinfected": 5409,
      "Ġfollows": 5410,
      "ING": 5411,
      "Ġsed": 5412,
      "Ġdecrease": 5413,
      "Ġinstruction": 5414,
      "Ġfluid": 5415,
      "chers": 5416,
      "ĠElect": 5417,
      "ĠLibrary": 5418,
      "being": 5419,
      "gl": 5420,
      "Ġenhance": 5421,
      "Ġdial": 5422,
      "Ġclaims": 5423,
      "Ġstated": 5424,
      "Ġwear": 5425,
      "eck": 5426,
      "itage": 5427,
      "ville": 5428,
      "Ġhttps": 5429,
      "Ġrandom": 5430,
      "ditionally": 5431,
      "Ġconscious": 5432,
      "ĠBook": 5433,
      "Ġfloor": 5434,
      "Ġviews": 5435,
      "Ġdiversity": 5436,
      "Ġdeaths": 5437,
      "Another": 5438,
      "Ġappeared": 5439,
      "Ġgun": 5440,
      "Ġminimum": 5441,
      "Ġclosely": 5442,
      "osa": 5443,
      "Ġhorse": 5444,
      "Ġrapidly": 5445,
      "Ġfrag": 5446,
      "Ġplaying": 5447,
      "Ġmetab": 5448,
      "Ġpregnancy": 5449,
      "Ġhunt": 5450,
      "iest": 5451,
      "ĠLand": 5452,
      "Ġoutcomes": 5453,
      "Ġmovements": 5454,
      "ĠStand": 5455,
      "ĠPsych": 5456,
      "Ġknew": 5457,
      "Ġresidents": 5458,
      "Ġlooked": 5459,
      "des": 5460,
      "Ġsurvival": 5461,
      "pat": 5462,
      "Ġportion": 5463,
      "32": 5464,
      "liam": 5465,
      "Ġadding": 5466,
      "Ġsecure": 5467,
      "Ġrepresents": 5468,
      "Ind": 5469,
      "Ġrecognized": 5470,
      "Ġsmart": 5471,
      "Ġcontem": 5472,
      "Ġagriculture": 5473,
      "ĠGoogle": 5474,
      "Ġbow": 5475,
      "Ġexpensive": 5476,
      "ĠNor": 5477,
      "Ġdriving": 5478,
      "ania": 5479,
      "Ġparties": 5480,
      "celer": 5481,
      "Ġfiles": 5482,
      "ĠLearning": 5483,
      "Ġsides": 5484,
      "Ġparam": 5485,
      "46": 5486,
      "atever": 5487,
      "ĠMont": 5488,
      "Ġselected": 5489,
      "Äģ": 5490,
      "Ġweap": 5491,
      "ĠMem": 5492,
      "Ġmedium": 5493,
      "ĠSmith": 5494,
      "Ġcolors": 5495,
      "CS": 5496,
      "Ġaccompl": 5497,
      "Ġdocuments": 5498,
      "racy": 5499,
      "ĠSte": 5500,
      "Ġ188": 5501,
      "Ġconcentration": 5502,
      "othing": 5503,
      "free": 5504,
      "ĠNature": 5505,
      "Ġflight": 5506,
      "Ġmillions": 5507,
      "rian": 5508,
      "Ġapproaches": 5509,
      "cest": 5510,
      "Ġabuse": 5511,
      "ĠCompany": 5512,
      "ÃŃ": 5513,
      "ĠTreat": 5514,
      "ka": 5515,
      "Ġsuffering": 5516,
      "exp": 5517,
      "Ġsteel": 5518,
      "ĠSupp": 5519,
      "Ġlik": 5520,
      "Ġdiscrim": 5521,
      "ĠAnother": 5522,
      "Ġcorrespond": 5523,
      "Ġchain": 5524,
      "Ġ45": 5525,
      "Ġleadership": 5526,
      "ĠJose": 5527,
      "anguage": 5528,
      "Ġband": 5529,
      "ĠInstead": 5530,
      "Ġprocedures": 5531,
      "Ġrecovery": 5532,
      "Ġprecise": 5533,
      "Ġcomprehensive": 5534,
      "Ġmanufacturing": 5535,
      "Ġobtained": 5536,
      "ĠConstitution": 5537,
      "ĠHenry": 5538,
      "heim": 5539,
      "Ġdiscussed": 5540,
      "Ġrein": 5541,
      "Ġregularly": 5542,
      "Ġdiverse": 5543,
      "Ġrecognize": 5544,
      "anes": 5545,
      "95": 5546,
      "Ġcurriculum": 5547,
      "aria": 5548,
      "iled": 5549,
      "Ġshel": 5550,
      "TS": 5551,
      "ĠDisc": 5552,
      "indu": 5553,
      "Ġod": 5554,
      "ĠWil": 5555,
      "ĠWell": 5556,
      "Ġmedications": 5557,
      "ĠRights": 5558,
      "asp": 5559,
      "Ġwildlife": 5560,
      "attle": 5561,
      "Ġwire": 5562,
      "ĠWild": 5563,
      "Ġjustice": 5564,
      "mic": 5565,
      "reed": 5566,
      "44": 5567,
      "Ġraise": 5568,
      "Ġdiscovery": 5569,
      "Ġvisible": 5570,
      "ĠEnvironmental": 5571,
      "Ġlessons": 5572,
      "ĠHistor": 5573,
      "Ġadvoc": 5574,
      "ĠSuch": 5575,
      "ĠCharles": 5576,
      "ails": 5577,
      "Gen": 5578,
      "Ġimmig": 5579,
      "inet": 5580,
      "ada": 5581,
      "Ġmarine": 5582,
      "Ġmoral": 5583,
      "Ġnurs": 5584,
      "Ġopinion": 5585,
      "Ġsimpl": 5586,
      "Ġfeelings": 5587,
      "liament": 5588,
      "Ġextract": 5589,
      "Ġnaturally": 5590,
      "Ġleaving": 5591,
      "ca": 5592,
      "Ġentirely": 5593,
      "ĠSum": 5594,
      "ĠWomen": 5595,
      "Ġtalking": 5596,
      "Ġsatell": 5597,
      "Ġtroops": 5598,
      "Ġdomestic": 5599,
      "ĠTem": 5600,
      "Ġaccomp": 5601,
      "abits": 5602,
      "Ġimpossible": 5603,
      "Do": 5604,
      "orith": 5605,
      "Ġinterf": 5606,
      "Ġallerg": 5607,
      "Ġlands": 5608,
      "Ġfacilit": 5609,
      "ario": 5610,
      "ĠManagement": 5611,
      "Ġpush": 5612,
      "ocratic": 5613,
      "During": 5614,
      "stream": 5615,
      "vironments": 5616,
      "bi": 5617,
      "Ġ1999": 5618,
      "ki": 5619,
      "Ġmamm": 5620,
      "Ġcapable": 5621,
      "De": 5622,
      "rot": 5623,
      "agers": 5624,
      "Ġgirls": 5625,
      "Ġsan": 5626,
      "ĠPost": 5627,
      "Ġcloud": 5628,
      "31": 5629,
      "Ġregional": 5630,
      "Ġinternet": 5631,
      "Ġsubstance": 5632,
      "Ġaircraft": 5633,
      "Ġrevealed": 5634,
      "ĠLouis": 5635,
      "Ġimmun": 5636,
      "Ġinject": 5637,
      "Ġminim": 5638,
      "Ġpu": 5639,
      "ellect": 5640,
      "Ġincl": 5641,
      "Ġfal": 5642,
      "Ġcalls": 5643,
      "ona": 5644,
      "ĠControl": 5645,
      "asure": 5646,
      "omach": 5647,
      "Ġanswers": 5648,
      "cules": 5649,
      "Ġagreement": 5650,
      "ĠSl": 5651,
      "Ġtraffic": 5652,
      "Ġproducing": 5653,
      "Ġadministration": 5654,
      "Ġsuc": 5655,
      "ston": 5656,
      "long": 5657,
      "rid": 5658,
      "Ġprevention": 5659,
      "65": 5660,
      "ĠOffice": 5661,
      "Ġ<": 5662,
      "ĠDiv": 5663,
      "Ġexchange": 5664,
      "Ġplays": 5665,
      "ĠCommon": 5666,
      "ĠWind": 5667,
      "Ġadequ": 5668,
      "Ġgal": 5669,
      "Ġexperiments": 5670,
      "Dr": 5671,
      "alian": 5672,
      "ĠScient": 5673,
      "dden": 5674,
      "icks": 5675,
      "ĠTer": 5676,
      "ĠFam": 5677,
      "IL": 5678,
      "Ġunlike": 5679,
      "Ġbrown": 5680,
      "olf": 5681,
      "abil": 5682,
      "Ġlabel": 5683,
      "teries": 5684,
      "Ġrub": 5685,
      "Ġcoff": 5686,
      "Ġlatter": 5687,
      "Ġmassive": 5688,
      "Ġaccepted": 5689,
      "Ġages": 5690,
      "Ġvehicles": 5691,
      "Ġ*": 5692,
      "Ġselection": 5693,
      "anged": 5694,
      "ĠVirginia": 5695,
      "ĠLike": 5696,
      "Ġpref": 5697,
      "198": 5698,
      "Ġmountain": 5699,
      "ibilities": 5700,
      "?âĢĿ": 5701,
      "Ġclosed": 5702,
      "Ġabsolute": 5703,
      "ĠProfessor": 5704,
      "ĠProv": 5705,
      "ascular": 5706,
      "ags": 5707,
      "Ġchapter": 5708,
      "icit": 5709,
      "ĠColumb": 5710,
      "Ġgall": 5711,
      "Ġreaders": 5712,
      "Ġcardi": 5713,
      "Ġbeneficial": 5714,
      "ĠStudies": 5715,
      "Ġimper": 5716,
      "ait": 5717,
      "Ġaqu": 5718,
      "Ġmobile": 5719,
      "HO": 5720,
      "Ġinfrastructure": 5721,
      "Ġsick": 5722,
      "asive": 5723,
      "Ġlibrary": 5724,
      "Ġlandscape": 5725,
      "ĠEngine": 5726,
      "47": 5727,
      "pass": 5728,
      "Ġsensitive": 5729,
      "Ġera": 5730,
      "Ġcouple": 5731,
      "ctic": 5732,
      "Ġstored": 5733,
      "Ġrecon": 5734,
      "Ġsets": 5735,
      "Sc": 5736,
      "Ġfigures": 5737,
      "idden": 5738,
      "ĠPower": 5739,
      "ĠStreet": 5740,
      "Ġstages": 5741,
      "bert": 5742,
      "Ġingred": 5743,
      "Ġapprec": 5744,
      "ĠMake": 5745,
      "Ġhouses": 5746,
      "Ġpure": 5747,
      "âĢĻ.": 5748,
      "ĠKen": 5749,
      "Ġmyth": 5750,
      "flow": 5751,
      "Ġsyndrome": 5752,
      "rem": 5753,
      "ĠUp": 5754,
      "Ġcomputers": 5755,
      "Ġdatabase": 5756,
      "Ġtransition": 5757,
      "Ġapart": 5758,
      "ĠCommit": 5759,
      "Ġsupplement": 5760,
      "Ġcatch": 5761,
      "Ġgenerate": 5762,
      "Ġsecondary": 5763,
      "500": 5764,
      "Ġdescribes": 5765,
      "Ġpoet": 5766,
      "Ġoriginally": 5767,
      "ĠFederal": 5768,
      "Ġunderstood": 5769,
      "Ġarms": 5770,
      "ĠISBN": 5771,
      "Ġble": 5772,
      "ĠAlex": 5773,
      "ĠBudd": 5774,
      "Ġforests": 5775,
      "Ġsudden": 5776,
      "Ġjourney": 5777,
      "Ġindex": 5778,
      "ropical": 5779,
      "Ġamb": 5780,
      "Ġcandid": 5781,
      "war": 5782,
      "iform": 5783,
      "Ġworldwide": 5784,
      "Ġfill": 5785,
      "ĠRad": 5786,
      "Ġprem": 5787,
      "Ġdecline": 5788,
      "Ġnarrow": 5789,
      "Ġengage": 5790,
      "Ġpictures": 5791,
      "Ġtouch": 5792,
      "ĠMill": 5793,
      "Ġimproving": 5794,
      "Ġwave": 5795,
      "agues": 5796,
      "Ġconstitution": 5797,
      "Ġfell": 5798,
      "Ġdistrict": 5799,
      "Ġspeaking": 5800,
      "lements": 5801,
      "esity": 5802,
      "Ġdust": 5803,
      "Ġsuffer": 5804,
      "Ġcircumstances": 5805,
      "Ġpossess": 5806,
      "Ġconsid": 5807,
      "pping": 5808,
      "ĠFlorida": 5809,
      "Ġauthorities": 5810,
      "Ġbudget": 5811,
      "ĠGroup": 5812,
      "Ġinflammation": 5813,
      "Ġtal": 5814,
      "Ġinsects": 5815,
      "ifies": 5816,
      "Ġroof": 5817,
      "Ġequival": 5818,
      "Ġenvironments": 5819,
      "Ġphr": 5820,
      "Ġsuitable": 5821,
      "Ġcourses": 5822,
      "ĠInf": 5823,
      "Ġwitness": 5824,
      "Ġtoler": 5825,
      "Ġdental": 5826,
      "ĠSaf": 5827,
      "ulin": 5828,
      "Ġbones": 5829,
      "Ġmedication": 5830,
      "mary": 5831,
      "Ġstick": 5832,
      "Ġrepeated": 5833,
      "Ġsports": 5834,
      "obe": 5835,
      "Ġbehaviour": 5836,
      "olve": 5837,
      "Ġtun": 5838,
      "hemical": 5839,
      "55": 5840,
      "Ġcorpor": 5841,
      "Ġvillage": 5842,
      "Ġdream": 5843,
      "uilding": 5844,
      "Te": 5845,
      "erals": 5846,
      "Ġmaintenance": 5847,
      "Ġsurvive": 5848,
      "Ġexpressed": 5849,
      "Ġintake": 5850,
      "Ġstruggle": 5851,
      "oted": 5852,
      "Ġopened": 5853,
      "Ġprepare": 5854,
      "Ġtow": 5855,
      "icians": 5856,
      "ini": 5857,
      "ĠLabor": 5858,
      "ects": 5859,
      "spec": 5860,
      "Ġmoon": 5861,
      "ĠDel": 5862,
      "riting": 5863,
      "igation": 5864,
      "ypes": 5865,
      "ogue": 5866,
      "Ġpretty": 5867,
      "Ġfixed": 5868,
      "ĠTHE": 5869,
      "Ġstret": 5870,
      "Ġunless": 5871,
      "Ġreject": 5872,
      "Ġmac": 5873,
      "Ġlifest": 5874,
      "Ġpossibility": 5875,
      "Ġchoices": 5876,
      "Ġindeed": 5877,
      "erent": 5878,
      "Ġ31": 5879,
      "Ġtransmission": 5880,
      "Ġaw": 5881,
      "Ġ1980": 5882,
      "Ġacts": 5883,
      "ĠBet": 5884,
      "ĠChic": 5885,
      "apping": 5886,
      "My": 5887,
      "ĠPC": 5888,
      "Ġgluc": 5889,
      "ĠDan": 5890,
      "Ġadopted": 5891,
      "Ġenable": 5892,
      "Ġfly": 5893,
      "Ġsell": 5894,
      "Ġagencies": 5895,
      "Ġharmful": 5896,
      "uke": 5897,
      "Ġerror": 5898,
      "no": 5899,
      "Ġnetworks": 5900,
      "Ġguidelines": 5901,
      "Ġantibiot": 5902,
      "Other": 5903,
      "Ġpossibly": 5904,
      "ĠReview": 5905,
      ".|": 5906,
      "Ġroutine": 5907,
      "Ġcars": 5908,
      "Ġworse": 5909,
      "76": 5910,
      "Ġnormally": 5911,
      "Ġscholars": 5912,
      "ye": 5913,
      "Ġsolve": 5914,
      "Us": 5915,
      "Ġgather": 5916,
      "Ġancest": 5917,
      "ĠMo": 5918,
      "Ġassistance": 5919,
      "prise": 5920,
      "Ġdecade": 5921,
      "Ġrecip": 5922,
      "ĠExpl": 5923,
      "Ġdoctors": 5924,
      "inations": 5925,
      "struct": 5926,
      "Ġafford": 5927,
      "Ġwarming": 5928,
      "Re": 5929,
      "Ġformal": 5930,
      "Ġopening": 5931,
      "cling": 5932,
      "ctive": 5933,
      "Ġunp": 5934,
      "Ġlisted": 5935,
      "Ġfertil": 5936,
      "oto": 5937,
      "Ġalgorith": 5938,
      "ĠCare": 5939,
      "Ġstomach": 5940,
      "VID": 5941,
      "zen": 5942,
      "ĠLong": 5943,
      "Ġplate": 5944,
      "Se": 5945,
      "Ġrestrict": 5946,
      "osal": 5947,
      "organ": 5948,
      "inder": 5949,
      "vity": 5950,
      "UR": 5951,
      "itative": 5952,
      "Ġresponses": 5953,
      "Ġnan": 5954,
      "throp": 5955,
      "last": 5956,
      "Ġdoor": 5957,
      "Ġchart": 5958,
      "Ġremaining": 5959,
      "49": 5960,
      "Ġconsistent": 5961,
      "Ġextended": 5962,
      "ashion": 5963,
      "Ġimplementation": 5964,
      "Ġfailed": 5965,
      "Since": 5966,
      "Ġaer": 5967,
      "ĠLab": 5968,
      "Ġvirtual": 5969,
      "ĠOF": 5970,
      "ĠLeg": 5971,
      "ĠNatural": 5972,
      "ĠId": 5973,
      "hips": 5974,
      "Ġdiscipl": 5975,
      "Ġsignals": 5976,
      "Ġdoubt": 5977,
      "heast": 5978,
      "orter": 5979,
      "Ġinteraction": 5980,
      "Ġmolecules": 5981,
      "under": 5982,
      "Ġfoundation": 5983,
      "Ġsuccessfully": 5984,
      "ĠBank": 5985,
      "Ġorganized": 5986,
      "Ġwindow": 5987,
      "rants": 5988,
      "Ġremote": 5989,
      "normal": 5990,
      "ansion": 5991,
      "ĠAbout": 5992,
      "Ġprofessionals": 5993,
      "Ã¼": 5994,
      "Ġuniversity": 5995,
      "Ġdomin": 5996,
      "Ġgenerated": 5997,
      "aser": 5998,
      "ĠAny": 5999,
      "Ġemployment": 6000,
      "Ġedge": 6001,
      "Ġobtain": 6002,
      "Ġax": 6003,
      "Ġcritic": 6004,
      "Ġthousand": 6005,
      "ny": 6006,
      "alysis": 6007,
      "Ġdepos": 6008,
      "Ġachieved": 6009,
      "Ġfossil": 6010,
      "Ġoptim": 6011,
      "eper": 6012,
      "Ġtwice": 6013,
      "Ġskill": 6014,
      "ĠIll": 6015,
      "Ġsequence": 6016,
      "ĠGet": 6017,
      "ato": 6018,
      "cel": 6019,
      "ceived": 6020,
      "Ġmarked": 6021,
      "Ġcreates": 6022,
      "Ġproduces": 6023,
      "Ġvote": 6024,
      ".âĢĻ": 6025,
      "Ġpapers": 6026,
      "Ġstudying": 6027,
      "itudes": 6028,
      "ĠNations": 6029,
      "ĠThose": 6030,
      "Ġtells": 6031,
      "See": 6032,
      "Ġinner": 6033,
      "Ġtiny": 6034,
      "Ġ1998": 6035,
      "Ġaf": 6036,
      "ĠTor": 6037,
      "Ġdecide": 6038,
      "Ġmechanism": 6039,
      "hist": 6040,
      "ester": 6041,
      "ena": 6042,
      "Ġthor": 6043,
      "Ġgreatly": 6044,
      "rors": 6045,
      "Ġabund": 6046,
      "Ġpump": 6047,
      "Ġcomposition": 6048,
      "Ġnewsp": 6049,
      "Ġsentence": 6050,
      "ĠThrough": 6051,
      "ola": 6052,
      "abric": 6053,
      "Ġuns": 6054,
      "Ġ>": 6055,
      "arant": 6056,
      "Ġflav": 6057,
      "level": 6058,
      "ĠUSA": 6059,
      "05": 6060,
      "orrow": 6061,
      "Ġpull": 6062,
      "stract": 6063,
      "ĠAtt": 6064,
      "wo": 6065,
      "ĠOx": 6066,
      "ĠKnow": 6067,
      "Ġlocations": 6068,
      "Ġscript": 6069,
      "othe": 6070,
      "Ġdescription": 6071,
      "ĠMicro": 6072,
      "cher": 6073,
      "luding": 6074,
      "ĠStat": 6075,
      "ĠPeter": 6076,
      "irus": 6077,
      "usal": 6078,
      "hand": 6079,
      "Ġkit": 6080,
      "Ġframework": 6081,
      "Ġratio": 6082,
      "Ġwants": 6083,
      "Ġswitch": 6084,
      "Ġindicates": 6085,
      "Ġimmediate": 6086,
      "from": 6087,
      "Ġelectronic": 6088,
      "ĠParis": 6089,
      "EP": 6090,
      "Cont": 6091,
      "Ġhabits": 6092,
      "Ġoutl": 6093,
      "allel": 6094,
      "Ġcontamin": 6095,
      "ĠItaly": 6096,
      "ctor": 6097,
      "Ġcorn": 6098,
      "ĠReport": 6099,
      "ĠBro": 6100,
      "ĠVict": 6101,
      "ĠIN": 6102,
      "ĠIP": 6103,
      "Ġhappy": 6104,
      "tra": 6105,
      "using": 6106,
      "Ġunknown": 6107,
      "Ġ2019": 6108,
      "Ġcultiv": 6109,
      "Ġreplaced": 6110,
      "Ġrespir": 6111,
      "Ġshift": 6112,
      "Ġsupplies": 6113,
      "ĠCommittee": 6114,
      "ums": 6115,
      "Ġintervention": 6116,
      "Ġbroken": 6117,
      "ĠMa": 6118,
      "Ġacceler": 6119,
      "born": 6120,
      "Ġchildhood": 6121,
      "Ġmuseum": 6122,
      "Ġyield": 6123,
      "Ġuniverse": 6124,
      "Ġphilosophy": 6125,
      "Ġshell": 6126,
      "urd": 6127,
      "elled": 6128,
      "ĠAdd": 6129,
      "Ġstarts": 6130,
      "77": 6131,
      "Ġalle": 6132,
      "inn": 6133,
      "ĠGood": 6134,
      "mas": 6135,
      "Ġprincip": 6136,
      "Ġintellect": 6137,
      "Ġaccounts": 6138,
      "Ġfeeding": 6139,
      "Ġcart": 6140,
      "body": 6141,
      "Ġconclusion": 6142,
      "Ġsod": 6143,
      "ita": 6144,
      "stone": 6145,
      "ĠGlobal": 6146,
      "Ġconfidence": 6147,
      "Ġderived": 6148,
      "ocracy": 6149,
      "gent": 6150,
      "Ġmixed": 6151,
      "ĠStep": 6152,
      "Ġethnic": 6153,
      "ĠDisease": 6154,
      "Ġfasc": 6155,
      "CT": 6156,
      "ĠYet": 6157,
      "Ġinjuries": 6158,
      "orous": 6159,
      "Ġcreative": 6160,
      "Ġhus": 6161,
      "acts": 6162,
      "ĠAnn": 6163,
      "Ġpermanent": 6164,
      "Ġshut": 6165,
      "Ġfilled": 6166,
      "Ġremark": 6167,
      "ĠSouthern": 6168,
      "Ġdifficulty": 6169,
      "Ġslowly": 6170,
      "Ġrepresented": 6171,
      "Ġmachines": 6172,
      "ĠHaw": 6173,
      "fish": 6174,
      "ĠRome": 6175,
      "irty": 6176,
      "Ġtruly": 6177,
      "Ġopposite": 6178,
      "icide": 6179,
      "hma": 6180,
      "Ġserver": 6181,
      "Ġsucceed": 6182,
      "Ġmarriage": 6183,
      "Ġbattery": 6184,
      "Ġlaun": 6185,
      "inction": 6186,
      "Ġraw": 6187,
      "ĠOnly": 6188,
      "En": 6189,
      "Ġnine": 6190,
      "Ġregulations": 6191,
      "Ġsky": 6192,
      "pet": 6193,
      "Ġconsumers": 6194,
      "ĠCanadian": 6195,
      "ĠGal": 6196,
      "Ġreserv": 6197,
      "Ġdedicated": 6198,
      "Ġlots": 6199,
      "add": 6200,
      "Ġ500": 6201,
      "Ġcomparison": 6202,
      "Ġ189": 6203,
      "Ġseeing": 6204,
      "Ġcopy": 6205,
      "Ġvessels": 6206,
      "ĠAustralian": 6207,
      "ĠAp": 6208,
      "Ġarrived": 6209,
      "ĠPers": 6210,
      "ront": 6211,
      "Ġtwenty": 6212,
      "agon": 6213,
      "lets": 6214,
      "Ġsweet": 6215,
      "ĠFe": 6216,
      "Ġartificial": 6217,
      "Ġtrials": 6218,
      "ictionary": 6219,
      "orses": 6220,
      "Ġlaboratory": 6221,
      "Not": 6222,
      "ribed": 6223,
      "Ġsurf": 6224,
      "Ġjoin": 6225,
      "Ġobservations": 6226,
      "oned": 6227,
      "Read": 6228,
      "ĠRob": 6229,
      "Ġ300": 6230,
      "ĠExp": 6231,
      "anda": 6232,
      "Ġunable": 6233,
      "Ġwish": 6234,
      "Ġbio": 6235,
      "sis": 6236,
      "Can": 6237,
      "Ġdestroyed": 6238,
      "Ġmanaged": 6239,
      "Ġnecessarily": 6240,
      "Stud": 6241,
      "Ġcutting": 6242,
      "Ġvolunte": 6243,
      "ml": 6244,
      "Ġenemy": 6245,
      "iah": 6246,
      "Ġinstitution": 6247,
      "ĠDesign": 6248,
      "IG": 6249,
      "Ġcm": 6250,
      "Ġcarefully": 6251,
      "ĠCancer": 6252,
      "then": 6253,
      "Ġdiox": 6254,
      "ĠPub": 6255,
      "Ġcloser": 6256,
      "tering": 6257,
      "Ġcircuit": 6258,
      "Ġfiber": 6259,
      "ĠValley": 6260,
      "Ġdownload": 6261,
      "Ġroute": 6262,
      "Ġcustomers": 6263,
      "Ġacknow": 6264,
      "Ġconventional": 6265,
      "Ġwalking": 6266,
      "ivery": 6267,
      "ua": 6268,
      "Ġorganisms": 6269,
      "Ġaudience": 6270,
      "inson": 6271,
      "Ġinsurance": 6272,
      "Ġwaves": 6273,
      "Ġmembr": 6274,
      "ĠExper": 6275,
      "Ġfighting": 6276,
      "Ġcoffee": 6277,
      "inating": 6278,
      "Ġchosen": 6279,
      "Ġinhib": 6280,
      "irds": 6281,
      "ĠNorthern": 6282,
      "ĠKh": 6283,
      "inking": 6284,
      "ifications": 6285,
      "Ġprotocol": 6286,
      "Ġevaluation": 6287,
      "Bl": 6288,
      "but": 6289,
      "earchers": 6290,
      "ĠJoseph": 6291,
      "kes": 6292,
      "Ġfewer": 6293,
      "Ġhoriz": 6294,
      "Ġdebate": 6295,
      "ĠAdminist": 6296,
      "Ġgap": 6297,
      "Ġprev": 6298,
      "hether": 6299,
      "Ġcarb": 6300,
      "ĠForm": 6301,
      "Ġprompt": 6302,
      "Ġhydrogen": 6303,
      "ĠÎ": 6304,
      "Ġvoc": 6305,
      "Ġpowers": 6306,
      "rating": 6307,
      "Ġ1970": 6308,
      "wing": 6309,
      "ĠPM": 6310,
      "uh": 6311,
      "Ġeastern": 6312,
      "ĠFrank": 6313,
      "ugh": 6314,
      "Ġoverl": 6315,
      "Ġreader": 6316,
      "American": 6317,
      "abul": 6318,
      "Ġpercentage": 6319,
      "Ġbreathing": 6320,
      "rine": 6321,
      "atal": 6322,
      "Ġphotograph": 6323,
      "Ġregul": 6324,
      "olester": 6325,
      "Ġdesire": 6326,
      "Ġhandle": 6327,
      "rial": 6328,
      "Ġdaughter": 6329,
      "Ġpurchase": 6330,
      "Ġarchitecture": 6331,
      "gans": 6332,
      "Ġsupporting": 6333,
      "Ġgone": 6334,
      "Ġboost": 6335,
      "ĠHall": 6336,
      "Ġcolleagues": 6337,
      "Ġbear": 6338,
      "Ġagency": 6339,
      "ints": 6340,
      "Ġmice": 6341,
      "Ġfounded": 6342,
      "Ġdensity": 6343,
      "Ġpron": 6344,
      "Ġcounty": 6345,
      "ĠSpain": 6346,
      "Ġwriter": 6347,
      "Ġconcrete": 6348,
      "sey": 6349,
      "Ġgrew": 6350,
      "rovers": 6351,
      "Ġlayers": 6352,
      "hop": 6353,
      "ĠGold": 6354,
      "Ġemotions": 6355,
      "Figure": 6356,
      "aped": 6357,
      "Ġattend": 6358,
      "Ġstands": 6359,
      "ĠClin": 6360,
      "ĠStudy": 6361,
      "gu": 6362,
      "inity": 6363,
      "reland": 6364,
      "umes": 6365,
      "Ġpreval": 6366,
      "Ġlect": 6367,
      "Ġdin": 6368,
      "ribe": 6369,
      "Ġnerve": 6370,
      "Ġultimately": 6371,
      "Ġyounger": 6372,
      "Ġtransportation": 6373,
      "Ġhighlight": 6374,
      "Ġoccasion": 6375,
      "ĠChicago": 6376,
      "Ġlimits": 6377,
      "ĠBre": 6378,
      "Ġdepartment": 6379,
      "ĠExt": 6380,
      "Ġprogramming": 6381,
      "Ġsubs": 6382,
      "Ġsight": 6383,
      "Ġsupports": 6384,
      "Ġunderlying": 6385,
      "net": 6386,
      "oln": 6387,
      "Ġacids": 6388,
      "ĠRevolution": 6389,
      "zed": 6390,
      "Ġreactions": 6391,
      "Ġcompetition": 6392,
      "Ġlies": 6393,
      "Ġelectron": 6394,
      "osph": 6395,
      "izer": 6396,
      "Ġresulted": 6397,
      "ĠTimes": 6398,
      "Ġsmoke": 6399,
      "espread": 6400,
      "DP": 6401,
      "clop": 6402,
      "Ġmaintaining": 6403,
      "Ġhypothes": 6404,
      "Ġtank": 6405,
      "Ġneur": 6406,
      "Ġaccum": 6407,
      "olesterol": 6408,
      "42": 6409,
      "zil": 6410,
      "Ġregist": 6411,
      "Ġturns": 6412,
      "itan": 6413,
      "called": 6414,
      "Ġunus": 6415,
      "Ġfunds": 6416,
      "ĠDet": 6417,
      "Ġsharing": 6418,
      "Ġequivalent": 6419,
      "Ġenab": 6420,
      "Ġ36": 6421,
      "ĠColor": 6422,
      "Ġpersist": 6423,
      "Let": 6424,
      "Ġ185": 6425,
      "Ġadministr": 6426,
      "Ġpool": 6427,
      "Ġdelay": 6428,
      "ipping": 6429,
      "Ġbeliefs": 6430,
      "Ġissued": 6431,
      "Ġbiggest": 6432,
      "ĠEU": 6433,
      "antly": 6434,
      "Ġrhy": 6435,
      "stein": 6436,
      "fortunately": 6437,
      "Ġcommunicate": 6438,
      "aud": 6439,
      "idity": 6440,
      "Ġscan": 6441,
      "Ġdrawing": 6442,
      "Ġvariable": 6443,
      "otton": 6444,
      "ĠOcean": 6445,
      "Ġpra": 6446,
      "ĠCarolina": 6447,
      "Ġzone": 6448,
      "ĠForest": 6449,
      "Ġhero": 6450,
      "Ġlifestyle": 6451,
      "Ġmild": 6452,
      "riers": 6453,
      "Ġpolitics": 6454,
      "Ġcrow": 6455,
      "utch": 6456,
      "Ġrelation": 6457,
      "Ġrid": 6458,
      "Ġattached": 6459,
      "Ġends": 6460,
      "Ġassociation": 6461,
      "Ġcalcium": 6462,
      "top": 6463,
      "roduction": 6464,
      "ĠCult": 6465,
      "LE": 6466,
      "Ġdoi": 6467,
      "Ġexists": 6468,
      "Ġfalse": 6469,
      "osion": 6470,
      "Ġgenerations": 6471,
      "azing": 6472,
      "Ġrefuge": 6473,
      "Ġcultures": 6474,
      "ora": 6475,
      "Ġparticipate": 6476,
      "Ġbehaviors": 6477,
      "ups": 6478,
      "ella": 6479,
      "Ġterritory": 6480,
      "Ġnearby": 6481,
      "Ġconnections": 6482,
      "bridge": 6483,
      "Ġfrequent": 6484,
      "hesis": 6485,
      "Ġwhereas": 6486,
      "Ġlegs": 6487,
      "âĢĻ,": 6488,
      "Ġcolour": 6489,
      "ĠIreland": 6490,
      "Ġcontained": 6491,
      "Ġsole": 6492,
      "Ġscene": 6493,
      "icon": 6494,
      "ĠHome": 6495,
      "tage": 6496,
      "Ġvulnerable": 6497,
      "Ġfever": 6498,
      "Ġsupposed": 6499,
      "teen": 6500,
      "ventions": 6501,
      "Ġzero": 6502,
      "Ġmechanisms": 6503,
      "Ġmagnetic": 6504,
      "ocation": 6505,
      "Ġveter": 6506,
      "Ġwww": 6507,
      "itt": 6508,
      "agraph": 6509,
      "Ġprove": 6510,
      "Ġfunctional": 6511,
      "Ġimprovement": 6512,
      "Ġdeclared": 6513,
      "Ġinstructions": 6514,
      "Ġdefine": 6515,
      "anta": 6516,
      "Ġtaste": 6517,
      "ĠEss": 6518,
      "anches": 6519,
      "ĠCamp": 6520,
      "ymph": 6521,
      "cons": 6522,
      "Ġcapture": 6523,
      "Ġtrained": 6524,
      "Ġrising": 6525,
      "ĠAgricult": 6526,
      "41": 6527,
      "hav": 6528,
      "Ġlaunch": 6529,
      "Ġsections": 6530,
      "ĠOh": 6531,
      "Ġindependence": 6532,
      "akistan": 6533,
      "Ġinteractions": 6534,
      "ureau": 6535,
      "ĠMichael": 6536,
      "Ġpeak": 6537,
      "Ġlisten": 6538,
      "ĠEmpire": 6539,
      "yles": 6540,
      "Ġborder": 6541,
      "Ġresolution": 6542,
      "Ġtea": 6543,
      "Ġrelax": 6544,
      "acco": 6545,
      "Ġglucose": 6546,
      "isters": 6547,
      "Ġbread": 6548,
      "Ġexamine": 6549,
      "Med": 6550,
      "Ġstanding": 6551,
      "such": 6552,
      "ĠSciences": 6553,
      "uts": 6554,
      "Ġships": 6555,
      "comm": 6556,
      "Pe": 6557,
      "ditional": 6558,
      "Ġexplo": 6559,
      "Ġmulti": 6560,
      "Ġtraum": 6561,
      "Ġestimates": 6562,
      "Ġstroke": 6563,
      "Ġclust": 6564,
      "ĠViet": 6565,
      "Ġnoise": 6566,
      "usiness": 6567,
      "Ġpsychological": 6568,
      "ested": 6569,
      "Ġhousing": 6570,
      "Ġpainting": 6571,
      "Ġemployed": 6572,
      "ih": 6573,
      "weight": 6574,
      "ĠSk": 6575,
      "Ġinstruments": 6576,
      "hered": 6577,
      "Ġaccident": 6578,
      "Ġdefe": 6579,
      "incoln": 6580,
      "Ġshop": 6581,
      "ĠCop": 6582,
      "ĠCap": 6583,
      "ĠâĢ¢": 6584,
      "Ġongoing": 6585,
      "ĠEth": 6586,
      "igned": 6587,
      "bra": 6588,
      "Ġastronom": 6589,
      "ults": 6590,
      "Ġguarant": 6591,
      "plant": 6592,
      "Ġswim": 6593,
      "while": 6594,
      "phone": 6595,
      "Ġrecognition": 6596,
      "Ġwilling": 6597,
      "Ġdemonstrated": 6598,
      "Ġwidespread": 6599,
      "ishment": 6600,
      "ployment": 6601,
      "Ġdioxide": 6602,
      "Ġaccessible": 6603,
      "Ġdebt": 6604,
      "ĠBoard": 6605,
      "Ġarrange": 6606,
      "Ġlegislation": 6607,
      "Ġmos": 6608,
      "rd": 6609,
      "79": 6610,
      "Ġoblig": 6611,
      "Ġcompounds": 6612,
      "Ġourselves": 6613,
      "Ġrecommendations": 6614,
      "ĠFree": 6615,
      "Ġ1995": 6616,
      "ĠFace": 6617,
      "Ġmatters": 6618,
      "Ġparticipation": 6619,
      "xts": 6620,
      "Ġshot": 6621,
      "88": 6622,
      "bour": 6623,
      "Ġpup": 6624,
      "Ġ1960": 6625,
      "aph": 6626,
      "Ġmarried": 6627,
      "Ġwhatever": 6628,
      "Ġcomments": 6629,
      "Ġagreed": 6630,
      "SS": 6631,
      "Ġeld": 6632,
      "Ġ1997": 6633,
      "isk": 6634,
      "Ġdrain": 6635,
      "Ġdistur": 6636,
      "Ġpositions": 6637,
      "Ġpair": 6638,
      "ĠTime": 6639,
      "Ġtall": 6640,
      "esis": 6641,
      "Ġepid": 6642,
      "Over": 6643,
      "ĠVis": 6644,
      "ĠDar": 6645,
      "Ġtons": 6646,
      "Ġsmooth": 6647,
      "Ġjoined": 6648,
      "Ġoffering": 6649,
      "Ġ75": 6650,
      "ĠCOVID": 6651,
      "igan": 6652,
      "ĠMad": 6653,
      "ĠEnd": 6654,
      "Ġmedic": 6655,
      "Ġcommitted": 6656,
      "IR": 6657,
      "Ġspok": 6658,
      "Ġinvolving": 6659,
      "Ġmoisture": 6660,
      "Ã³": 6661,
      "ĠIndians": 6662,
      "ĠPan": 6663,
      "Ġbrand": 6664,
      "Ġsignificance": 6665,
      "ĠFort": 6666,
      "ĠPenn": 6667,
      "Ġmarkets": 6668,
      "ĠMag": 6669,
      "Ġcontrols": 6670,
      "Ġdemonstrate": 6671,
      "ĠAcademy": 6672,
      "âĢĺ": 6673,
      "Ġfabric": 6674,
      "Ġrig": 6675,
      "Ġpoison": 6676,
      "Ġfeedback": 6677,
      "Ġcategories": 6678,
      "Ġconven": 6679,
      "Ġblow": 6680,
      "ĠCa": 6681,
      "Ġmode": 6682,
      "urrent": 6683,
      "Ġentry": 6684,
      "Ġcamera": 6685,
      "Ġoperate": 6686,
      "ĠRichard": 6687,
      "Ġbridge": 6688,
      "Ġthy": 6689,
      "Ġreliable": 6690,
      "Ġdelivery": 6691,
      "Ġrelief": 6692,
      "Ġcrime": 6693,
      "ĠIII": 6694,
      "Ġahead": 6695,
      "Ġneck": 6696,
      "CD": 6697,
      "Ġundert": 6698,
      "rus": 6699,
      "ĠGuide": 6700,
      "Ġcos": 6701,
      "ĠWik": 6702,
      "erior": 6703,
      "ione": 6704,
      "Ġdose": 6705,
      "Ġdiagnosed": 6706,
      "Ġdanger": 6707,
      "Ġsmoking": 6708,
      "Ġ1996": 6709,
      "BS": 6710,
      "ocy": 6711,
      "Ġsubstances": 6712,
      "First": 6713,
      "operation": 6714,
      "osc": 6715,
      "Ġfract": 6716,
      "Ġsettings": 6717,
      "Ġsacr": 6718,
      "Int": 6719,
      "Ġfashion": 6720,
      "Ġearthqu": 6721,
      "Ġrecept": 6722,
      "Ġflo": 6723,
      "Ġdetection": 6724,
      "Ġdepart": 6725,
      "Ġpresentation": 6726,
      "Ġvariables": 6727,
      "ĠSecret": 6728,
      "Ġpartner": 6729,
      "Ġobjective": 6730,
      "Ġindustries": 6731,
      "Ġuniversal": 6732,
      "word": 6733,
      "ĠGeorg": 6734,
      "Ġfacility": 6735,
      "Ġdivision": 6736,
      "Ġhem": 6737,
      "Ġdrawn": 6738,
      "ĠDig": 6739,
      "ĠKeep": 6740,
      "Ġath": 6741,
      "omic": 6742,
      "Ġlaunched": 6743,
      "ĠClimate": 6744,
      "Ġputting": 6745,
      "ourage": 6746,
      "Ġexplanation": 6747,
      "Ġforth": 6748,
      "Ġstable": 6749,
      "Ġblocks": 6750,
      "Ġentered": 6751,
      "71": 6752,
      "aine": 6753,
      "Ġaward": 6754,
      "ighter": 6755,
      "Ġstring": 6756,
      "Ġmaps": 6757,
      "heimer": 6758,
      "Of": 6759,
      "ĠEastern": 6760,
      "ĠHill": 6761,
      "Ġmand": 6762,
      "Ġspending": 6763,
      "Ġobesity": 6764,
      "Ġholds": 6765,
      "ĠPet": 6766,
      "Ġparallel": 6767,
      "'m": 6768,
      "Ġcompare": 6769,
      "Ġteen": 6770,
      "43": 6771,
      "Ġseemed": 6772,
      "Ġfer": 6773,
      "uter": 6774,
      "ĠGard": 6775,
      "Ġorient": 6776,
      "ĠAccess": 6777,
      "everal": 6778,
      "Ġbot": 6779,
      "Ġbanks": 6780,
      "ĠProp": 6781,
      "ediatric": 6782,
      "Rec": 6783,
      "ĠParty": 6784,
      "pes": 6785,
      "struction": 6786,
      "how": 6787,
      "Ġprohib": 6788,
      "rat": 6789,
      "tic": 6790,
      "Ġelection": 6791,
      "Ġhonor": 6792,
      "icious": 6793,
      "Ġowner": 6794,
      "asters": 6795,
      "IP": 6796,
      "ittle": 6797,
      "Ġcav": 6798,
      "ibl": 6799,
      "Ġtract": 6800,
      "irt": 6801,
      "Ġcontrovers": 6802,
      "Ġearn": 6803,
      "arly": 6804,
      "ĠLanguage": 6805,
      "itely": 6806,
      "Ġknows": 6807,
      "Ġtransp": 6808,
      "Ġchrom": 6809,
      "ĠPract": 6810,
      "Ġhole": 6811,
      "Ġseeking": 6812,
      "Ġofficers": 6813,
      "itter": 6814,
      "Ġ32": 6815,
      "Ġplayers": 6816,
      "Ġchick": 6817,
      "Ġhorses": 6818,
      "Ġgreenhouse": 6819,
      "Ġfro": 6820,
      "Ġvs": 6821,
      "Ġrow": 6822,
      "lv": 6823,
      "Ġbreath": 6824,
      "Ġmanif": 6825,
      "ĠItalian": 6826,
      "Ġindicated": 6827,
      "Lear": 6828,
      "Ġbond": 6829,
      "etics": 6830,
      "Ġexpansion": 6831,
      "Ġnegot": 6832,
      "venue": 6833,
      "ĠEarly": 6834,
      "azine": 6835,
      "Ġmechanical": 6836,
      "ĠGree": 6837,
      "Ġcenters": 6838,
      "Ġannounced": 6839,
      "Ġcollaboration": 6840,
      "Ġartists": 6841,
      "Ġtrip": 6842,
      "Ġnervous": 6843,
      "Ġconsumer": 6844,
      "IA": 6845,
      "Ġneither": 6846,
      "een": 6847,
      "gs": 6848,
      "Ġwasn": 6849,
      "Me": 6850,
      "occ": 6851,
      "earing": 6852,
      "Ġpreventing": 6853,
      "01": 6854,
      "Ġtexts": 6855,
      "ĠScot": 6856,
      "Ġchallenging": 6857,
      "orph": 6858,
      "Ġbiod": 6859,
      "Ġcategory": 6860,
      "%)": 6861,
      "fit": 6862,
      "she": 6863,
      "Ġreceiving": 6864,
      "Ġadvantages": 6865,
      "Ġrepair": 6866,
      "Ġcovers": 6867,
      "Ġruns": 6868,
      "Ġcholesterol": 6869,
      "66": 6870,
      "ented": 6871,
      "ĠSat": 6872,
      "Ġrank": 6873,
      "Ġbutter": 6874,
      "ĠHave": 6875,
      "Ġfulf": 6876,
      "making": 6877,
      "iration": 6878,
      "Ġessays": 6879,
      "Ġbrings": 6880,
      "Ġadequate": 6881,
      "itivity": 6882,
      "ether": 6883,
      "rary": 6884,
      "Ġpassage": 6885,
      "RA": 6886,
      "dule": 6887,
      "Ġfurn": 6888,
      "Ġvolcan": 6889,
      "Ġhistoric": 6890,
      "Ġedition": 6891,
      "Ġshif": 6892,
      "ĠWood": 6893,
      "Ġusage": 6894,
      "Ġdefense": 6895,
      "Ġdiscrimination": 6896,
      "Ġmeth": 6897,
      "ĠPop": 6898,
      "Ġsheet": 6899,
      "ĠAtlantic": 6900,
      "alls": 6901,
      "Ġsurve": 6902,
      "Ġviruses": 6903,
      "Ġdesired": 6904,
      "Ġ1994": 6905,
      "Ġcombat": 6906,
      "Ġille": 6907,
      "oples": 6908,
      "ĠWhere": 6909,
      "ĠVictor": 6910,
      "Ġestimate": 6911,
      "scale": 6912,
      "Ġmerely": 6913,
      "ĠDiff": 6914,
      "Ġrab": 6915,
      "85": 6916,
      "ĠRoyal": 6917,
      "Ġworkshe": 6918,
      "Ġstimul": 6919,
      "esides": 6920,
      "Ġrely": 6921,
      "rooms": 6922,
      "ĠPakistan": 6923,
      "Ġpublication": 6924,
      "Ġcoastal": 6925,
      "Ġske": 6926,
      "Ġmeal": 6927,
      "forcement": 6928,
      "Ġment": 6929,
      "quit": 6930,
      "Ġru": 6931,
      "example": 6932,
      "etime": 6933,
      "Ġmatch": 6934,
      "Ġmicros": 6935,
      "Ġaccuracy": 6936,
      "pan": 6937,
      "ĠCreat": 6938,
      "Ġapproved": 6939,
      "kins": 6940,
      "oding": 6941,
      "Ġspaces": 6942,
      "ĠKingdom": 6943,
      "Ġcompens": 6944,
      "Ġsomewhat": 6945,
      "rox": 6946,
      "Ġaband": 6947,
      "Ġfu": 6948,
      "Ġmining": 6949,
      "ushed": 6950,
      "Ġnone": 6951,
      "rite": 6952,
      "olar": 6953,
      "Ġpharm": 6954,
      "iability": 6955,
      "ĠAP": 6956,
      "Ġarrest": 6957,
      "cyclop": 6958,
      "Ġhun": 6959,
      "Ġgram": 6960,
      "Ġended": 6961,
      "otes": 6962,
      "Your": 6963,
      "Ġproportion": 6964,
      "herent": 6965,
      "Ġminerals": 6966,
      "Ġintegrated": 6967,
      "Ġtissues": 6968,
      "abulary": 6969,
      "ĠLincoln": 6970,
      "Ġoutbre": 6971,
      "Ġengaged": 6972,
      "ĠÐ": 6973,
      "Ġstrongly": 6974,
      "Ġvictims": 6975,
      "IM": 6976,
      "ĠMer": 6977,
      "Ġsigned": 6978,
      "Ġdollars": 6979,
      "ĠNaz": 6980,
      "Ġ150": 6981,
      "CH": 6982,
      "Ġfold": 6983,
      "ĠBig": 6984,
      "CA": 6985,
      "Ġfacing": 6986,
      "Ġholding": 6987,
      "sell": 6988,
      "Ġrivers": 6989,
      "ĠBrazil": 6990,
      "Even": 6991,
      "Ġdamaged": 6992,
      "Ġgalax": 6993,
      "Ġroles": 6994,
      "LA": 6995,
      "Ġcriteria": 6996,
      "ĠMinister": 6997,
      "Ġcup": 6998,
      "Ġasking": 6999,
      "df": 7000,
      "ady": 7001,
      "Ġcrim": 7002,
      "Ġdestruction": 7003,
      "Ġmortality": 7004,
      "Ġforget": 7005,
      "Ġdistributed": 7006,
      "Ġexercises": 7007,
      "ealand": 7008,
      "Ġcryst": 7009,
      "car": 7010,
      "acher": 7011,
      "Ġpreparation": 7012,
      "eenth": 7013,
      "Ã¶": 7014,
      "ounded": 7015,
      "ĠMoreover": 7016,
      "estion": 7017,
      "Ġgrain": 7018,
      "ĠServices": 7019,
      "gers": 7020,
      "Ġorgans": 7021,
      "Ġintense": 7022,
      "oven": 7023,
      "Ġreduces": 7024,
      "Ġevaluate": 7025,
      "Comp": 7026,
      "Ġcommission": 7027,
      "Ġproof": 7028,
      "Ġguidance": 7029,
      "CE": 7030,
      "Ġmg": 7031,
      "ĠConn": 7032,
      "Ġbabies": 7033,
      "zheimer": 7034,
      "Ġflower": 7035,
      "Ġconversation": 7036,
      "Or": 7037,
      "ĠKar": 7038,
      "Ġfarming": 7039,
      "Ġstreet": 7040,
      "ading": 7041,
      "Ġcats": 7042,
      "%.": 7043,
      "Ġimplemented": 7044,
      "Ġsought": 7045,
      "Ġangle": 7046,
      "Ġped": 7047,
      "umps": 7048,
      "rowing": 7049,
      "Ġtheories": 7050,
      "ĠAdditionally": 7051,
      "Ġconstantly": 7052,
      "Ġintellectual": 7053,
      "oir": 7054,
      "ĠScott": 7055,
      "Ġmissing": 7056,
      "Ġphotos": 7057,
      "Ġconfirmed": 7058,
      "inally": 7059,
      "Ġplenty": 7060,
      "arsh": 7061,
      "ĠMuslim": 7062,
      "ĠHoly": 7063,
      "ĠEqu": 7064,
      "Ġmales": 7065,
      "Ġwithd": 7066,
      "Ġcentre": 7067,
      "Ġelectro": 7068,
      "ĠJeff": 7069,
      "ĠFigure": 7070,
      "Ġmathematics": 7071,
      "Ġbiology": 7072,
      "Ġframe": 7073,
      "ĠColumbia": 7074,
      "UN": 7075,
      "Ġrenewable": 7076,
      "Ġpregnant": 7077,
      "Because": 7078,
      "mes": 7079,
      "amine": 7080,
      "idential": 7081,
      "Ġbreeding": 7082,
      "Ġshapes": 7083,
      "Ġcards": 7084,
      "ĠBrown": 7085,
      "Ġexcessive": 7086,
      "Ġmm": 7087,
      "ĠAS": 7088,
      "Ġopposed": 7089,
      "liest": 7090,
      "abb": 7091,
      "Ġblind": 7092,
      "Ġmood": 7093,
      "ĠAcc": 7094,
      "Qu": 7095,
      "Ġcompris": 7096,
      "ĠAdv": 7097,
      "Ġboy": 7098,
      "olving": 7099,
      "Ġ65": 7100,
      "Ġconstructed": 7101,
      "Ġnest": 7102,
      "Ġinformed": 7103,
      "Ġmeasurements": 7104,
      "hent": 7105,
      "ĠTake": 7106,
      "Ġcomposed": 7107,
      "ulty": 7108,
      "Ġinstalled": 7109,
      "Ġtight": 7110,
      "Ġcort": 7111,
      "ĠAge": 7112,
      "Ġrespiratory": 7113,
      "Ġpand": 7114,
      "Ġphysics": 7115,
      "elesc": 7116,
      "istical": 7117,
      "ĠZealand": 7118,
      "Ġcontemporary": 7119,
      "Ġfemales": 7120,
      "ĠOpen": 7121,
      "ala": 7122,
      "ĠMD": 7123,
      "Ġsubsequent": 7124,
      "Ġhusband": 7125,
      "ĠSym": 7126,
      "ĠNative": 7127,
      "Ġvac": 7128,
      "Ġfishing": 7129,
      "Ġmolecular": 7130,
      "ĠCre": 7131,
      "ĠCommunity": 7132,
      "Don": 7133,
      "Ġconsiderable": 7134,
      "Ġmaintained": 7135,
      "ĠHy": 7136,
      "Ġmoves": 7137,
      "Ġtrouble": 7138,
      "Once": 7139,
      "Ġinvestigation": 7140,
      "ĠResources": 7141,
      "Ġeveryday": 7142,
      "Ġbranches": 7143,
      "rane": 7144,
      "ĠNetwork": 7145,
      "Ġwine": 7146,
      "ĠMS": 7147,
      "ĠHeb": 7148,
      "Ġphoto": 7149,
      "Ġescape": 7150,
      "Ġdys": 7151,
      "ĠBefore": 7152,
      "Ġnob": 7153,
      "Ġworry": 7154,
      "Ġrarely": 7155,
      "itamin": 7156,
      "ĠAgency": 7157,
      "agram": 7158,
      "Ġparas": 7159,
      "OL": 7160,
      "Ġoutcome": 7161,
      "aired": 7162,
      "sen": 7163,
      "Ġproved": 7164,
      "Ġsenior": 7165,
      "Ġrocks": 7166,
      "Ġreward": 7167,
      "Ġnose": 7168,
      "Ġagents": 7169,
      "oston": 7170,
      "airy": 7171,
      "ĠSpecial": 7172,
      "Su": 7173,
      "raining": 7174,
      "Ġturning": 7175,
      "Ġloved": 7176,
      "Ġchest": 7177,
      "Ġdesigns": 7178,
      "gov": 7179,
      "lishing": 7180,
      "ĠSecurity": 7181,
      "ĠWord": 7182,
      "Ġproven": 7183,
      "hyd": 7184,
      "Ġlake": 7185,
      "ĠTV": 7186,
      "Ġinfluenced": 7187,
      "aded": 7188,
      "pling": 7189,
      "Ġburning": 7190,
      "Ġcalories": 7191,
      "charge": 7192,
      "NS": 7193,
      "Ġfairly": 7194,
      "Ġsurfaces": 7195,
      "ML": 7196,
      "uality": 7197,
      "Ġflag": 7198,
      "Ġcareful": 7199,
      "Ġimplications": 7200,
      "ĠEffect": 7201,
      "Ġchlor": 7202,
      "aked": 7203,
      "Ġmanip": 7204,
      "Ġcaptured": 7205,
      "Ġwait": 7206,
      "peror": 7207,
      "Ġdisaster": 7208,
      "Ġevil": 7209,
      "Ġmeters": 7210,
      "Ġuncertain": 7211,
      "aning": 7212,
      "avery": 7213,
      "Ġbath": 7214,
      "ĠSet": 7215,
      "oom": 7216,
      "oids": 7217,
      "ivered": 7218,
      "Ġtheme": 7219,
      "Ġrespectively": 7220,
      "ĠFurthermore": 7221,
      "Ġsatellite": 7222,
      "outs": 7223,
      "Ġpestic": 7224,
      "ĠPlant": 7225,
      "ĠPo": 7226,
      "Ġeffectiveness": 7227,
      "Ġfung": 7228,
      "Ġcarrying": 7229,
      "Ġtub": 7230,
      "ruption": 7231,
      "Ġserving": 7232,
      "UT": 7233,
      "eless": 7234,
      "Ġincred": 7235,
      "Ġbreed": 7236,
      "Ġstatistics": 7237,
      "Ġsubstantial": 7238,
      "Ġattempts": 7239,
      "Ġcomplicated": 7240,
      "Ġarts": 7241,
      "ĠFacebook": 7242,
      "68": 7243,
      "urric": 7244,
      "Ġstre": 7245,
      "Ġmineral": 7246,
      "Ġparagraph": 7247,
      "Ġgradually": 7248,
      "ĠIrish": 7249,
      "Ġnarrative": 7250,
      "Ġthanks": 7251,
      "gical": 7252,
      "ĠCoast": 7253,
      "ĠAND": 7254,
      "ĠCheck": 7255,
      "Ġid": 7256,
      "ĠFund": 7257,
      "Ġconsidering": 7258,
      "ĠAL": 7259,
      "Ġdomain": 7260,
      "Ġprincipal": 7261,
      "iological": 7262,
      "ĠSing": 7263,
      "Ġring": 7264,
      "Ġremed": 7265,
      "ommod": 7266,
      "Ġbiom": 7267,
      "Ġphenomenon": 7268,
      "Ġtube": 7269,
      "Ġthreats": 7270,
      "apse": 7271,
      "eli": 7272,
      "theless": 7273,
      "Ġcooking": 7274,
      "Ġtut": 7275,
      "Ġholid": 7276,
      "yth": 7277,
      "eness": 7278,
      "Ġpanel": 7279,
      "ĠSil": 7280,
      "Ġelected": 7281,
      "ĠAmong": 7282,
      "Ġaims": 7283,
      "Ġkidney": 7284,
      "Ġintest": 7285,
      "Ġjump": 7286,
      "itarian": 7287,
      "ani": 7288,
      "Ġconcerning": 7289,
      "ixture": 7290,
      "iana": 7291,
      "elfare": 7292,
      "Ġdifficulties": 7293,
      "onia": 7294,
      "Ġdrought": 7295,
      "vard": 7296,
      "ĠSchol": 7297,
      "Ġoverw": 7298,
      "Ġseconds": 7299,
      "Ġcattle": 7300,
      "ĠDirector": 7301,
      "Ġtheore": 7302,
      "Ġforg": 7303,
      "emia": 7304,
      "Ġremoval": 7305,
      "ollowing": 7306,
      "Ġinher": 7307,
      "ĠWorks": 7308,
      "Ġdependent": 7309,
      "Ġadvert": 7310,
      "eren": 7311,
      "onomy": 7312,
      "Ġfavorite": 7313,
      "Ġclaimed": 7314,
      "Ġstrict": 7315,
      "Ġdemands": 7316,
      "ima": 7317,
      "Ġcorrel": 7318,
      "alm": 7319,
      "73": 7320,
      "adder": 7321,
      "ĠLee": 7322,
      "Ġinsulin": 7323,
      "Ġrealize": 7324,
      "Ġbeauty": 7325,
      "Ġcotton": 7326,
      "itals": 7327,
      "Ġheating": 7328,
      "Ġassume": 7329,
      "ĠAlzheimer": 7330,
      "Ġinterpretation": 7331,
      "Ġingredients": 7332,
      "74": 7333,
      "Am": 7334,
      "Ġjudge": 7335,
      "Ġmetabol": 7336,
      "Ġpounds": 7337,
      "Ġsales": 7338,
      "ĠSand": 7339,
      "Ġmessages": 7340,
      "ĠThough": 7341,
      "Ġempt": 7342,
      "Ġinn": 7343,
      "Ġ400": 7344,
      "ĠMartin": 7345,
      "Today": 7346,
      "Ġfisher": 7347,
      "Ġirrit": 7348,
      "ptions": 7349,
      "ĠKorea": 7350,
      "Ġcriminal": 7351,
      "heric": 7352,
      "ĠVer": 7353,
      "onym": 7354,
      "ĠAdministration": 7355,
      "utrition": 7356,
      "Ġvarieties": 7357,
      "Ġguard": 7358,
      "Ġhormone": 7359,
      "Ġlie": 7360,
      "Ġscientist": 7361,
      "aska": 7362,
      "action": 7363,
      "Ġscore": 7364,
      "ricts": 7365,
      "Ġmeasurement": 7366,
      "Ġevolved": 7367,
      "Ġlaid": 7368,
      "rey": 7369,
      "isdom": 7370,
      "OC": 7371,
      "Ġequally": 7372,
      "Ġsession": 7373,
      "Ġdealing": 7374,
      "Every": 7375,
      "Ġdent": 7376,
      "Ġholes": 7377,
      "ĠBab": 7378,
      "Ġartist": 7379,
      "Ġprominent": 7380,
      "rous": 7381,
      "ĠSup": 7382,
      "Ġminute": 7383,
      "Ġanalys": 7384,
      "ĠAsian": 7385,
      "Ġformula": 7386,
      "Ġcrew": 7387,
      "Ġfix": 7388,
      "ĠFamily": 7389,
      "icted": 7390,
      "Ġencouraged": 7391,
      "Ġstronger": 7392,
      "medi": 7393,
      "ĠGrand": 7394,
      "ĠList": 7395,
      "Ġdriven": 7396,
      "Ġroughly": 7397,
      "Ġvoltage": 7398,
      "bles": 7399,
      "ĠIran": 7400,
      "?\"": 7401,
      "Ġbeings": 7402,
      "Ġinfant": 7403,
      "Ġinfect": 7404,
      "ailed": 7405,
      "iral": 7406,
      "Ġrose": 7407,
      "Ġboys": 7408,
      "Ġbranch": 7409,
      "ĠWall": 7410,
      "ude": 7411,
      "Ġ1950": 7412,
      "ooking": 7413,
      "Ġfourth": 7414,
      "Ġacres": 7415,
      "roat": 7416,
      "MA": 7417,
      "yal": 7418,
      "ritis": 7419,
      "Ġwarning": 7420,
      "Ġuniform": 7421,
      "Ġscreening": 7422,
      "Ġproceed": 7423,
      "Ġpresents": 7424,
      "Ġfed": 7425,
      "igate": 7426,
      "ĠEp": 7427,
      "ishop": 7428,
      "Ġserves": 7429,
      "Ġgro": 7430,
      "Ġdeeper": 7431,
      "________": 7432,
      "72": 7433,
      "Ġdesert": 7434,
      "Ġwriters": 7435,
      "riz": 7436,
      "Ġdetected": 7437,
      "Ġcorner": 7438,
      "ĠMen": 7439,
      "ogether": 7440,
      "Ġcolumn": 7441,
      "Ġbringing": 7442,
      "htt": 7443,
      "Ġweapons": 7444,
      "oga": 7445,
      "isco": 7446,
      "Ġlearners": 7447,
      "Ġdelivered": 7448,
      "Ġcash": 7449,
      "Ġplus": 7450,
      "Ġfocuses": 7451,
      "Ġcircle": 7452,
      "Ġtrigger": 7453,
      "Ġconcluded": 7454,
      "Ġdefend": 7455,
      "Ġvisitors": 7456,
      "ĠYear": 7457,
      "Ġconsideration": 7458,
      "Ġvariation": 7459,
      "ano": 7460,
      "Ġtreating": 7461,
      "Ġdisrupt": 7462,
      "ĠVen": 7463,
      "Le": 7464,
      "Ġcharacterized": 7465,
      "Ġexperimental": 7466,
      "ĠNon": 7467,
      "Ġexamination": 7468,
      "ĠPolic": 7469,
      "Ġfilter": 7470,
      "Ġinitially": 7471,
      "requ": 7472,
      "nee": 7473,
      "Ġhappening": 7474,
      "Ġmarks": 7475,
      "Ġabsence": 7476,
      "----": 7477,
      "Ġensuring": 7478,
      "Ġliteracy": 7479,
      "ĠDoes": 7480,
      "ali": 7481,
      "amination": 7482,
      "ĠCast": 7483,
      "greg": 7484,
      "ĠChange": 7485,
      "ĠCy": 7486,
      "riend": 7487,
      "Ġnewly": 7488,
      "Ġtemple": 7489,
      "Ġinterpre": 7490,
      "Ġdirected": 7491,
      "Ġabnormal": 7492,
      "ĠEst": 7493,
      "ĠWho": 7494,
      "amins": 7495,
      "Ġplanned": 7496,
      "Ġfaced": 7497,
      "Ġasthma": 7498,
      "aming": 7499,
      "ĠResp": 7500,
      "ohyd": 7501,
      "PR": 7502,
      "Ġunusual": 7503,
      "ao": 7504,
      "ĠRock": 7505,
      "ĠSometimes": 7506,
      "ograp": 7507,
      "Ġessentially": 7508,
      "produ": 7509,
      "health": 7510,
      "Ġtropical": 7511,
      "Ġstatements": 7512,
      "Ġstead": 7513,
      "asty": 7514,
      "Comm": 7515,
      "lims": 7516,
      "Ġordered": 7517,
      "inf": 7518,
      "Ġabstract": 7519,
      "aret": 7520,
      "Ġfalls": 7521,
      "Ġexclus": 7522,
      "ĠLib": 7523,
      "class": 7524,
      "sue": 7525,
      "ansas": 7526,
      "forest": 7527,
      "Ġeliminate": 7528,
      "Ġgained": 7529,
      "Ġrice": 7530,
      "rene": 7531,
      "ette": 7532,
      "Ġfinished": 7533,
      "Ġpassing": 7534,
      "chen": 7535,
      "Ġclothing": 7536,
      "iary": 7537,
      "Ġslaves": 7538,
      "Ġavailability": 7539,
      "Ġbigger": 7540,
      "ĠPrinc": 7541,
      "essions": 7542,
      "osh": 7543,
      "Ġclar": 7544,
      "Ġslavery": 7545,
      "Ġanywhere": 7546,
      "Ġflour": 7547,
      "Ġov": 7548,
      "ipedia": 7549,
      "Ġunion": 7550,
      "yer": 7551,
      "Ġracial": 7552,
      "Ġencoun": 7553,
      "illa": 7554,
      "sm": 7555,
      "ĠSwed": 7556,
      "64": 7557,
      "Ġshock": 7558,
      "Ġneighborhood": 7559,
      "Ġadds": 7560,
      "Ġcoc": 7561,
      "rency": 7562,
      "03": 7563,
      "Ġles": 7564,
      "ĠLar": 7565,
      "Ġmicrob": 7566,
      "Ġinsert": 7567,
      "Ġdynamic": 7568,
      "etary": 7569,
      "HD": 7570,
      "Ġintent": 7571,
      "bar": 7572,
      "Ġworship": 7573,
      "Ġexception": 7574,
      "Ġovercome": 7575,
      "Ġagent": 7576,
      "Ġexamined": 7577,
      "98": 7578,
      "Ġsuffered": 7579,
      "Ġplot": 7580,
      "Ġprinted": 7581,
      "unicip": 7582,
      "Ġobserve": 7583,
      "ĠChristians": 7584,
      "Ġstability": 7585,
      "Ġsilver": 7586,
      "Ġgranted": 7587,
      "Ġbrows": 7588,
      "Ġturb": 7589,
      "ĠDen": 7590,
      "Ġcham": 7591,
      "Ġconserv": 7592,
      "Ġnitrogen": 7593,
      "Ġunw": 7594,
      "Ġconfig": 7595,
      "Ġacute": 7596,
      "ustain": 7597,
      "ĠTop": 7598,
      "Ġinnovation": 7599,
      "ĠMichigan": 7600,
      "rav": 7601,
      "Ġsplit": 7602,
      "ĠOxford": 7603,
      "including": 7604,
      "Ġphysician": 7605,
      "ieval": 7606,
      "Ġarchae": 7607,
      "Ġye": 7608,
      "ĠMoon": 7609,
      "ĠIndust": 7610,
      "arth": 7611,
      "Ġworst": 7612,
      "Ġmodified": 7613,
      "Ġopposition": 7614,
      "Ġerrors": 7615,
      "Ġsatisf": 7616,
      "Ġhealing": 7617,
      "ostic": 7618,
      "night": 7619,
      "Ġcooling": 7620,
      "Ġtob": 7621,
      "Ġidentifying": 7622,
      "ĠJohnson": 7623,
      "Ġtelevision": 7624,
      "Ġtrends": 7625,
      "ounce": 7626,
      "erman": 7627,
      "Ġeditor": 7628,
      "Ġstructural": 7629,
      "Ġimagine": 7630,
      "Ġtraditions": 7631,
      "Ġaccompan": 7632,
      "ĠDistrict": 7633,
      "rance": 7634,
      "ultane": 7635,
      "ĠFour": 7636,
      "Ġcleaning": 7637,
      "Ġrecover": 7638,
      "Ġaccommod": 7639,
      "Ġteams": 7640,
      "Ġregulation": 7641,
      "ĠOrganization": 7642,
      "Ġkilomet": 7643,
      "ãģ": 7644,
      "angered": 7645,
      "coming": 7646,
      "Ġtaxes": 7647,
      "Ed": 7648,
      "ĠAngel": 7649,
      "ilation": 7650,
      "Ġroads": 7651,
      "ĠForce": 7652,
      "Ġcustomer": 7653,
      "Ġcomfortable": 7654,
      "arn": 7655,
      "Ġobservation": 7656,
      "ENT": 7657,
      "Ġsharp": 7658,
      "mers": 7659,
      "Ġcounsel": 7660,
      "Ġassigned": 7661,
      "Ġconqu": 7662,
      "Ġbrush": 7663,
      "Ġwindows": 7664,
      "Ġmountains": 7665,
      "Ġcaught": 7666,
      "ĠUr": 7667,
      "Ġmathematical": 7668,
      ".'": 7669,
      "Ġarray": 7670,
      "Ġusual": 7671,
      "Ġdecreased": 7672,
      "ĠFinally": 7673,
      "Ġstuff": 7674,
      "wan": 7675,
      "ĠBoston": 7676,
      "atively": 7677,
      "Ġquantity": 7678,
      "Ġlights": 7679,
      "Ġirrig": 7680,
      "ĠSir": 7681,
      "Ġitem": 7682,
      "acent": 7683,
      "orted": 7684,
      "Ġperm": 7685,
      "ĠPot": 7686,
      "Ġmaybe": 7687,
      "ĠPalest": 7688,
      "ĠChapter": 7689,
      "IDS": 7690,
      "Ġheavily": 7691,
      "Ġschedule": 7692,
      "rection": 7693,
      "iture": 7694,
      "ĠDespite": 7695,
      "effect": 7696,
      "Ġknowing": 7697,
      "Ġextend": 7698,
      "Â·": 7699,
      "anger": 7700,
      "Ġprovider": 7701,
      "Ġhazard": 7702,
      "ontal": 7703,
      "Ġ48": 7704,
      "ocial": 7705,
      "mm": 7706,
      "Ġbees": 7707,
      "ĠMel": 7708,
      "Ġexceed": 7709,
      "ĠSuper": 7710,
      "Ġtargets": 7711,
      "Ġcorrectly": 7712,
      "Ġislands": 7713,
      "iments": 7714,
      "Ġhence": 7715,
      "Ġadm": 7716,
      "Ġprotecting": 7717,
      "Ġprofit": 7718,
      "asm": 7719,
      "....": 7720,
      "Ġemphasis": 7721,
      "Ġdiameter": 7722,
      "Ġscar": 7723,
      "Ġcontributed": 7724,
      "Ġclient": 7725,
      "Ġsus": 7726,
      "Ġ1992": 7727,
      "haust": 7728,
      "Ġcomplications": 7729,
      "holders": 7730,
      "uten": 7731,
      "soft": 7732,
      "gence": 7733,
      "ĠJac": 7734,
      "ĠBill": 7735,
      "ĠHebrew": 7736,
      "Ġcopper": 7737,
      "Ġstores": 7738,
      "Ġconsume": 7739,
      "App": 7740,
      "otal": 7741,
      "ĠDou": 7742,
      "Ġprovince": 7743,
      "Ġcoverage": 7744,
      "Ġpin": 7745,
      "Ġinequ": 7746,
      "rison": 7747,
      "Ġenorm": 7748,
      "ĠNever": 7749,
      "Ġdisabilities": 7750,
      "Ġsuperior": 7751,
      "Ġvocabulary": 7752,
      "Ġconcentrations": 7753,
      "Ġsunlight": 7754,
      "HS": 7755,
      "Ġherb": 7756,
      "vi": 7757,
      "Ġengineers": 7758,
      "Ġspin": 7759,
      "Ġgrows": 7760,
      "edu": 7761,
      "oured": 7762,
      "ĠIslamic": 7763,
      "ĠDivision": 7764,
      "door": 7765,
      "ĠIT": 7766,
      "ĠLow": 7767,
      "Ġstrengthen": 7768,
      "Ġwheat": 7769,
      "ovascular": 7770,
      "Ġprocessed": 7771,
      "ĠStr": 7772,
      "Pre": 7773,
      "isted": 7774,
      "Ġradical": 7775,
      "usalem": 7776,
      "Ġtobacco": 7777,
      "just": 7778,
      "Ġdietary": 7779,
      "Ġcovering": 7780,
      "08": 7781,
      "Ġorders": 7782,
      "Ġinspired": 7783,
      "Ġwrites": 7784,
      "reated": 7785,
      "eor": 7786,
      "ĠTim": 7787,
      "Ġprinting": 7788,
      "Ġinhabit": 7789,
      "ĠSign": 7790,
      "Ġfinds": 7791,
      "Ġ1991": 7792,
      "Ġaffecting": 7793,
      "raham": 7794,
      "ĠHosp": 7795,
      "Ġchannel": 7796,
      "ĠCross": 7797,
      "Per": 7798,
      "Ġpeoples": 7799,
      "Ġpreced": 7800,
      "Ġconference": 7801,
      "Ġplane": 7802,
      "Ġtumor": 7803,
      "Ġproviders": 7804,
      "abeth": 7805,
      "Ġdecor": 7806,
      "rolled": 7807,
      "ĠOhio": 7808,
      "Ġgent": 7809,
      "rays": 7810,
      "Ġton": 7811,
      "Ġadvis": 7812,
      "Ġearliest": 7813,
      "Ġcyber": 7814,
      "ĠSimilar": 7815,
      "aws": 7816,
      "orig": 7817,
      "Ġpit": 7818,
      "ĠRom": 7819,
      "Ġtranslation": 7820,
      "def": 7821,
      "Ġpros": 7822,
      "Ġregarded": 7823,
      "Ġspectrum": 7824,
      "Ġquarter": 7825,
      "ĠThree": 7826,
      "semb": 7827,
      "Ġflows": 7828,
      "Ġviewed": 7829,
      "Ġsettlement": 7830,
      "ga": 7831,
      "Ġampl": 7832,
      "Ġremind": 7833,
      "Ġvideos": 7834,
      "fts": 7835,
      "Ġpoem": 7836,
      "ĠEr": 7837,
      "athered": 7838,
      "ĠOper": 7839,
      "Ġsoul": 7840,
      "vin": 7841,
      "icing": 7842,
      "Ġisolated": 7843,
      "endment": 7844,
      "Ġreporting": 7845,
      "Ġcomputing": 7846,
      "Ġlosses": 7847,
      "Ġreveal": 7848,
      "Ġvictim": 7849,
      "AA": 7850,
      "irms": 7851,
      "Ġorbit": 7852,
      "Ġalter": 7853,
      "Ġcoron": 7854,
      "Ġcapabilities": 7855,
      "Ġautomatically": 7856,
      "Ġrect": 7857,
      "Ġabilities": 7858,
      "Ġouter": 7859,
      "Ġpandemic": 7860,
      "Ġbag": 7861,
      "Ġintensity": 7862,
      "Ġobjectives": 7863,
      "Ġattitude": 7864,
      "Ġsupplements": 7865,
      "Ġphrase": 7866,
      "ĠJo": 7867,
      "Ġmosquit": 7868,
      "Ġdates": 7869,
      "Ġspr": 7870,
      "ĠYoung": 7871,
      "ĠEngineering": 7872,
      ")|": 7873,
      "ba": 7874,
      "asant": 7875,
      "Ġsup": 7876,
      "Ġthereby": 7877,
      "Ġgeomet": 7878,
      "ĠMethod": 7879,
      "96": 7880,
      "sor": 7881,
      "06": 7882,
      "Ġ95": 7883,
      "Ġseparated": 7884,
      "Ġindigenous": 7885,
      "ĠGeorgia": 7886,
      "Ġ1993": 7887,
      "uset": 7888,
      "Ġoverwhel": 7889,
      "dr": 7890,
      "va": 7891,
      "Ġ38": 7892,
      "Ġmoderate": 7893,
      "Ġappointed": 7894,
      "tles": 7895,
      "print": 7896,
      "Ġstations": 7897,
      "century": 7898,
      "Ġidentification": 7899,
      "Ġbomb": 7900,
      "Ġpointed": 7901,
      "ĠLess": 7902,
      "Ġcharged": 7903,
      "Ġfarms": 7904,
      "gien": 7905,
      "Ġgrid": 7906,
      "Ġmanufacturers": 7907,
      "Ġbless": 7908,
      "igue": 7909,
      "Ġacquired": 7910,
      "iat": 7911,
      "Ġreaching": 7912,
      "Ġduty": 7913,
      "ĠAM": 7914,
      "02": 7915,
      "Ġrepresentation": 7916,
      "People": 7917,
      ")||": 7918,
      "Note": 7919,
      "Ġgiant": 7920,
      "Ġfalling": 7921,
      "achers": 7922,
      "Ġadverse": 7923,
      "Ġ33": 7924,
      "ĠIndigenous": 7925,
      "ĠAuthor": 7926,
      "ĠMath": 7927,
      "About": 7928,
      "She": 7929,
      "Ġdance": 7930,
      "ĠLead": 7931,
      "Ġestablishment": 7932,
      "Ġproductivity": 7933,
      "Ġengines": 7934,
      "ĠSupreme": 7935,
      "Ġvisited": 7936,
      "zym": 7937,
      "Ġstake": 7938,
      "Ġamazing": 7939,
      "RC": 7940,
      "Ġslave": 7941,
      "Ġversions": 7942,
      "ĠNov": 7943,
      "Ġsuscept": 7944,
      "Part": 7945,
      "lu": 7946,
      "ĠOnline": 7947,
      "Ġaimed": 7948,
      "Ġasc": 7949,
      "ographical": 7950,
      "quar": 7951,
      "Ġrelie": 7952,
      "ĠCentre": 7953,
      "Ġhardware": 7954,
      "Ġlabour": 7955,
      "Ġantibiotics": 7956,
      "Ġfinger": 7957,
      "ĠFar": 7958,
      "Ġdemocracy": 7959,
      "Ġmeasuring": 7960,
      "Ġembra": 7961,
      "Ġhidden": 7962,
      "una": 7963,
      "Ġdirections": 7964,
      "Ġeru": 7965,
      "Ġregardless": 7966,
      "ogs": 7967,
      "Ġsport": 7968,
      "Ġplanting": 7969,
      "Ġfunctioning": 7970,
      "Ġburied": 7971,
      "ĠPlease": 7972,
      "berry": 7973,
      "Ġmine": 7974,
      "Ġconj": 7975,
      "ĠStar": 7976,
      "ĠJerusalem": 7977,
      "Ġimaging": 7978,
      "Ã¢": 7979,
      "pled": 7980,
      "Ġargue": 7981,
      "adel": 7982,
      "usetts": 7983,
      "Ref": 7984,
      "TP": 7985,
      "ĠMult": 7986,
      "Ġsitting": 7987,
      "Ġoldest": 7988,
      "Ġcommitment": 7989,
      "Ġtables": 7990,
      "Ġgast": 7991,
      "ami": 7992,
      "achusetts": 7993,
      "Ġterror": 7994,
      "ĠNote": 7995,
      "ioxid": 7996,
      "Ġsurge": 7997,
      "Ġcommunications": 7998,
      "brid": 7999,
      "ega": 8000,
      "lines": 8001,
      "ĠRoad": 8002,
      "uther": 8003,
      "ercury": 8004,
      "sylv": 8005,
      "Ġincident": 8006,
      "Ġcomprom": 8007,
      "plete": 8008,
      "Ġprotective": 8009,
      "Ġlaser": 8010,
      "iva": 8011,
      "ailable": 8012,
      "Ġsubt": 8013,
      "hea": 8014,
      "aren": 8015,
      "Ġchemistry": 8016,
      "Ġinnovative": 8017,
      "rix": 8018,
      "Ġcharacteristic": 8019,
      "Ġstrain": 8020,
      "ĠProtection": 8021,
      "Ġvan": 8022,
      "Ġran": 8023,
      "Ġforming": 8024,
      "Col": 8025,
      "ĠSS": 8026,
      "ecess": 8027,
      "ersonal": 8028,
      "ĠCard": 8029,
      "ĠIV": 8030,
      "ĠHand": 8031,
      "ĠLiter": 8032,
      "allow": 8033,
      "Ġmeals": 8034,
      "Ġphosph": 8035,
      "ĠFind": 8036,
      "ĠGr": 8037,
      "Ġachievement": 8038,
      "Ġfest": 8039,
      "Ġillegal": 8040,
      "Ġcontribution": 8041,
      "Ġtemporary": 8042,
      "azon": 8043,
      "Ġparameters": 8044,
      "Ġheads": 8045,
      "Ġupdated": 8046,
      "Ġaddressed": 8047,
      "arents": 8048,
      "Ġtor": 8049,
      "Ġrational": 8050,
      "Ġmembrane": 8051,
      "Ġprey": 8052,
      "Ġargued": 8053,
      "Ġliterary": 8054,
      "itual": 8055,
      "Ġinsight": 8056,
      "ĠJul": 8057,
      "eping": 8058,
      "Ġexperiencing": 8059,
      "ĠCurrent": 8060,
      "Ġresid": 8061,
      "Last": 8062,
      "olesc": 8063,
      "ĠMah": 8064,
      "Ġofficer": 8065,
      "ĠLight": 8066,
      "Ġathlet": 8067,
      "HA": 8068,
      "ĠPrevention": 8069,
      "ĠSafety": 8070,
      "eut": 8071,
      "Pub": 8072,
      "aus": 8073,
      "ĠLo": 8074,
      "apor": 8075,
      "Ġrhyth": 8076,
      "real": 8077,
      "eries": 8078,
      "ĠTO": 8079,
      "ĠImp": 8080,
      "ĠPen": 8081,
      "ĠModel": 8082,
      "Ġemerging": 8083,
      "ĠConservation": 8084,
      "opes": 8085,
      "ĠWindows": 8086,
      "Ġpropag": 8087,
      "Ġauthent": 8088,
      "Ġresearcher": 8089,
      "Co": 8090,
      "amples": 8091,
      "Ġoccurring": 8092,
      "uro": 8093,
      "Ġbeans": 8094,
      "apes": 8095,
      "Ġcalling": 8096,
      "Also": 8097,
      "Ġmur": 8098,
      "ĠPur": 8099,
      "izabeth": 8100,
      "ĠLearn": 8101,
      "cyclopedia": 8102,
      "oric": 8103,
      "ĠBusiness": 8104,
      "Ġcancers": 8105,
      "ĠStart": 8106,
      "Ġsimultane": 8107,
      "Ġtempor": 8108,
      "Ġanalyze": 8109,
      "Ġfellow": 8110,
      "asts": 8111,
      "Ġepis": 8112,
      "ĠCambridge": 8113,
      "Ġdimens": 8114,
      "Ġsensors": 8115,
      "Ġpsychology": 8116,
      "ĠColorado": 8117,
      "Ġ)": 8118,
      "urches": 8119,
      "Ġalive": 8120,
      "istant": 8121,
      "ruit": 8122,
      "zer": 8123,
      "ĠUt": 8124,
      "Ġaccord": 8125,
      "Ġmyst": 8126,
      "Ġquantum": 8127,
      "Ġplanets": 8128,
      "Ġpursu": 8129,
      "EE": 8130,
      "gon": 8131,
      "Ġflying": 8132,
      "Ġvertical": 8133,
      "Ġsustainability": 8134,
      "Ġhunting": 8135,
      "Ġmanaging": 8136,
      "Ġseat": 8137,
      "Ġkilling": 8138,
      "uting": 8139,
      "Ġethical": 8140,
      "Ġordinary": 8141,
      "Ġsched": 8142,
      "archy": 8143,
      "Ġdescript": 8144,
      "Ġmusical": 8145,
      "Ġbacterial": 8146,
      "Ġmothers": 8147,
      "ĠMuslims": 8148,
      "ourse": 8149,
      "Ġweakness": 8150,
      "bec": 8151,
      "ett": 8152,
      "Ġappeal": 8153,
      "amil": 8154,
      "Ġreasonable": 8155,
      "Ġsteam": 8156,
      "Ġalph": 8157,
      "ĠGar": 8158,
      "Ġconsumed": 8159,
      "Ġgirl": 8160,
      "Ġperception": 8161,
      "09": 8162,
      "quir": 8163,
      "Ġextension": 8164,
      "Ġceremon": 8165,
      "Ġmovie": 8166,
      "Ġpromoting": 8167,
      "Ġbelieves": 8168,
      "Under": 8169,
      "Ġcow": 8170,
      "Ġfing": 8171,
      "Ġnice": 8172,
      "ptom": 8173,
      "sylvania": 8174,
      "Hist": 8175,
      "Ġinitiative": 8176,
      "atial": 8177,
      "ĠSund": 8178,
      "Ġpermission": 8179,
      "Ġevening": 8180,
      "Ġexpanded": 8181,
      "otype": 8182,
      "Ġsummary": 8183,
      "ildren": 8184,
      "Ġresil": 8185,
      "Ġprogramme": 8186,
      "Ġadvent": 8187,
      "ivest": 8188,
      "ĠColl": 8189,
      "Ġimprovements": 8190,
      "Ġtribes": 8191
    },
    "merges": [
      [
        "Ġ",
        "t"
      ],
      [
        "Ġ",
        "a"
      ],
      [
        "h",
        "e"
      ],
      [
        "i",
        "n"
      ],
      [
        "r",
        "e"
      ],
      [
        "Ġt",
        "he"
      ],
      [
        "o",
        "n"
      ],
      [
        "e",
        "r"
      ],
      [
        "Ġ",
        "o"
      ],
      [
        "a",
        "t"
      ],
      [
        "Ġ",
        "s"
      ],
      [
        "e",
        "n"
      ],
      [
        "Ġ",
        "c"
      ],
      [
        "e",
        "s"
      ],
      [
        "Ġ",
        "w"
      ],
      [
        "i",
        "s"
      ],
      [
        "n",
        "d"
      ],
      [
        "i",
        "t"
      ],
      [
        "o",
        "r"
      ],
      [
        "Ġ",
        "p"
      ],
      [
        "a",
        "l"
      ],
      [
        "e",
        "d"
      ],
      [
        "Ġ",
        "b"
      ],
      [
        "Ġo",
        "f"
      ],
      [
        "a",
        "n"
      ],
      [
        "Ġ",
        "f"
      ],
      [
        "in",
        "g"
      ],
      [
        "Ġ",
        "in"
      ],
      [
        "a",
        "r"
      ],
      [
        "o",
        "u"
      ],
      [
        "Ġ",
        "m"
      ],
      [
        "Ġa",
        "nd"
      ],
      [
        "Ġt",
        "o"
      ],
      [
        "i",
        "c"
      ],
      [
        "i",
        "on"
      ],
      [
        "Ġ",
        "d"
      ],
      [
        "l",
        "e"
      ],
      [
        "r",
        "o"
      ],
      [
        "a",
        "s"
      ],
      [
        "Ġ",
        "h"
      ],
      [
        "en",
        "t"
      ],
      [
        "Ġt",
        "h"
      ],
      [
        "c",
        "t"
      ],
      [
        "Ġ",
        "e"
      ],
      [
        "i",
        "l"
      ],
      [
        "Ġ",
        "re"
      ],
      [
        "o",
        "m"
      ],
      [
        "v",
        "e"
      ],
      [
        "Ġ",
        "l"
      ],
      [
        "s",
        "t"
      ],
      [
        "Ġ",
        "n"
      ],
      [
        "l",
        "y"
      ],
      [
        "Ġb",
        "e"
      ],
      [
        "Ġ",
        "is"
      ],
      [
        "â",
        "Ģ"
      ],
      [
        "Ġ",
        "T"
      ],
      [
        "s",
        "e"
      ],
      [
        "o",
        "l"
      ],
      [
        "Ġ",
        "g"
      ],
      [
        "at",
        "ion"
      ],
      [
        "i",
        "m"
      ],
      [
        "i",
        "d"
      ],
      [
        "e",
        "t"
      ],
      [
        "c",
        "e"
      ],
      [
        "u",
        "t"
      ],
      [
        "o",
        "t"
      ],
      [
        "u",
        "r"
      ],
      [
        "r",
        "a"
      ],
      [
        "c",
        "h"
      ],
      [
        "o",
        "w"
      ],
      [
        "Ġ",
        "A"
      ],
      [
        "i",
        "g"
      ],
      [
        "Ġf",
        "or"
      ],
      [
        "Ġth",
        "at"
      ],
      [
        "Ġ",
        "u"
      ],
      [
        "Ġ",
        "S"
      ],
      [
        "Ġ",
        "on"
      ],
      [
        "Ġs",
        "t"
      ],
      [
        "v",
        "er"
      ],
      [
        "i",
        "r"
      ],
      [
        "Ġ",
        "C"
      ],
      [
        "Ġ",
        "y"
      ],
      [
        "Ġ",
        "I"
      ],
      [
        "u",
        "l"
      ],
      [
        "a",
        "y"
      ],
      [
        "a",
        "m"
      ],
      [
        "Ġa",
        "s"
      ],
      [
        "it",
        "h"
      ],
      [
        "e",
        "l"
      ],
      [
        "a",
        "d"
      ],
      [
        "Ġp",
        "ro"
      ],
      [
        "he",
        "r"
      ],
      [
        "Ġc",
        "on"
      ],
      [
        "Ġa",
        "re"
      ],
      [
        "Ġa",
        "n"
      ],
      [
        "Ġw",
        "ith"
      ],
      [
        "i",
        "f"
      ],
      [
        "Ġw",
        "h"
      ],
      [
        "Ġ",
        "it"
      ],
      [
        "Ġo",
        "r"
      ],
      [
        "Ġa",
        "l"
      ],
      [
        "Ġy",
        "ou"
      ],
      [
        "t",
        "er"
      ],
      [
        "o",
        "d"
      ],
      [
        "Ġ",
        "M"
      ],
      [
        "Ġ",
        "("
      ],
      [
        "ĠT",
        "he"
      ],
      [
        "m",
        "ent"
      ],
      [
        "g",
        "e"
      ],
      [
        "Ġ",
        "1"
      ],
      [
        "Ġ",
        "P"
      ],
      [
        "t",
        "h"
      ],
      [
        "o",
        "p"
      ],
      [
        "at",
        "e"
      ],
      [
        "er",
        "s"
      ],
      [
        "is",
        "t"
      ],
      [
        "Ġd",
        "e"
      ],
      [
        "es",
        "s"
      ],
      [
        "i",
        "es"
      ],
      [
        "a",
        "b"
      ],
      [
        "il",
        "l"
      ],
      [
        "Ġ",
        "he"
      ],
      [
        "Ġe",
        "x"
      ],
      [
        "Ġ",
        "B"
      ],
      [
        "Ġs",
        "u"
      ],
      [
        "e",
        "ct"
      ],
      [
        "Ġc",
        "om"
      ],
      [
        "o",
        "re"
      ],
      [
        "Ġw",
        "e"
      ],
      [
        "u",
        "s"
      ],
      [
        "it",
        "y"
      ],
      [
        "es",
        "t"
      ],
      [
        "âĢ",
        "Ļ"
      ],
      [
        "re",
        "s"
      ],
      [
        "a",
        "c"
      ],
      [
        "i",
        "ve"
      ],
      [
        "Ġh",
        "a"
      ],
      [
        "Ġ",
        "H"
      ],
      [
        "u",
        "m"
      ],
      [
        "ro",
        "m"
      ],
      [
        "l",
        "d"
      ],
      [
        "Ġ",
        "v"
      ],
      [
        "o",
        "s"
      ],
      [
        "Ġb",
        "y"
      ],
      [
        "k",
        "e"
      ],
      [
        "q",
        "u"
      ],
      [
        "an",
        "t"
      ],
      [
        "e",
        "m"
      ],
      [
        "i",
        "v"
      ],
      [
        "a",
        "in"
      ],
      [
        "n",
        "t"
      ],
      [
        "Ġ",
        "W"
      ],
      [
        "Ġa",
        "t"
      ],
      [
        "p",
        "p"
      ],
      [
        "ig",
        "h"
      ],
      [
        "Ġw",
        "as"
      ],
      [
        "Ġ",
        "D"
      ],
      [
        "u",
        "d"
      ],
      [
        "Ġc",
        "an"
      ],
      [
        "Ġf",
        "rom"
      ],
      [
        "Ġ",
        "E"
      ],
      [
        "a",
        "nd"
      ],
      [
        "or",
        "t"
      ],
      [
        "o",
        "c"
      ],
      [
        "Ġ",
        "r"
      ],
      [
        "Ġc",
        "h"
      ],
      [
        "Ġ",
        "R"
      ],
      [
        "Ġn",
        "e"
      ],
      [
        "Ġ",
        "F"
      ],
      [
        "i",
        "al"
      ],
      [
        "Ġs",
        "e"
      ],
      [
        "Ġ",
        "2"
      ],
      [
        "u",
        "re"
      ],
      [
        "u",
        "n"
      ],
      [
        "Ġn",
        "ot"
      ],
      [
        "Ġ",
        "le"
      ],
      [
        "ic",
        "al"
      ],
      [
        "Ġ",
        "N"
      ],
      [
        "ar",
        "t"
      ],
      [
        "Ġ",
        "G"
      ],
      [
        "Ġ",
        "âĢ"
      ],
      [
        "Ġha",
        "ve"
      ],
      [
        "r",
        "i"
      ],
      [
        "Ġ",
        "L"
      ],
      [
        "Ġs",
        "h"
      ],
      [
        "o",
        "g"
      ],
      [
        "Ġ",
        "en"
      ],
      [
        "Ġs",
        "p"
      ],
      [
        "Ġth",
        "is"
      ],
      [
        "igh",
        "t"
      ],
      [
        "p",
        "t"
      ],
      [
        "al",
        "l"
      ],
      [
        "re",
        "d"
      ],
      [
        "ic",
        "h"
      ],
      [
        "Ġa",
        "b"
      ],
      [
        "r",
        "ou"
      ],
      [
        "Ġw",
        "or"
      ],
      [
        "ion",
        "s"
      ],
      [
        "0",
        "0"
      ],
      [
        "ou",
        "ld"
      ],
      [
        "t",
        "her"
      ],
      [
        "o",
        "st"
      ],
      [
        "T",
        "he"
      ],
      [
        "ou",
        "r"
      ],
      [
        "g",
        "h"
      ],
      [
        "d",
        "u"
      ],
      [
        "om",
        "e"
      ],
      [
        "Ġ",
        "im"
      ],
      [
        "at",
        "ed"
      ],
      [
        "p",
        "er"
      ],
      [
        "in",
        "e"
      ],
      [
        "ar",
        "d"
      ],
      [
        "Ġp",
        "l"
      ],
      [
        "Ġu",
        "s"
      ],
      [
        "ou",
        "t"
      ],
      [
        "a",
        "g"
      ],
      [
        "f",
        "f"
      ],
      [
        "Ġthe",
        "ir"
      ],
      [
        "a",
        "ct"
      ],
      [
        "id",
        "e"
      ],
      [
        "el",
        "l"
      ],
      [
        "Ġin",
        "t"
      ],
      [
        "p",
        "l"
      ],
      [
        "Ġ",
        "O"
      ],
      [
        "an",
        "s"
      ],
      [
        "e",
        "ar"
      ],
      [
        "as",
        "t"
      ],
      [
        "a",
        "ge"
      ],
      [
        "u",
        "st"
      ],
      [
        "a",
        "k"
      ],
      [
        "Ġwh",
        "ich"
      ],
      [
        "ou",
        "s"
      ],
      [
        "Ġw",
        "he"
      ],
      [
        "e",
        "c"
      ],
      [
        "Ġ",
        "J"
      ],
      [
        "i",
        "z"
      ],
      [
        "Ġ",
        "k"
      ],
      [
        "Ġthe",
        "y"
      ],
      [
        "Ġyou",
        "r"
      ],
      [
        "Ġ",
        "U"
      ],
      [
        "Ġa",
        "d"
      ],
      [
        "Ġcon",
        "t"
      ],
      [
        "i",
        "b"
      ],
      [
        "o",
        "od"
      ],
      [
        "Ġal",
        "l"
      ],
      [
        "c",
        "c"
      ],
      [
        "ul",
        "t"
      ],
      [
        "en",
        "d"
      ],
      [
        "Ġin",
        "c"
      ],
      [
        "r",
        "u"
      ],
      [
        "ĠI",
        "n"
      ],
      [
        "Ġw",
        "ill"
      ],
      [
        "a",
        "p"
      ],
      [
        "Ġcom",
        "p"
      ],
      [
        "Ġd",
        "is"
      ],
      [
        "on",
        "g"
      ],
      [
        "Ġre",
        "s"
      ],
      [
        "Ġm",
        "ore"
      ],
      [
        "ation",
        "s"
      ],
      [
        "i",
        "a"
      ],
      [
        "e",
        "w"
      ],
      [
        "i",
        "p"
      ],
      [
        "ve",
        "l"
      ],
      [
        "Ġh",
        "as"
      ],
      [
        "âĢ",
        "Ŀ"
      ],
      [
        "or",
        "m"
      ],
      [
        "e",
        "re"
      ],
      [
        "ar",
        "y"
      ],
      [
        "s",
        "o"
      ],
      [
        "Ġd",
        "o"
      ],
      [
        "at",
        "er"
      ],
      [
        "ab",
        "le"
      ],
      [
        "ĠT",
        "h"
      ],
      [
        "a",
        "re"
      ],
      [
        "en",
        "ce"
      ],
      [
        "Ġm",
        "an"
      ],
      [
        "u",
        "al"
      ],
      [
        "Ġo",
        "ther"
      ],
      [
        "Ġc",
        "l"
      ],
      [
        "k",
        "s"
      ],
      [
        "r",
        "y"
      ],
      [
        "Ġwe",
        "re"
      ],
      [
        "il",
        "d"
      ],
      [
        "Ġb",
        "ut"
      ],
      [
        "'",
        "s"
      ],
      [
        "Ġp",
        "er"
      ],
      [
        "an",
        "ce"
      ],
      [
        "Ġim",
        "p"
      ],
      [
        "in",
        "d"
      ],
      [
        "e",
        "p"
      ],
      [
        "ent",
        "s"
      ],
      [
        "Ġm",
        "e"
      ],
      [
        "a",
        "ch"
      ],
      [
        "Ġal",
        "so"
      ],
      [
        "Ġon",
        "e"
      ],
      [
        "Ġt",
        "e"
      ],
      [
        "o",
        "se"
      ],
      [
        "ig",
        "n"
      ],
      [
        "ĠâĢ",
        "ľ"
      ],
      [
        "re",
        "at"
      ],
      [
        "a",
        "ke"
      ],
      [
        "as",
        "s"
      ],
      [
        "res",
        "s"
      ],
      [
        "a",
        "v"
      ],
      [
        "Ġ1",
        "9"
      ],
      [
        "as",
        "e"
      ],
      [
        "a",
        "u"
      ],
      [
        "ct",
        "ion"
      ],
      [
        "it",
        "ion"
      ],
      [
        "Ġ",
        "j"
      ],
      [
        "Ġs",
        "o"
      ],
      [
        "Ġu",
        "n"
      ],
      [
        "ic",
        "e"
      ],
      [
        "b",
        "er"
      ],
      [
        "Ġa",
        "r"
      ],
      [
        "Ġo",
        "ut"
      ],
      [
        "Ġa",
        "pp"
      ],
      [
        "im",
        "e"
      ],
      [
        "Ġp",
        "art"
      ],
      [
        "on",
        "e"
      ],
      [
        "ou",
        "nt"
      ],
      [
        "ver",
        "y"
      ],
      [
        "a",
        "ce"
      ],
      [
        "Ġst",
        "ud"
      ],
      [
        "is",
        "h"
      ],
      [
        "Ġe",
        "v"
      ],
      [
        "or",
        "y"
      ],
      [
        "or",
        "d"
      ],
      [
        "Ġab",
        "out"
      ],
      [
        "en",
        "s"
      ],
      [
        "i",
        "re"
      ],
      [
        "o",
        "k"
      ],
      [
        "ac",
        "k"
      ],
      [
        "Ġin",
        "f"
      ],
      [
        "ĠS",
        "t"
      ],
      [
        "Ġwh",
        "o"
      ],
      [
        "am",
        "e"
      ],
      [
        "Ġp",
        "e"
      ],
      [
        "Ġcom",
        "m"
      ],
      [
        ")",
        "."
      ],
      [
        "Ġh",
        "is"
      ],
      [
        "or",
        "s"
      ],
      [
        "u",
        "b"
      ],
      [
        "it",
        "e"
      ],
      [
        "c",
        "es"
      ],
      [
        "Ġthe",
        "m"
      ],
      [
        "Ġs",
        "c"
      ],
      [
        "an",
        "g"
      ],
      [
        "Ġ",
        "\""
      ],
      [
        "Ġs",
        "y"
      ],
      [
        "u",
        "e"
      ],
      [
        "re",
        "e"
      ],
      [
        "Ġ",
        "K"
      ],
      [
        "i",
        "ke"
      ],
      [
        "ou",
        "nd"
      ],
      [
        "l",
        "ow"
      ],
      [
        "Ġp",
        "re"
      ],
      [
        "ol",
        "og"
      ],
      [
        "n",
        "ow"
      ],
      [
        "ĠI",
        "t"
      ],
      [
        "Ġu",
        "p"
      ],
      [
        "Ġbe",
        "c"
      ],
      [
        "r",
        "ic"
      ],
      [
        "Ġ",
        "qu"
      ],
      [
        "Ġm",
        "ay"
      ],
      [
        "Ġth",
        "an"
      ],
      [
        "i",
        "e"
      ],
      [
        "i",
        "le"
      ],
      [
        "if",
        "f"
      ],
      [
        "ay",
        "s"
      ],
      [
        "Ġy",
        "ear"
      ],
      [
        "ĠC",
        "h"
      ],
      [
        "a",
        "il"
      ],
      [
        "op",
        "le"
      ],
      [
        "Ġre",
        "c"
      ],
      [
        "Ġs",
        "ome"
      ],
      [
        "Ġbe",
        "en"
      ],
      [
        "nd",
        "er"
      ],
      [
        "at",
        "es"
      ],
      [
        "Ġit",
        "s"
      ],
      [
        "Ġwhe",
        "n"
      ],
      [
        "Ġthe",
        "re"
      ],
      [
        "i",
        "an"
      ],
      [
        "Ġg",
        "o"
      ],
      [
        "m",
        "er"
      ],
      [
        "ing",
        "s"
      ],
      [
        "Ġint",
        "o"
      ],
      [
        "Ġa",
        "g"
      ],
      [
        "r",
        "it"
      ],
      [
        "Ġt",
        "ra"
      ],
      [
        "ver",
        "s"
      ],
      [
        "Ġ2",
        "0"
      ],
      [
        "er",
        "v"
      ],
      [
        "ou",
        "gh"
      ],
      [
        "Ġt",
        "ime"
      ],
      [
        "ĠTh",
        "is"
      ],
      [
        "Ġwor",
        "k"
      ],
      [
        "Ġo",
        "ver"
      ],
      [
        "p",
        "h"
      ],
      [
        "Ġthe",
        "se"
      ],
      [
        "on",
        "s"
      ],
      [
        "re",
        "n"
      ],
      [
        "t",
        "e"
      ],
      [
        "Ġd",
        "iff"
      ],
      [
        "Ġh",
        "ad"
      ],
      [
        "Ġh",
        "ow"
      ],
      [
        "Ġpe",
        "ople"
      ],
      [
        "rou",
        "gh"
      ],
      [
        "Ġ",
        "ro"
      ],
      [
        "Ġ",
        "V"
      ],
      [
        "Ġcon",
        "s"
      ],
      [
        "al",
        "ly"
      ],
      [
        "l",
        "ud"
      ],
      [
        "au",
        "se"
      ],
      [
        "Ġt",
        "r"
      ],
      [
        "if",
        "ic"
      ],
      [
        "on",
        "d"
      ],
      [
        "m",
        "s"
      ],
      [
        "Ġ",
        "ra"
      ],
      [
        "ter",
        "n"
      ],
      [
        "Ġ",
        "3"
      ],
      [
        "l",
        "l"
      ],
      [
        "o",
        "ve"
      ],
      [
        "Ġc",
        "ol"
      ],
      [
        "Ġbe",
        "t"
      ],
      [
        "w",
        "e"
      ],
      [
        "Ġu",
        "se"
      ],
      [
        "Ġs",
        "a"
      ],
      [
        "Ġa",
        "ct"
      ],
      [
        "it",
        "ies"
      ],
      [
        "l",
        "ic"
      ],
      [
        "in",
        "t"
      ],
      [
        "Ġm",
        "ost"
      ],
      [
        "Ġu",
        "nder"
      ],
      [
        "ir",
        "st"
      ],
      [
        "Ġa",
        "cc"
      ],
      [
        "Ġo",
        "ur"
      ],
      [
        "ment",
        "s"
      ],
      [
        "al",
        "th"
      ],
      [
        "y",
        "s"
      ],
      [
        "Ġl",
        "ike"
      ],
      [
        "Ġb",
        "l"
      ],
      [
        "Ġd",
        "es"
      ],
      [
        "ro",
        "w"
      ],
      [
        "Ġk",
        "now"
      ],
      [
        "i",
        "ous"
      ],
      [
        "le",
        "ct"
      ],
      [
        "o",
        "ok"
      ],
      [
        "j",
        "ect"
      ],
      [
        "Ġw",
        "ould"
      ],
      [
        "ff",
        "ect"
      ],
      [
        "l",
        "es"
      ],
      [
        "Ġne",
        "w"
      ],
      [
        "n",
        "ing"
      ],
      [
        "Ġt",
        "w"
      ],
      [
        "vel",
        "op"
      ],
      [
        "Ġsu",
        "ch"
      ],
      [
        "Ġ",
        "Y"
      ],
      [
        "Ġre",
        "p"
      ],
      [
        "Ġre",
        "l"
      ],
      [
        "Ġne",
        "ed"
      ],
      [
        "st",
        "em"
      ],
      [
        "Ġ",
        "if"
      ],
      [
        "i",
        "ent"
      ],
      [
        "Ġg",
        "en"
      ],
      [
        "c",
        "ess"
      ],
      [
        "ation",
        "al"
      ],
      [
        "Ġinc",
        "lud"
      ],
      [
        "he",
        "d"
      ],
      [
        "Ġan",
        "y"
      ],
      [
        "Ġhe",
        "l"
      ],
      [
        "at",
        "ive"
      ],
      [
        "o",
        "b"
      ],
      [
        "Ġp",
        "r"
      ],
      [
        "c",
        "ed"
      ],
      [
        "p",
        "le"
      ],
      [
        "Ġpro",
        "v"
      ],
      [
        "ul",
        "ar"
      ],
      [
        "Ġpro",
        "du"
      ],
      [
        "Ġhel",
        "p"
      ],
      [
        "y",
        "p"
      ],
      [
        "Ġon",
        "ly"
      ],
      [
        "at",
        "ing"
      ],
      [
        "o",
        "v"
      ],
      [
        "Ġch",
        "ild"
      ],
      [
        "Ġp",
        "h"
      ],
      [
        "Ġwh",
        "at"
      ],
      [
        "Ġof",
        "f"
      ],
      [
        "Ġus",
        "ed"
      ],
      [
        "o",
        "ol"
      ],
      [
        "Ġin",
        "d"
      ],
      [
        ")",
        ","
      ],
      [
        "Ġa",
        "m"
      ],
      [
        "Ġn",
        "o"
      ],
      [
        "Ġf",
        "irst"
      ],
      [
        "Ġman",
        "y"
      ],
      [
        "Ġsp",
        "ec"
      ],
      [
        "Ġde",
        "velop"
      ],
      [
        "ĠU",
        "n"
      ],
      [
        "Ġth",
        "rough"
      ],
      [
        "at",
        "h"
      ],
      [
        "Ġre",
        "g"
      ],
      [
        "Ġa",
        "c"
      ],
      [
        "f",
        "ter"
      ],
      [
        "Ġf",
        "e"
      ],
      [
        "ur",
        "ing"
      ],
      [
        "Ġe",
        "m"
      ],
      [
        "ar",
        "k"
      ],
      [
        "is",
        "e"
      ],
      [
        "er",
        "m"
      ],
      [
        "Ġex",
        "p"
      ],
      [
        "rou",
        "nd"
      ],
      [
        "os",
        "s"
      ],
      [
        "ic",
        "s"
      ],
      [
        "Ġp",
        "o"
      ],
      [
        "i",
        "et"
      ],
      [
        "t",
        "s"
      ],
      [
        "Ġtw",
        "o"
      ],
      [
        "u",
        "c"
      ],
      [
        "ri",
        "b"
      ],
      [
        "he",
        "n"
      ],
      [
        "f",
        "ul"
      ],
      [
        "Ġdiff",
        "ere"
      ],
      [
        "is",
        "s"
      ],
      [
        "in",
        "k"
      ],
      [
        "Ġsy",
        "stem"
      ],
      [
        "Ġo",
        "b"
      ],
      [
        "il",
        "ity"
      ],
      [
        "ro",
        "p"
      ],
      [
        "i",
        "ed"
      ],
      [
        "ot",
        "h"
      ],
      [
        "al",
        "s"
      ],
      [
        "n",
        "e"
      ],
      [
        "Ġde",
        "c"
      ],
      [
        "ol",
        "d"
      ],
      [
        "Ġad",
        "d"
      ],
      [
        "Ġas",
        "s"
      ],
      [
        "t",
        "en"
      ],
      [
        "ib",
        "le"
      ],
      [
        "as",
        "ed"
      ],
      [
        "Ġs",
        "ur"
      ],
      [
        "et",
        "h"
      ],
      [
        "Ġsh",
        "ould"
      ],
      [
        "ar",
        "ch"
      ],
      [
        "an",
        "ge"
      ],
      [
        "Ġat",
        "t"
      ],
      [
        "u",
        "res"
      ],
      [
        "ow",
        "er"
      ],
      [
        "Ġ",
        "-"
      ],
      [
        "Ġsu",
        "pp"
[...]
