{
  "version": "1.0",
  "truncation": null,
  "padding": null,
  "added_tokens": [
    {
      "id": 0,
      "content": "<unk>",
      "single_word": false,
      "lstrip": false,
      "rstrip": false,
      "normalized": false,
      "special": true
    }
  ],
  "normalizer": null,
  "pre_tokenizer": {
    "type": "ByteLevel",
    "add_prefix_space": false,
    "trim_offsets": true,
    "use_regex": true
  },
  "post_processor": null,
  "decoder": {
    "type": "ByteLevel",
    "add_prefix_space": true,
    "trim_offsets": true,
    "use_regex": true
  },
  "model": {
    "type": "BPE",
    "dropout": null,
    "unk_token": "<unk>",
    "continuing_subword_prefix": null,
    "end_of_word_suffix": null,
    "fuse_unk": false,
    "byte_fallback": false,
    "ignore_merges": false,
    "vocab": {
      "<unk>": 0,
      "!": 1,
      "\"": 2,
      "#": 3,
      "$": 4,
      "%": 5,
      "&": 6,
      "'": 7,
      "(": 8,
      ")": 9,
      "*": 10,
      "+": 11,
      ",": 12,
      "-": 13,
      ".": 14,
      "/": 15,
      "0": 16,
      "1": 17,
      "2": 18,
      "3": 19,
      "4": 20,
      "5": 21,
      "6": 22,
      "7": 23,
      "8": 24,
      "9": 25,
      ":": 26,
      ";": 27,
      "<": 28,
      "=": 29,
      ">": 30,
      "?": 31,
      "@": 32,
      "A": 33,
      "B": 34,
      "C": 35,
      "D": 36,
      "E": 37,
      "F": 38,
      "G": 39,
      "H": 40,
      "I": 41,
      "J": 42,
      "K": 43,
      "L": 44,
      "M": 45,
      "N": 46,
      "O": 47,
      "P": 48,
      "Q": 49,
      "R": 50,
      "S": 51,
      "T": 52,
      "U": 53,
      "V": 54,
      "W": 55,
      "X": 56,
      "Y": 57,
      "Z": 58,
      "[": 59,
      "\\": 60,
      "]": 61,
      "^": 62,
      "_": 63,
      "`": 64,
      "a": 65,
      "b": 66,
      "c": 67,
      "d": 68,
      "e": 69,
      "f": 70,
      "g": 71,
      "h": 72,
      "i": 73,
      "j": 74,
      "k": 75,
      "l": 76,
      "m": 77,
      "n": 78,
      "o": 79,
      "p": 80,
      "q": 81,
      "r": 82,
      "s": 83,
      "t": 84,
      "u": 85,
      "v": 86,
      "w": 87,
      "x": 88,
      "y": 89,
      "z": 90,
      "{": 91,
      "|": 92,
      "}": 93,
      "~": 94,
      "¡": 95,
      "¢": 96,
      "£": 97,
      "¤": 98,
      "¥": 99,
      "¦": 100,
      "§": 101,
      "¨": 102,
      "©": 103,
      "ª": 104,
      "«": 105,
      "¬": 106,
      "®": 107,
      "¯": 108,
      "°": 109,
      "±": 110,
      "²": 111,
      "³": 112,
      "´": 113,
      "µ": 114,
      "¶": 115,
      "·": 116,
      "¸": 117,
      "¹": 118,
      "º": 119,
      "»": 120,
      "¼": 121,
      "½": 122,
      "¾": 123,
      "¿": 124,
      "À": 125,
      "Á": 126,
      "Â": 127,
      "Ã": 128,
      "Ä": 129,
      "Å": 130,
      "Æ": 131,
      "Ç": 132,
      "È": 133,
      "É": 134,
      "Ê": 135,
      "Ë": 136,
      "Ì": 137,
      "Í": 138,
      "Î": 139,
      "Ï": 140,
      "Ð": 141,
      "Ñ": 142,
      "Ò": 143,
      "Ó": 144,
      "Ô": 145,
      "Õ": 146,
      "Ö": 147,
      "×": 148,
      "Ø": 149,
      "Ù": 150,
      "Ú": 151,
      "Û": 152,
      "Ü": 153,
      "Ý": 154,
      "Þ": 155,
      "ß": 156,
      "à": 157,
      "á": 158,
      "â": 159,
      "ã": 160,
      "ä": 161,
      "å": 162,
      "æ": 163,
      "ç": 164,
      "è": 165,
      "é": 166,
      "ê": 167,
      "ë": 168,
      "ì": 169,
      "í": 170,
      "î": 171,
      "ï": 172,
      "ð": 173,
      "ñ": 174,
      "ò": 175,
      "ó": 176,
      "ô": 177,
      "õ": 178,
      "ö": 179,
      "÷": 180,
      "ø": 181,
      "ù": 182,
      "ú": 183,
      "û": 184,
      "ü": 185,
      "ý": 186,
      "þ": 187,
      "ÿ": 188,
      "Ā": 189,
      "ā": 190,
      "Ă": 191,
      "ă": 192,
      "Ą": 193,
      "ą": 194,
      "Ć": 195,
      "ć": 196,
      "Ĉ": 197,
      "ĉ": 198,
      "Ċ": 199,
      "ċ": 200,
      "Č": 201,
      "č": 202,
      "Ď": 203,
      "ď": 204,
      "Đ": 205,
      "đ": 206,
      "Ē": 207,
      "ē": 208,
      "Ĕ": 209,
      "ĕ": 210,
      "Ė": 211,
      "ė": 212,
      "Ę": 213,
      "ę": 214,
      "Ě": 215,
      "ě": 216,
      "Ĝ": 217,
      "ĝ": 218,
      "Ğ": 219,
      "ğ": 220,
      "Ġ": 221,
      "ġ": 222,
      "Ģ": 223,
      "ģ": 224,
      "Ĥ": 225,
      "ĥ": 226,
      "Ħ": 227,
      "ħ": 228,
      "Ĩ": 229,
      "ĩ": 230,
      "Ī": 231,
      "ī": 232,
      "Ĭ": 233,
      "ĭ": 234,
      "Į": 235,
      "į": 236,
      "İ": 237,
      "ı": 238,
      "Ĳ": 239,
      "ĳ": 240,
      "Ĵ": 241,
      "ĵ": 242,
      "Ķ": 243,
      "ķ": 244,
      "ĸ": 245,
      "Ĺ": 246,
      "ĺ": 247,
      "Ļ": 248,
      "ļ": 249,
      "Ľ": 250,
      "ľ": 251,
      "Ŀ": 252,
      "ŀ": 253,
      "Ł": 254,
      "ł": 255,
      "Ń": 256,
      "Ġt": 257,
      "Ġa": 258,
      "he": 259,
      "in": 260,
      "re": 261,
      "on": 262,
      "Ġthe": 263,
      "er": 264,
      "ä¸": 265,
      "at": 266,
      "Ġo": 267,
      "Ġs": 268,
      "en": 269,
      "Ġc": 270,
      "es": 271,
      "is": 272,
      "Ġw": 273,
      "nd": 274,
      "it": 275,
      "or": 276,
      "al": 277,
      "Ġp": 278,
      "Ġf": 279,
      "çļ": 280,
      "Ġof": 281,
      "çļĦ": 282,
      "Ġb": 283,
      "an": 284,
      "ãĢ": 285,
      "ed": 286,
      "ing": 287,
      "ï¼": 288,
      "Ġin": 289,
      "ar": 290,
      "ou": 291,
      "ion": 292,
      "Ġm": 293,
      "Ġand": 294,
      "ic": 295,
      "Ġto": 296,
      "Ġd": 297,
      "äº": 298,
      "le": 299,
      "ro": 300,
      "åı": 301,
      "ï¼Į": 302,
      "as": 303,
      "åħ": 304,
      "æľ": 305,
      "ent": 306,
      "Ġth": 307,
      "Ġh": 308,
      "ct": 309,
      "ä»": 310,
      "Ġe": 311,
      "åĪ": 312,
      "ãĢģ": 313,
      "çĶ": 314,
      "Ġ\\": 315,
      "âĢ": 316,
      "å®": 317,
      "Ġre": 318,
      "ve": 319,
      "il": 320,
      "om": 321,
      "Ġn": 322,
      "st": 323,
      "Ġl": 324,
      "ä½": 325,
      "Ġis": 326,
      "å¤": 327,
      "åĲ": 328,
      "et": 329,
      "ç»": 330,
      "ra": 331,
      "åĬ": 332,
      "ĠT": 333,
      "ly": 334,
      "è¿": 335,
      "ation": 336,
      "im": 337,
      "ol": 338,
      "è¯": 339,
      "åľ": 340,
      "ãĢĤ": 341,
      "Ġg": 342,
      "åŃ": 343,
      "se": 344,
      "Ġbe": 345,
      "id": 346,
      "æĸ": 347,
      "ot": 348,
      "ce": 349,
      "ut": 350,
      "æĺ": 351,
      "ĠA": 352,
      "ow": 353,
      "ig": 354,
      "Ġfor": 355,
      "ĠS": 356,
      "åĽ": 357,
      "è®": 358,
      "ch": 359,
      "ur": 360,
      "æĪ": 361,
      "Ġu": 362,
      "ĠC": 363,
      "Ġ1": 364,
      "Ġon": 365,
      "ä¹": 366,
      "Ġthat": 367,
      "ul": 368,
      "ĠI": 369,
      "ver": 370,
      "Ġst": 371,
      "Ġy": 372,
      "æķ": 373,
      "åº": 374,
      "ir": 375,
      "å¹": 376,
      "ĠĠ": 377,
      "am": 378,
      "ä¸Ģ": 379,
      "æĹ": 380,
      "Ġ(": 381,
      "å°": 382,
      "è¡": 383,
      "éĩ": 384,
      "åį": 385,
      "ith": 386,
      "ay": 387,
      "ä¼": 388,
      "åĴ": 389,
      "Ġas": 390,
      "el": 391,
      "Ġpro": 392,
      "Ġan": 393,
      "Ġare": 394,
      "ad": 395,
      "åĴĮ": 396,
      "æĿ": 397,
      "Ġcon": 398,
      "æĺ¯": 399,
      "if": 400,
      "åĮ": 401,
      "åĨ": 402,
      "åŃ¦": 403,
      "her": 404,
      "um": 405,
      "Ġwith": 406,
      "ĠP": 407,
      "å¼": 408,
      "ä¸Ń": 409,
      "æľī": 410,
      "å¯": 411,
      "æĢ": 412,
      "ĠM": 413,
      "åľ¨": 414,
      "Ġ2": 415,
      "éĢ": 416,
      "æł": 417,
      "ĠThe": 418,
      "Ġit": 419,
      "èĢ": 420,
      "Ġyou": 421,
      "ter": 422,
      "Ġwh": 423,
      "Ġal": 424,
      "Ġor": 425,
      "ge": 426,
      "è§": 427,
      "äºº": 428,
      "od": 429,
      "å·": 430,
      "åĩ": 431,
      "çĽ": 432,
      "qu": 433,
      "æ°": 434,
      "æī": 435,
      "çĶŁ": 436,
      "ç§": 437,
      "æ³": 438,
      "ate": 439,
      "ä¸º": 440,
      "è´": 441,
      "çĶ¨": 442,
      "th": 443,
      "å¸": 444,
      "ers": 445,
      "æĬ": 446,
      "00": 447,
      "**": 448,
      "ist": 449,
      "ĠB": 450,
      "Ġex": 451,
      "ab": 452,
      "Ġde": 453,
      "çī": 454,
      "ment": 455,
      "ri": 456,
      "èĥ": 457,
      "us": 458,
      "ä¸į": 459,
      "op": 460,
      "res": 461,
      "ess": 462,
      "ect": 463,
      "ill": 464,
      "est": 465,
      "Ġv": 466,
      "ity": 467,
      "å¾": 468,
      "Ġwe": 469,
      "Ġcom": 470,
      "Ġhe": 471,
      "æĶ": 472,
      "os": 473,
      "ore": 474,
      "Ġby": 475,
      "éĻ": 476,
      "Ġ\\(": 477,
      "çİ": 478,
      "ive": 479,
      "å±": 480,
      "ä»¥": 481,
      "ĠD": 482,
      "ies": 483,
      "ĠE": 484,
      "ĠH": 485,
      "ĠF": 486,
      "Ġsu": 487,
      "iv": 488,
      "igh": 489,
      "çĲ": 490,
      "¦ģ": 491,
      "rom": 492,
      "ac": 493,
      "æŀ": 494,
      "å½": 495,
      "ĠW": 496,
      "Ġha": 497,
      "nt": 498,
      "pp": 499,
      "çŃ": 500,
      "çº": 501,
      "è¦ģ": 502,
      "em": 503,
      "âĢĻ": 504,
      "Ġ=": 505,
      "ä¿": 506,
      "ld": 507,
      "ant": 508,
      "æİ": 509,
      "ke": 510,
      "ĠR": 511,
      "ain": 512,
      "Ġat": 513,
      "Ġcan": 514,
      "åıĳ": 515,
      "æµ": 516,
      "å¤§": 517,
      "Ġr": 518,
      "ud": 519,
      "ä¸ļ": 520,
      "åĽ½": 521,
      "åĪĨ": 522,
      "éĹ": 523,
      "and": 524,
      "Ġfrom": 525,
      "çĲĨ": 526,
      "èµ": 527,
      "oc": 528,
      "é¢": 529,
      "åİ": 530,
      "è¡Į": 531,
      "åŁ": 532,
      "ä½ľ": 533,
      "Ġch": 534,
      "un": 535,
      "éĿ": 536,
      "æŃ": 537,
      "æ³ķ": 538,
      "Ġne": 539,
      "Ġse": 540,
      "èĥ½": 541,
      "äºĨ": 542,
      "æĹ¶": 543,
      "ial": 544,
      "Ġwas": 545,
      "ort": 546,
      "ĠL": 547,
      "å¯¹": 548,
      "ĠN": 549,
      "art": 550,
      "ure": 551,
      "ical": 552,
      "ĠG": 553,
      "æĮ": 554,
      "ä¸ª": 555,
      "åı¯": 556,
      "âĢľ": 557,
      "te": 558,
      "ç¨": 559,
      "âĢĿ": 560,
      "Ġnot": 561,
      "å¿": 562,
      "Ġle": 563,
      "ight": 564,
      "å¹´": 565,
      "##": 566,
      "å®ļ": 567,
      "èĤ": 568,
      "ions": 569,
      "ç®": 570,
      "å·¥": 571,
      "è¾": 572,
      "æĢ§": 573,
      "Ġ-": 574,
      "èĩ": 575,
      "Ġhave": 576,
      "og": 577,
      "æĪĲ": 578,
      "äºİ": 579,
      "éĥ": 580,
      "æĸ¹": 581,
      "Ġsh": 582,
      "ä¸Ĭ": 583,
      "Ġthis": 584,
      "åĳ": 585,
      "pl": 586,
      "ine": 587,
      "ä½ĵ": 588,
      "åĬ¨": 589,
      "pt": 590,
      "pe": 591,
      "æ¯": 592,
      "Ġen": 593,
      "The": 594,
      "ä¸İ": 595,
      "all": 596,
      "ä¼ļ": 597,
      "æ²": 598,
      "åĮĸ": 599,
      "åľ°": 600,
      "ich": 601,
      "åĩº": 602,
      "ç¬": 603,
      "å®ŀ": 604,
      "per": 605,
      "åĲĪ": 606,
      "é«": 607,
      "Ġab": 608,
      "rou": 609,
      "çŃī": 610,
      "red": 611,
      "åºĶ": 612,
      "ç«": 613,
      "éĺ": 614,
      "our": 615,
      "é«ĺ": 616,
      "Ġwor": 617,
      "ä¾": 618,
      "Ġus": 619,
      "ost": 620,
      "Ġ3": 621,
      "du": 622,
      "ag": 623,
      "act": 624,
      "è¿Ľ": 625,
      ").": 626,
      "ould": 627,
      "ther": 628,
      "æĭ": 629,
      "æķ°": 630,
      "ome": 631,
      "æ±": 632,
      "ated": 633,
      "ide": 634,
      "gh": 635,
      "è½": 636,
      "ard": 637,
      "ĠO": 638,
      "æľ¬": 639,
      "Ġim": 640,
      "Ġpl": 641,
      "æķĻ": 642,
      "æı": 643,
      "ations": 644,
      "æĦ": 645,
      "ff": 646,
      "Ġk": 647,
      "ult": 648,
      "age": 649,
      "è¿ĩ": 650,
      "out": 651,
      "çī©": 652,
      "åĪ¶": 653,
      "åº¦": 654,
      "åĵ": 655,
      "å¥": 656,
      "ple": 657,
      "ans": 658,
      "ell": 659,
      "Ġwhe": 660,
      "rac": 661,
      "åĲĮ": 662,
      "Ġtheir": 663,
      "iz": 664,
      "ear": 665,
      "åĪ°": 666,
      "äº§": 667,
      "Ġwhich": 668,
      "è¿Ļ": 669,
      "ĠU": 670,
      "ust": 671,
      "åħ³": 672,
      "çĤ": 673,
      "end": 674,
      "ä¸ĭ": 675,
      "ber": 676,
      "éĩı": 677,
      "åī": 678,
      "ak": 679,
      "ous": 680,
      "ç³": 681,
      "çİ°": 682,
      "ĠJ": 683,
      "æį": 684,
      "ä¸»": 685,
      "åħ¨": 686,
      "åĬĽ": 687,
      "ç¬¬": 688,
      "ĠIn": 689,
      "ç¨ĭ": 690,
      "ast": 691,
      "Ġall": 692,
      "åħ¶": 693,
      "æĥ": 694,
      "Ġad": 695,
      "ç½": 696,
      "ind": 697,
      "ble": 698,
      "Ġwill": 699,
      "ç»ı": 700,
      "Ġyour": 701,
      "ction": 702,
      "æĸĩ": 703,
      "Ġinc": 704,
      "å¦": 705,
      "æ´": 706,
      "åĲİ": 707,
      "æ°´": 708,
      "Ġres": 709,
      "å»": 710,
      "vel": 711,
      "æľº": 712,
      "Ġthey": 713,
      "cc": 714,
      "orm": 715,
      "ru": 716,
      "ç¤": 717,
      "è®¾": 718,
      "Ġ\\)": 719,
      "ä¿Ŀ": 720,
      "é¡": 721,
      "éĿ¢": 722,
      "åıĬ": 723,
      "Ġcont": 724,
      "éĩį": 725,
      "ong": 726,
      "ie": 727,
      "Ġhas": 728,
      "éĥ¨": 729,
      "are": 730,
      "Ġdis": 731,
      "æ¸": 732,
      "ents": 733,
      "ç¡": 734,
      "çĹ": 735,
      "ĠTh": 736,
      "ood": 737,
      "01": 738,
      "çŁ": 739,
      "Ġ+": 740,
      "Ġint": 741,
      "ary": 742,
      "Ġmore": 743,
      "æĪĳ": 744,
      "åĨħ": 745,
      "æĪĸ": 746,
      "Ġdo": 747,
      "åĬł": 748,
      "èĩª": 749,
      "ĊĠĠ": 750,
      "è®¡": 751,
      "able": 752,
      "èĢħ": 753,
      "ip": 754,
      "Ġme": 755,
      "éķ": 756,
      "å¤ļ": 757,
      "ia": 758,
      "ç³»": 759,
      "ence": 760,
      "çĶµ": 761,
      "ap": 762,
      "ach": 763,
      "ç±": 764,
      "}{": 765,
      "éĢļ": 766,
      "åŁº": 767,
      "æĿ¥": 768,
      "so": 769,
      "çľ": 770,
      "ater": 771,
      "åĢ": 772,
      "Ġper": 773,
      "'s": 774,
      "ç§į": 775,
      "å»º": 776,
      "Ġ4": 777,
      "ks": 778,
      "ance": 779,
      "å¢": 780,
      "ere": 781,
      "ang": 782,
      "frac": 783,
      "æıĲ": 784,
      "æīĢ": 785,
      "éģ": 786,
      "ry": 787,
      "ç©": 788,
      "Ġcl": 789,
      "å®¶": 790,
      "ç®¡": 791,
      "Ġone": 792,
      "èĬ": 793,
      "ï¼ī": 794,
      "åģ": 795,
      "ï¼ļ": 796,
      "æ¬": 797,
      "Ġman": 798,
      "æŁ": 799,
      "çł": 800,
      "ual": 801,
      "ress": 802,
      "Ġother": 803,
      "ass": 804,
      "ï¼Ī": 805,
      "Ġbut": 806,
      "çĽ¸": 807,
      "å¦Ĥ": 808,
      "èµĦ": 809,
      "åŃĲ": 810,
      "æĸ°": 811,
      "ition": 812,
      "xt": 813,
      "çĤ¹": 814,
      "å°ı": 815,
      "ign": 816,
      "è°": 817,
      "å±ķ": 818,
      "ep": 819,
      "åħ¬": 820,
      "è¡¨": 821,
      "ase": 822,
      "ild": 823,
      "åĬ¡": 824,
      "ä¹ĭ": 825,
      "è§Ħ": 826,
      "Ġapp": 827,
      "Ġwere": 828,
      "ime": 829,
      "ose": 830,
      "éĹ´": 831,
      "åĿ": 832,
      "ake": 833,
      "é¢ĺ": 834,
      "Ġcomp": 835,
      "èī": 836,
      "Ġte": 837,
      "Ġun": 838,
      "Ġ19": 839,
      "\\)": 840,
      "ç»ĵ": 841,
      "ue": 842,
      "çĸ": 843,
      "ä»¬": 844,
      "av": 845,
      "ice": 846,
      "Ġalso": 847,
      "èģ": 848,
      "Ġso": 849,
      "Ġj": 850,
      "æ¶": 851,
      "æľŁ": 852,
      "ä½į": 853,
      "int": 854,
      "èĢĮ": 855,
      "Ġsp": 856,
      "ĠâĢľ": 857,
      "ace": 858,
      "ame": 859,
      "Ġ5": 860,
      "au": 861,
      "Ġout": 862,
      "Ġar": 863,
      "ä¸ī": 864,
      "é£": 865,
      "ä½¿": 866,
      "åħ¥": 867,
      "Ġpart": 868,
      "è·": 869,
      "å¼Ģ": 870,
      "ub": 871,
      "ç´": 872,
      "Ġ\"": 873,
      "éħ": 874,
      "Ġstud": 875,
      "ord": 876,
      "--": 877,
      "ĠâĢ": 878,
      "ite": 879,
      "reat": 880,
      "one": 881,
      "ens": 882,
      "è´¨": 883,
      "å¼ı": 884,
      "è§£": 885,
      "Ġqu": 886,
      "Ġimp": 887,
      "éļ": 888,
      "ors": 889,
      "ount": 890,
      "iff": 891,
      "ire": 892,
      "æĽ": 893,
      "éķ¿": 894,
      "very": 895,
      "ree": 896,
      "ces": 897,
      "æłĩ": 898,
      "low": 899,
      "Ġev": 900,
      "äºĭ": 901,
      "æ°ĳ": 902,
      "Ġnum": 903,
      "äºĮ": 904,
      "åĽł": 905,
      "ok": 906,
      "Ġsy": 907,
      "ph": 908,
      "ack": 909,
      "Ġabout": 910,
      "ĠSt": 911,
      "ric": 912,
      "ci": 913,
      "ound": 914,
      "ory": 915,
      "ĠĠĠĠ": 916,
      "å¾Ĺ": 917,
      "ç¼": 918,
      "Ġinf": 919,
      "éĽ": 920,
      "å¹¶": 921,
      "ä»¶": 922,
      "ĠK": 923,
      "ish": 924,
      "æĺİ": 925,
      "æį®": 926,
      "ç§ĳ": 927,
      "å°±": 928,
      "åĮº": 929,
      "ãĢĬ": 930,
      "ãĢĭ": 931,
      "çĽ®": 932,
      "now": 933,
      "Ġwho": 934,
      "__": 935,
      "Ġli": 936,
      "ms": 937,
      "ĠV": 938,
      "ç»Ħ": 939,
      "Ġcomm": 940,
      "å¹³": 941,
      "ä¹Ł": 942,
      "èĢĥ": 943,
      "ĠIt": 944,
      "å½ĵ": 945,
      "è¶": 946,
      "nder": 947,
      "Ġthem": 948,
      "Ġthan": 949,
      "Ġpe": 950,
      "å½¢": 951,
      "éľ": 952,
      "åĪ©": 953,
      "åīį": 954,
      "èį": 955,
      "Ġhis": 956,
      "å¿ĥ": 957,
      "åĵģ": 958,
      "ç»Ł": 959,
      "æĬĢ": 960,
      "æº": 961,
      "æĦı": 962,
      "çī¹": 963,
      "æĶ¿": 964,
      "æ¡": 965,
      "æĻ": 966,
      "Ġtw": 967,
      "ath": 968,
      "Ġup": 969,
      "ew": 970,
      "ï¼Ľ": 971,
      "æŀľ": 972,
      "ç±»": 973,
      "Ġbec": 974,
      "Ġ0": 975,
      "ates": 976,
      "ile": 977,
      "Ġdiff": 978,
      "ays": 979,
      "æľ¯": 980,
      "les": 981,
      "Ġpre": 982,
      "åŀ": 983,
      "çĹħ": 984,
      "éª": 985,
      "å¤ĸ": 986,
      "con": 987,
      "Ġro": 988,
      "Ġspe": 989,
      "ĠCh": 990,
      "èĤ²": 991,
      "Ġthere": 992,
      "Ġits": 993,
      "olog": 994,
      "åįķ": 995,
      "æ´»": 996,
      "æľĢ": 997,
      "ä»£": 998,
      "Ġwhen": 999,
      "Ġinto": 1000,
      "ä»ĸ": 1001,
      "ä»İ": 1002,
      "ĠThis": 1003,
      "Ġsome": 1004,
      "Ġmay": 1005,
      "Ġpo": 1006,
      "æĥħ": 1007,
      "å¸Ĥ": 1008,
      "ail": 1009,
      "Ġyear": 1010,
      "å®ī": 1011,
      "çĻ": 1012,
      "åı¯ä»¥": 1013,
      "å°Ĩ": 1014,
      "imes": 1015,
      "çĶ±": 1016,
      "åıĺ": 1017,
      "å¸¸": 1018,
      "çłĶ": 1019,
      "we": 1020,
      "ä¿¡": 1021,
      "Ġtime": 1022,
      "Ġhow": 1023,
      "vers": 1024,
      "),": 1025,
      "åİŁ": 1026,
      "10": 1027,
      "çķ": 1028,
      "Ġbet": 1029,
      "ian": 1030,
      "æģ": 1031,
      "Ġthese": 1032,
      "rit": 1033,
      "Ġif": 1034,
      "çĥ": 1035,
      "ll": 1036,
      "Ġ6": 1037,
      "Ġ**": 1038,
      "irst": 1039,
      "å¯¼": 1040,
      "Ġbeen": 1041,
      "æĹ¥": 1042,
      "æĮĩ": 1043,
      "ings": 1044,
      "ys": 1045,
      "Ġuse": 1046,
      "ç²": 1047,
      "ople": 1048,
      "20": 1049,
      "Ġgo": 1050,
      "Ġwork": 1051,
      "å¥½": 1052,
      "ject": 1053,
      "ove": 1054,
      "è¿Ľè¡Į": 1055,
      "åħ·": 1056,
      "åıĳå±ķ": 1057,
      "Ġrec": 1058,
      "ative": 1059,
      "Ġag": 1060,
      "Ġover": 1061,
      "æĿ¡": 1062,
      "ough": 1063,
      "éĩĳ": 1064,
      "ific": 1065,
      "ons": 1066,
      "19": 1067,
      "erv": 1068,
      "lud": 1069,
      "Ġcons": 1070,
      "Ġtwo": 1071,
      "æŀĦ": 1072,
      "ä¸ĵ": 1073,
      "Ġunder": 1074,
      "æ¯Ķ": 1075,
      "èĭ": 1076,
      "ally": 1077,
      "ren": 1078,
      "Ġcol": 1079,
      "mer": 1080,
      "tern": 1081,
      "æĿĥ": 1082,
      "rough": 1083,
      "éĶ": 1084,
      "æİ¥": 1085,
      "èĬĤ": 1086,
      "lic": 1087,
      "row": 1088,
      "ft": 1089,
      "æ°Ķ": 1090,
      "ç¾": 1091,
      "åŃ¦çĶŁ": 1092,
      "å¼º": 1093,
      "Ġra": 1094,
      "çĦ": 1095,
      "æµģ": 1096,
      "ause": 1097,
      "ĠY": 1098,
      "ç¤¾": 1099,
      "èĲ": 1100,
      "stem": 1101,
      "ics": 1102,
      "ities": 1103,
      "æ±Ĥ": 1104,
      "åŀĭ": 1105,
      "Ġknow": 1106,
      "çģ": 1107,
      "æ·": 1108,
      "Ġrel": 1109,
      "lect": 1110,
      "å¤Ħ": 1111,
      "åĲĦ": 1112,
      "æķĪ": 1113,
      "Ġexp": 1114,
      "æ²»": 1115,
      "ç«ĭ": 1116,
      "èĦ": 1117,
      "==": 1118,
      "..": 1119,
      "Ġlike": 1120,
      "é¡¹": 1121,
      "æľĪ": 1122,
      "ç¡®": 1123,
      "å·¥ä½ľ": 1124,
      "Ġpeople": 1125,
      "Ġsuch": 1126,
      "Ġact": 1127,
      "åĳĺ": 1128,
      "ract": 1129,
      "Ġco": 1130,
      "Ġtr": 1131,
      "åĲĳ": 1132,
      "çŁ¥": 1133,
      "æŃ£": 1134,
      "ution": 1135,
      "Ġhad": 1136,
      "ari": 1137,
      "Ġdes": 1138,
      "Ġany": 1139,
      "ular": 1140,
      "éĹ®": 1141,
      "Ġwould": 1142,
      "text": 1143,
      "ning": 1144,
      "\\[": 1145,
      "ä¹ł": 1146,
      "Ġour": 1147,
      "ç©¶": 1148,
      "çº§": 1149,
      "Ġneed": 1150,
      "çĿ": 1151,
      "è¯ģ": 1152,
      "Ġbl": 1153,
      "Ġ$": 1154,
      "ational": 1155,
      "æĹł": 1156,
      "Ġacc": 1157,
      "erm": 1158,
      "ä¸Ģä¸ª": 1159,
      "Ġmost": 1160,
      "ating": 1161,
      "Ġdiffere": 1162,
      "åĻ": 1163,
      "cess": 1164,
      "éľĢ": 1165,
      "å§": 1166,
      "Ġtra": 1167,
      "ç®¡çĲĨ": 1168,
      "æĶ¶": 1169,
      "åĲį": 1170,
      "Ġsa": 1171,
      "éĴ": 1172,
      "æ¬¡": 1173,
      "ib": 1174,
      "ments": 1175,
      "Ġrep": 1176,
      "Ġnew": 1177,
      "æŃ¤": 1178,
      "å¢ŀ": 1179,
      ":**": 1180,
      "ffect": 1181,
      "als": 1182,
      "Ġequ": 1183,
      "æ®": 1184,
      "Ġfirst": 1185,
      "alth": 1186,
      "rib": 1187,
      "Ġx": 1188,
      "èĪ": 1189,
      "Ġinclud": 1190,
      "åĩĨ": 1191,
      "è¯¾": 1192,
      "èµ·": 1193,
      "âĢĶ": 1194,
      "æ£": 1195,
      "Ġgen": 1196,
      "Ġno": 1197,
      "Ġprov": 1198,
      "æĤ": 1199,
      "Ġ201": 1200,
      "è¯´": 1201,
      "ook": 1202,
      "Ġused": 1203,
      "ility": 1204,
      "å¸Ī": 1205,
      "Ġwhat": 1206,
      "Ġind": 1207,
      "è¯Ĩ": 1208,
      "velop": 1209,
      "Ġonly": 1210,
      "Ġhel": 1211,
      "å¤©": 1212,
      "ä¹ī": 1213,
      "ne": 1214,
      "éĢī": 1215,
      "Ġprodu": 1216,
      "åĻ¨": 1217,
      "è°ĥ": 1218,
      "è®º": 1219,
      "eth": 1220,
      "æºĲ": 1221,
      "å£": 1222,
      "è¯ķ": 1223,
      "Ġam": 1224,
      "è¿Ĳ": 1225,
      "000": 1226,
      "èĮ": 1227,
      "ä»»": 1228,
      "Ġform": 1229,
      "éģĵ": 1230,
      "hed": 1231,
      "æĸ½": 1232,
      "Ġmany": 1233,
      "çº¿": 1234,
      "æł¡": 1235,
      "Ġsc": 1236,
      "ç´ł": 1237,
      "Ġpos": 1238,
      "Ġhelp": 1239,
      "ced": 1240,
      "Ġob": 1241,
      "åıĸ": 1242,
      "oth": 1243,
      "ise": 1244,
      "ob": 1245,
      "çłĶç©¶": 1246,
      "ov": 1247,
      "ange": 1248,
      "###": 1249,
      "Ġph": 1250,
      "Ġsol": 1251,
      "çĦ¶": 1252,
      "å®¹": 1253,
      "Ġac": 1254,
      "Ġadd": 1255,
      "åĽ¾": 1256,
      "æĽ´": 1257,
      "æĮģ": 1258,
      "çĬ": 1259,
      "äº¤": 1260,
      "ä¸¤": 1261,
      "Ġthrough": 1262,
      "ween": 1263,
      "Ġ7": 1264,
      "ample": 1265,
      "ĠPro": 1266,
      "èī²": 1267,
      "Ġnumber": 1268,
      "Ġsystem": 1269,
      "è¯Ń": 1270,
      "éĵ": 1271,
      "Ġdec": 1272,
      "Ġchild": 1273,
      "åħĥ": 1274,
      "ĠUn": 1275,
      "Ġfe": 1276,
      "éªĮ": 1277,
      "åħ»": 1278,
      "æķĻèĤ²": 1279,
      "æµĭ": 1280,
      "hen": 1281,
      "éĥ½": 1282,
      "Ġspec": 1283,
      "ç¤º": 1284,
      "åįģ": 1285,
      "fter": 1286,
      "åħ±": 1287,
      "æĬĢæľ¯": 1288,
      "éĻ¢": 1289,
      "Ġdi": 1290,
      "Ġoff": 1291,
      "Ġreg": 1292,
      "Ġpr": 1293,
      "ark": 1294,
      "ç®Ĺ": 1295,
      "æĸĻ": 1296,
      "Ġass": 1297,
      "In": 1298,
      "è¾ĥ": 1299,
      "Ġsub": 1300,
      "åľº": 1301,
      "Ġ10": 1302,
      "æľį": 1303,
      "Ġ|": 1304,
      "ï¼İ": 1305,
      "round": 1306,
      "çİĩ": 1307,
      "åĽĽ": 1308,
      "åĪĻ": 1309,
      "ds": 1310,
      "its": 1311,
      "Ġ\\]": 1312,
      "æĪĳä»¬": 1313,
      "ible": 1314,
      "Ġbetween": 1315,
      "è¢": 1316,
      "ink": 1317,
      "Ġ8": 1318,
      "æĬ¥": 1319,
      "ful": 1320,
      "éĺ²": 1321,
      "hat": 1322,
      "æĦŁ": 1323,
      "ç¥": 1324,
      "è®¤": 1325,
      "ä¼ł": 1326,
      "ç¤¾ä¼ļ": 1327,
      "uc": 1328,
      "ä¸ŃåĽ½": 1329,
      "Ġem": 1330,
      "ä¹¦": 1331,
      "ower": 1332,
      "ram": 1333,
      "åĢ¼": 1334,
      "Ġdevelop": 1335,
      "uring": 1336,
      "ä½¿çĶ¨": 1337,
      "è½¬": 1338,
      "ä¼ģ": 1339,
      "æł·": 1340,
      "çİ¯": 1341,
      "äºĽ": 1342,
      "åıĹ": 1343,
      "Ġinv": 1344,
      "è£": 1345,
      "fore": 1346,
      "æĬ¤": 1347,
      "iss": 1348,
      "ng": 1349,
      "åĨľ": 1350,
      "Ġwhere": 1351,
      "æł¼": 1352,
      "æ¨": 1353,
      "è¿ĺ": 1354,
      "ased": 1355,
      "ures": 1356,
      "hes": 1357,
      "æ¡Ī": 1358,
      "ç½ĳ": 1359,
      "æŁ¥": 1360,
      "ĠRe": 1361,
      "ert": 1362,
      "åı£": 1363,
      "åĮħ": 1364,
      "æĶ¹": 1365,
      "Ġsur": 1366,
      "Ġinter": 1367,
      "Ġ9": 1368,
      "own": 1369,
      "12": 1370,
      "Ġshould": 1371,
      "å¤ĩ": 1372,
      "éĹ®é¢ĺ": 1373,
      "Ġrem": 1374,
      "ä»·": 1375,
      "ool": 1376,
      "aw": 1377,
      "Ġ200": 1378,
      "Th": 1379,
      "Ġ&": 1380,
      "æ»": 1381,
      "ä¾ĭ": 1382,
      "ä¼ģä¸ļ": 1383,
      "Ġthen": 1384,
      "æĢ»": 1385,
      "ä½Ĩ": 1386,
      "æł¹": 1387,
      "Ġget": 1388,
      "ten": 1389,
      "ĠâĢĵ": 1390,
      "åĸ": 1391,
      "cept": 1392,
      "Ġfun": 1393,
      "ss": 1394,
      "form": 1395,
      "éĢļè¿ĩ": 1396,
      "Ġsim": 1397,
      "arch": 1398,
      "éĹ¨": 1399,
      "Ġfl": 1400,
      "æĢĿ": 1401,
      "ĠHe": 1402,
      "Ġdifferent": 1403,
      "Ġsm": 1404,
      "Ġatt": 1405,
      "æģ¯": 1406,
      "åŃĺ": 1407,
      "åĪ«": 1408,
      "é£İ": 1409,
      "æ³¨": 1410,
      "Ġsupp": 1411,
      "éĻ©": 1412,
      "è¾¾": 1413,
      "ied": 1414,
      "è¢«": 1415,
      "ata": 1416,
      "Ġval": 1417,
      "åıĤ": 1418,
      "ife": 1419,
      "å¤į": 1420,
      "åĪĽ": 1421,
      "Ġeach": 1422,
      "ä¸»è¦ģ": 1423,
      "è·¯": 1424,
      "éĢł": 1425,
      "Ġfol": 1426,
      "Ġyears": 1427,
      "Ġwell": 1428,
      "çħ": 1429,
      "Ġwater": 1430,
      "è¡Ģ": 1431,
      "ä½İ": 1432,
      "Ġtrans": 1433,
      "åŃĹ": 1434,
      "æĸ¹æ³ķ": 1435,
      "Ġfind": 1436,
      "æ¯ı": 1437,
      "ç¦": 1438,
      "åĮ»": 1439,
      "ç³»ç»Ł": 1440,
      "è±": 1441,
      "sel": 1442,
      "ick": 1443,
      "ines": 1444,
      "cul": 1445,
      "Ġvari": 1446,
      "ade": 1447,
      "Ġmod": 1448,
      "Ġgra": 1449,
      "æ¨¡": 1450,
      "ç½®": 1451,
      "hem": 1452,
      "åıį": 1453,
      "å°ĳ": 1454,
      "æĢģ": 1455,
      "é¦": 1456,
      "Ġmake": 1457,
      "Ġcould": 1458,
      "ting": 1459,
      "å¼ķ": 1460,
      "ä¾Ľ": 1461,
      "Ġhigh": 1462,
      "bers": 1463,
      "ident": 1464,
      "åĽ½å®¶": 1465,
      "cy": 1466,
      "Ġpres": 1467,
      "Ġfact": 1468,
      "åķ": 1469,
      "ps": 1470,
      "çĿĢ": 1471,
      "Ġdist": 1472,
      "èģĮ": 1473,
      "Ġinte": 1474,
      "æµİ": 1475,
      "æ£Ģ": 1476,
      "Ġ18": 1477,
      "uch": 1478,
      "ä¹Ī": 1479,
      "èį¯": 1480,
      "gan": 1481,
      "ever": 1482,
      "èĻ": 1483,
      "ious": 1484,
      "æĶ¾": 1485,
      "è¯¥": 1486,
      "Ġproble": 1487,
      "wn": 1488,
      "Ġdet": 1489,
      "ues": 1490,
      "ç»Ĩ": 1491,
      "ants": 1492,
      "éĽĨ": 1493,
      "Ġhealth": 1494,
      "å¢ĥ": 1495,
      "201": 1496,
      "ily": 1497,
      "å½±": 1498,
      "æŃ¥": 1499,
      "ĠCon": 1500,
      "ts": 1501,
      "æİ¨": 1502,
      "æķ´": 1503,
      "æĮī": 1504,
      "çĬ¶": 1505,
      "Ġbu": 1506,
      "Ġset": 1507,
      "ĠFor": 1508,
      "å®Į": 1509,
      "ç§¯": 1510,
      "çĽ´": 1511,
      "æīĭ": 1512,
      "chn": 1513,
      "åİĭ": 1514,
      "Ġimport": 1515,
      "Ġpoint": 1516,
      "gy": 1517,
      "the": 1518,
      "Ġinst": 1519,
      "ural": 1520,
      "èĮĥ": 1521,
      "è´¹": 1522,
      "æĶ¯": 1523,
      "chool": 1524,
      "ology": 1525,
      "Ġpers": 1526,
      "Ġcent": 1527,
      "è§Ĥ": 1528,
      "ef": 1529,
      "urn": 1530,
      "ving": 1531,
      "æİ§": 1532,
      "der": 1533,
      "Ġher": 1534,
      "è§Ħå®ļ": 1535,
      "æŀĲ": 1536,
      "Ġfound": 1537,
      "ç»ıæµİ": 1538,
      "cent": 1539,
      "Ġear": 1540,
      "Ġdef": 1541,
      "oci": 1542,
      "Ġrese": 1543,
      "Ġty": 1544,
      "Ġbecause": 1545,
      "ict": 1546,
      "ĠIf": 1547,
      "Ġusing": 1548,
      "ins": 1549,
      "Ġlar": 1550,
      "ited": 1551,
      "Ġpol": 1552,
      "50": 1553,
      "ĠCom": 1554,
      "Ġresult": 1555,
      "å®īåħ¨": 1556,
      "åı¸": 1557,
      "Ġfollow": 1558,
      "å¾ĭ": 1559,
      "åŁ¹": 1560,
      "11": 1561,
      "ists": 1562,
      "å®ĥ": 1563,
      "è®°": 1564,
      "ĠEx": 1565,
      "Ġlong": 1566,
      "ç¾İ": 1567,
      "get": 1568,
      "iew": 1569,
      "Ġlear": 1570,
      "Ġsign": 1571,
      "Ġcar": 1572,
      "åĨµ": 1573,
      "ĠAl": 1574,
      "ç«ł": 1575,
      "ature": 1576,
      "times": 1577,
      "ron": 1578,
      "åħī": 1579,
      "Ġafter": 1580,
      "Ġeffect": 1581,
      "Ġjust": 1582,
      "Ġresp": 1583,
      "Ġincre": 1584,
      "çĸĹ": 1585,
      "ually": 1586,
      "åģļ": 1587,
      "land": 1588,
      "Ġeven": 1589,
      "Ġway": 1590,
      "other": 1591,
      "åħĪ": 1592,
      "irc": 1593,
      "åĪĹ": 1594,
      "ives": 1595,
      "æķĻåŃ¦": 1596,
      "Ġsame": 1597,
      "é»": 1598,
      "Ġgener": 1599,
      "Ġed": 1600,
      "é£Ł": 1601,
      "ically": 1602,
      "é©": 1603,
      "éĻħ": 1604,
      "è¯·": 1605,
      "ä¸ŃçļĦ": 1606,
      "æľįåĬ¡": 1607,
      "èģĶ": 1608,
      "Ġcount": 1609,
      "èĩ³": 1610,
      "ness": 1611,
      "åķĨ": 1612,
      "éĩĩ": 1613,
      "oy": 1614,
      "Ġdisc": 1615,
      "meric": 1616,
      "Ġexper": 1617,
      "aking": 1618,
      "è¥": 1619,
      "åĨ³": 1620,
      "Ġref": 1621,
      "Ġmat": 1622,
      "Ġsee": 1623,
      "åĦ": 1624,
      "ec": 1625,
      "Ġinform": 1626,
      "èº": 1627,
      "ruct": 1628,
      "Ġvery": 1629,
      "éĤ": 1630,
      "å»ºè®¾": 1631,
      "ism": 1632,
      "äºĶ": 1633,
      "éĻ¤": 1634,
      "çĥŃ": 1635,
      "ĠWe": 1636,
      "stand": 1637,
      "ç¨İ": 1638,
      "éĩĮ": 1639,
      "ĠAn": 1640,
      "çľĭ": 1641,
      "å·²": 1642,
      "æĸŃ": 1643,
      "éĿŀ": 1644,
      "Ġstudents": 1645,
      "Ġmed": 1646,
      "è¯Ħ": 1647,
      "è¥¿": 1648,
      "Ġcall": 1649,
      "è¦ģæ±Ĥ": 1650,
      "ved": 1651,
      "ases": 1652,
      "æĿĲ": 1653,
      "éĢĤ": 1654,
      "åĬŁ": 1655,
      "è¯»": 1656,
      "æ¸ħ": 1657,
      "æĥ³": 1658,
      "çľģ": 1659,
      "Ġevery": 1660,
      "ä¼ĺ": 1661,
      "____": 1662,
      "ç»´": 1663,
      "ork": 1664,
      "Ġright": 1665,
      "ax": 1666,
      "Ġke": 1667,
      "ĠHow": 1668,
      "è´£": 1669,
      "åĦ¿": 1670,
      "Ġworld": 1671,
      "åŃ¦ä¹ł": 1672,
      "å¿ħ": 1673,
      "éľĢè¦ģ": 1674,
      "ç©º": 1675,
      "Ġmin": 1676,
      "ize": 1677,
      "ides": 1678,
      "Ġext": 1679,
      "Ġboth": 1680,
      "200": 1681,
      "Ġprocess": 1682,
      "Ġ20": 1683,
      "ä¿¡æģ¯": 1684,
      "è½¦": 1685,
      "å²": 1686,
      "Ġthose": 1687,
      "vent": 1688,
      "alcul": 1689,
      "Ġcomple": 1690,
      "Ġrequ": 1691,
      "ä¸ĵä¸ļ": 1692,
      "çĪ": 1693,
      "å¸¦": 1694,
      "èħ": 1695,
      "Ġcur": 1696,
      "åĪĴ": 1697,
      "èº«": 1698,
      "ç§°": 1699,
      "èĥ½åĬĽ": 1700,
      "Ġpat": 1701,
      "é¢Ħ": 1702,
      "ond": 1703,
      "éħį": 1704,
      "Ġhum": 1705,
      "æ¶Ī": 1706,
      "ient": 1707,
      "Ġdata": 1708,
      "Ġcor": 1709,
      "åľŁ": 1710,
      "iven": 1711,
      "old": 1712,
      "Ġpartic": 1713,
      "ined": 1714,
      "èı": 1715,
      "è±¡": 1716,
      "led": 1717,
      "æĹ¶éĹ´": 1718,
      "und": 1719,
      "ety": 1720,
      ".\"": 1721,
      "Ġprog": 1722,
      "ty": 1723,
      "ages": 1724,
      "æł¸": 1725,
      "èĲ¥": 1726,
      "åĬŀ": 1727,
      "è§ģ": 1728,
      "arm": 1729,
      "èİ": 1730,
      "Ġsaid": 1731,
      "cial": 1732,
      "ute": 1733,
      "åı·": 1734,
      "å±ŀ": 1735,
      "15": 1736,
      "åĵį": 1737,
      "çħ§": 1738,
      "Ġappro": 1739,
      "Ġ[": 1740,
      "æ®µ": 1741,
      "nce": 1742,
      "ç»Ļ": 1743,
      "Ġdoes": 1744,
      "éĢŁ": 1745,
      "ward": 1746,
      "Ġmy": 1747,
      "åĨħå®¹": 1748,
      "é¢Ĩ": 1749,
      "Ġdep": 1750,
      "æĺĵ": 1751,
      "æİĴ": 1752,
      "ivers": 1753,
      "æ¸©": 1754,
      "Ġbeing": 1755,
      "iel": 1756,
      "åĿĩ": 1757,
      "ĠAmeric": 1758,
      "å¸ĥ": 1759,
      "Ġpub": 1760,
      "åįĹ": 1761,
      "ection": 1762,
      "ç»ĩ": 1763,
      "Ġexpl": 1764,
      "åŁºæľ¬": 1765,
      "ody": 1766,
      "ç²¾": 1767,
      "Ġloc": 1768,
      "ince": 1769,
      "ä¸ľ": 1770,
      "Ġmuch": 1771,
      "eng": 1772,
      "æµ·": 1773,
      "This": 1774,
      "30": 1775,
      "åŁŁ": 1776,
      "å·¥ç¨ĭ": 1777,
      "Ġshe": 1778,
      "Ġç¬¬": 1779,
      "åıª": 1780,
      "çĻ½": 1781,
      "tle": 1782,
      "çº¦": 1783,
      "æĺ¾": 1784,
      "cer": 1785,
      "ix": 1786,
      "Ġent": 1787,
      "inal": 1788,
      "æ´»åĬ¨": 1789,
      "Ġmon": 1790,
      "æķ°æį®": 1791,
      "ential": 1792,
      "åŁİ": 1793,
      "Ġca": 1794,
      "ivid": 1795,
      "Ġtechn": 1796,
      "iron": 1797,
      "ices": 1798,
      "è®®": 1799,
      "å¾Ī": 1800,
      "åºı": 1801,
      "hip": 1802,
      "åį³": 1803,
      "Ġimportant": 1804,
      "æĬķ": 1805,
      "ral": 1806,
      "ized": 1807,
      "ä½ľçĶ¨": 1808,
      "éĩįè¦ģ": 1809,
      "ĊĠ": 1810,
      "ä¸ĸ": 1811,
      "æ·±": 1812,
      "Ġshow": 1813,
      "ä½ķ": 1814,
      "åĪĨæŀĲ": 1815,
      "Ġinformation": 1816,
      "li": 1817,
      ".,": 1818,
      "åĨĻ": 1819,
      "Ġchildren": 1820,
      "åĬ©": 1821,
      "Ġlevel": 1822,
      "Ġlife": 1823,
      "gg": 1824,
      "Ġart": 1825,
      "èĢģ": 1826,
      "Ġcre": 1827,
      "å±±": 1828,
      "è®¾è®¡": 1829,
      "å±Ĥ": 1830,
      "è£ħ": 1831,
      "Ġread": 1832,
      "18": 1833,
      ".âĢĿ": 1834,
      "Ġsk": 1835,
      "Ġlead": 1836,
      "æĥħåĨµ": 1837,
      "ather": 1838,
      "ted": 1839,
      "Ġend": 1840,
      "ä¸ĩ": 1841,
      "vern": 1842,
      "Ġstudy": 1843,
      "ock": 1844,
      "æł¹æį®": 1845,
      "åĽŀ": 1846,
      "è¿ĩç¨ĭ": 1847,
      "ç»Ń": 1848,
      "Ġsmall": 1849,
      "Ġstr": 1850,
      "ĠAs": 1851,
      "Ġduring": 1852,
      "éĻĲ": 1853,
      "Ġexample": 1854,
      "åħ·æľī": 1855,
      "Ġfam": 1856,
      "Ġins": 1857,
      "çķĮ": 1858,
      "Ġcommun": 1859,
      "åŁºç¡": 1860,
      "Ġgrou": 1861,
      "com": 1862,
      "ä¸įåĲĮ": 1863,
      "åĮĹ": 1864,
      "Ġless": 1865,
      "dition": 1866,
      "cl": 1867,
      "Ġthree": 1868,
      "ĠThey": 1869,
      "\\]": 1870,
      "åŁºç¡Ģ": 1871,
      "Ġtest": 1872,
      "Ġown": 1873,
      "ç¢": 1874,
      "æŀģ": 1875,
      "any": 1876,
      "====": 1877,
      "ves": 1878,
      "åĲ«": 1879,
      "æ¢": 1880,
      "Ġ\\).": 1881,
      "Ġback": 1882,
      "ä½ł": 1883,
      "ale": 1884,
      "å¡": 1885,
      "Ġ12": 1886,
      "çĽĳ": 1887,
      "Ġbo": 1888,
      "ä¾Ŀ": 1889,
      "de": 1890,
      "æľª": 1891,
      "Ġmade": 1892,
      "åįķä½į": 1893,
      "ç»Ħç»ĩ": 1894,
      "read": 1895,
      "äººæ°ĳ": 1896,
      "èĩ´": 1897,
      "io": 1898,
      "åĩı": 1899,
      "è®©": 1900,
      "Ġaut": 1901,
      "Ġpop": 1902,
      "ç¦»": 1903,
      "å½±åĵį": 1904,
      "è§Ĩ": 1905,
      "åİ»": 1906,
      "å¹¿": 1907,
      "Ġgrow": 1908,
      "ality": 1909,
      "æĬĬ": 1910,
      "ĠAr": 1911,
      "åħ¬åı¸": 1912,
      "omet": 1913,
      "æĭ¬": 1914,
      "ĠQ": 1915,
      "**:": 1916,
      "Ġposs": 1917,
      "åºĶçĶ¨": 1918,
      "Ġgood": 1919,
      "imate": 1920,
      "çĽ¸åħ³": 1921,
      "Ġperson": 1922,
      "Ġav": 1923,
      "æīį": 1924,
      "Ġstate": 1925,
      "ergy": 1926,
      "çİ¯å¢ĥ": 1927,
      "æ²¡": 1928,
      "åħĭ": 1929,
      "æłĩåĩĨ": 1930,
      "Ġfood": 1931,
      "åıĳçĶŁ": 1932,
      "ex": 1933,
      "Ġfunction": 1934,
      "çŁ¥è¯Ĩ": 1935,
      "ç±³": 1936,
      "Â·": 1937,
      "Ġconst": 1938,
      "è¿ĳ": 1939,
      "åİĨ": 1940,
      "Ġsci": 1941,
      "Ġschool": 1942,
      "ven": 1943,
      "||": 1944,
      "å®¡": 1945,
      "Ġpower": 1946,
      "right": 1947,
      "ck": 1948,
      "âĳ": 1949,
      "ider": 1950,
      "æĪ·": 1951,
      "eg": 1952,
      "Ġmain": 1953,
      "ability": 1954,
      "air": 1955,
      "Ġbefore": 1956,
      "çĶŁäº§": 1957,
      "^{": 1958,
      "åįĩ": 1959,
      "Ġdire": 1960,
      "çĽĬ": 1961,
      "éĻį": 1962,
      "æ¶²": 1963,
      "çª": 1964,
      "å¦Ĥæŀľ": 1965,
      "å¤ĦçĲĨ": 1966,
      "åħ¶ä»ĸ": 1967,
      "æĿĳ": 1968,
      "Ġclass": 1969,
      "Ġmust": 1970,
      "Ġwhile": 1971,
      "ars": 1972,
      "Ġtake": 1973,
      "ify": 1974,
      "å¹²": 1975,
      "akes": 1976,
      "Ġagain": 1977,
      "éĥ¨åĪĨ": 1978,
      "uss": 1979,
      "Ġ.": 1980,
      "çĲĥ": 1981,
      "16": 1982,
      "Ġcommon": 1983,
      "viron": 1984,
      "ethod": 1985,
      "Ġoften": 1986,
      "å·±": 1987,
      "æī¿": 1988,
      "Ġunderstand": 1989,
      "ĠĠĠĠĠĠĠĠ": 1990,
      "éŁ": 1991,
      "å¤±": 1992,
      "æıĲé«ĺ": 1993,
      "up": 1994,
      "æĪĺ": 1995,
      "Ġgl": 1996,
      "Ġhist": 1997,
      "Ġchar": 1998,
      "ç¥ŀ": 1999,
      "ĠInd": 2000,
      "Ġser": 2001,
      "ran": 2002,
      "Ġnow": 2003,
      "Ġocc": 2004,
      "ision": 2005,
      "rol": 2006,
      "åħļ": 2007,
      "é¥": 2008,
      "æĤ£": 2009,
      "rest": 2010,
      "è¿°": 2011,
      "åģ¥": 2012,
      "ger": 2013,
      "æıĲä¾Ľ": 2014,
      "Ġlit": 2015,
      "ĠNew": 2016,
      "ç§ĳåŃ¦": 2017,
      "cond": 2018,
      "Ġdown": 2019,
      "rent": 2020,
      "è¨": 2021,
      "Ġarea": 2022,
      "è´¢": 2023,
      "itive": 2024,
      "to": 2025,
      "è¨Ģ": 2026,
      "Ġday": 2027,
      "å¤´": 2028,
      "åĳ½": 2029,
      "Ġline": 2030,
      "----": 2031,
      "25": 2032,
      "çŃĸ": 2033,
      "ator": 2034,
      "ets": 2035,
      "ency": 2036,
      "èĬ±": 2037,
      "åĮħæĭ¬": 2038,
      "Ġquest": 2039,
      "Ġstart": 2040,
      "äººåĳĺ": 2041,
      "è®¡ç®Ĺ": 2042,
      "Ġplan": 2043,
      "éħ¸": 2044,
      "Ġest": 2045,
      "ä»Ģ": 2046,
      "ished": 2047,
      "æĸ¹å¼ı": 2048,
      "_{": 2049,
      "14": 2050,
      "ĠSe": 2051,
      "åĳ¨": 2052,
      "æķħ": 2053,
      "åĬ³": 2054,
      "oh": 2055,
      "ring": 2056,
      "omen": 2057,
      "ç¼ĸ": 2058,
      "åı²": 2059,
      "ave": 2060,
      "ĠThere": 2061,
      "ots": 2062,
      "åĶ": 2063,
      "Ġmult": 2064,
      "ç»ĵæŀĦ": 2065,
      "Ġtri": 2066,
      "ross": 2067,
      "Ġmem": 2068,
      "ä»¥åıĬ": 2069,
      "åĨį": 2070,
      "itions": 2071,
      "ffic": 2072,
      "ains": 2073,
      "atic": 2074,
      "Ġhand": 2075,
      "ulation": 2076,
      "èĩªå·±": 2077,
      "æŁĵ": 2078,
      "Ġresearch": 2079,
      "Ġprot": 2080,
      "Ġconf": 2081,
      "Ġcontin": 2082,
      "Ġtreat": 2083,
      "Ġve": 2084,
      "13": 2085,
      "ä¿®": 2086,
      "sw": 2087,
      "æ¬¾": 2088,
      "æĭ©": 2089,
      "ä¸Ķ": 2090,
      "raph": 2091,
      "åĽ´": 2092,
      "çľŁ": 2093,
      "ï¼Ł": 2094,
      "Ġcell": 2095,
      "Ġret": 2096,
      "æ¹": 2097,
      "Ġdesign": 2098,
      "Ġserv": 2099,
      "ters": 2100,
      "æ²¡æľī": 2101,
      "Ġaround": 2102,
      "Ġactiv": 2103,
      "åĳĬ": 2104,
      "å¿«": 2105,
      "Ġhim": 2106,
      "\\).": 2107,
      "çĶŁæ´»": 2108,
      "ocial": 2109,
      "å±Ģ": 2110,
      "èĳ": 2111,
      "å½ķ": 2112,
      "ä»Ģä¹Ī": 2113,
      "Ġbody": 2114,
      "åħ³ç³»": 2115,
      "Ġredu": 2116,
      "iversity": 2117,
      "Ġdise": 2118,
      "åı¯èĥ½": 2119,
      "æĸ¹éĿ¢": 2120,
      "Ġsupport": 2121,
      "Ġorgan": 2122,
      "oss": 2123,
      "æİ§åĪ¶": 2124,
      "Ġlook": 2125,
      "å®³": 2126,
      "ä¿ĿæĬ¤": 2127,
      "Ġris": 2128,
      "è¯į": 2129,
      "Ġelect": 2130,
      "ĠYou": 2131,
      "vironment": 2132,
      "ional": 2133,
      "Ġnumbers": 2134,
      "ull": 2135,
      "ah": 2136,
      "é¡¹çĽ®": 2137,
      "æ¼": 2138,
      "æ¤": 2139,
      "day": 2140,
      "Ġmet": 2141,
      "æĪĸèĢħ": 2142,
      "Ġwrit": 2143,
      "åı¥": 2144,
      "Ġgiven": 2145,
      "è¾ĵ": 2146,
      "Ġcle": 2147,
      "olution": 2148,
      "ury": 2149,
      "self": 2150,
      "éļ¾": 2151,
      "Ġdid": 2152,
      "å¾ģ": 2153,
      "Ġbel": 2154,
      "Ġmeas": 2155,
      "éĢīæĭ©": 2156,
      "æĴ": 2157,
      "Ġgreat": 2158,
      "Ġ15": 2159,
      "ental": 2160,
      "èŀ": 2161,
      "Ġcalled": 2162,
      "Ġlarge": 2163,
      "çĭ": 2164,
      "åīĤ": 2165,
      "aj": 2166,
      "è´Ł": 2167,
      "hers": 2168,
      "Ġhuman": 2169,
      "å¯Ĩ": 2170,
      "è§Ĵ": 2171,
      "æĸ¯": 2172,
      "Ġstand": 2173,
      "line": 2174,
      "ĠBut": 2175,
      "Ġ\\(\\": 2176,
      "ital": 2177,
      "çīĩ": 2178,
      "å¾·": 2179,
      "åĲĮæĹ¶": 2180,
      "Ġpar": 2181,
      "ner": 2182,
      "acter": 2183,
      "æĿ¡ä»¶": 2184,
      "ĠAd": 2185,
      "ä¸¥": 2186,
      "æĵ": 2187,
      "ï¼Ĥ": 2188,
      "ash": 2189,
      "åįı": 2190,
      "å§ĭ": 2191,
      "Ġop": 2192,
      "Ġproduct": 2193,
      "çı": 2194,
      "here": 2195,
      "way": 2196,
      "Ġpract": 2197,
      "æĳ": 2198,
      "åİ¿": 2199,
      "åħį": 2200,
      "Ġincluding": 2201,
      "èĪ¬": 2202,
      "Ġallow": 2203,
      "åħħ": 2204,
      "é¡»": 2205,
      "ared": 2206,
      "Ġgovern": 2207,
      "rodu": 2208,
      "è¶³": 2209,
      "Ġchange": 2210,
      "ired": 2211,
      "âĢĵ": 2212,
      "æ¦": 2213,
      "è¯Ŀ": 2214,
      "Ġmethod": 2215,
      "Ġknown": 2216,
      "åı°": 2217,
      "é¦ĸ": 2218,
      "Ġgre": 2219,
      "åº·": 2220,
      "çĮ": 2221,
      "ĠWh": 2222,
      "Ġz": 2223,
      "ä¸Ģç§į": 2224,
      "è¶ħ": 2225,
      "ples": 2226,
      "ected": 2227,
      "ration": 2228,
      "mon": 2229,
      "èİ·": 2230,
      "ouse": 2231,
      "Ġreport": 2232,
      "éĥ¨éĹ¨": 2233,
      "Ġland": 2234,
      "è¡¥": 2235,
      "å·®": 2236,
      "è´¨éĩı": 2237,
      "Ġident": 2238,
      "æ³ķå¾ĭ": 2239,
      "ization": 2240,
      "Ġanal": 2241,
      "æĪĳåĽ½": 2242,
      "åıĪ": 2243,
      "Ġsl": 2244,
      "ĠWhat": 2245,
      "els": 2246,
      "iqu": 2247,
      "ption": 2248,
      "Ġeas": 2249,
      "rt": 2250,
      "æ¯Ĵ": 2251,
      "ä¸ĢèĪ¬": 2252,
      "éļı": 2253,
      "Ġadv": 2254,
      "èµĦæºĲ": 2255,
      "Ġ\\,": 2256,
      "çģ«": 2257,
      "çŃĶ": 2258,
      "60": 2259,
      "iod": 2260,
      "'t": 2261,
      "å¤§åŃ¦": 2262,
      "Ġcare": 2263,
      "Ġproper": 2264,
      "Ġplace": 2265,
      "åºľ": 2266,
      "åĪĩ": 2267,
      "Ġgu": 2268,
      "é¢Ŀ": 2269,
      "ĠAnd": 2270,
      "ä»¥ä¸Ĭ": 2271,
      "Ġthough": 2272,
      "Ġthink": 2273,
      "è®Ń": 2274,
      "çº³": 2275,
      "éļľ": 2276,
      "ĠIs": 2277,
      "ä½ľä¸º": 2278,
      "Ġcour": 2279,
      ",âĢĿ": 2280,
      "åŃ¦æł¡": 2281,
      "ield": 2282,
      "Ġbeh": 2283,
      "40": 2284,
      "åįİ": 2285,
      "aterial": 2286,
      "ç®Ģ": 2287,
      "Ġenergy": 2288,
      "osed": 2289,
      "agn": 2290,
      "ior": 2291,
      "å®ŀçİ°": 2292,
      "Ġsym": 2293,
      "17": 2294,
      "rain": 2295,
      "ered": 2296,
      "Ġbuild": 2297,
      "orn": 2298,
      "ason": 2299,
      "åĪĿ": 2300,
      "Ġeduc": 2301,
      "conom": 2302,
      "å§Ķ": 2303,
      "Ġ199": 2304,
      "Ġinvol": 2305,
      "æĬĹ": 2306,
      "ids": 2307,
      "ination": 2308,
      "éĤ£": 2309,
      "lish": 2310,
      "Ġele": 2311,
      "Ġter": 2312,
      "è¿ŀ": 2313,
      "ä¿ĿéĻ©": 2314,
      "å¸Ĥåľº": 2315,
      "Ġvis": 2316,
      "ta": 2317,
      "Ġtyp": 2318,
      "åĨĽ": 2319,
      "Ġide": 2320,
      "Ġstill": 2321,
      "Ġ,": 2322,
      "Ġoper": 2323,
      "ividual": 2324,
      "Ġtem": 2325,
      "æŀĹ": 2326,
      "ĠLe": 2327,
      "èĤ¡": 2328,
      "Ġchang": 2329,
      "æľºæŀĦ": 2330,
      "ç¬¦": 2331,
      "ug": 2332,
      "Ġmight": 2333,
      "Ġreal": 2334,
      "ĠSp": 2335,
      "outh": 2336,
      "Ġ\\),": 2337,
      "Ġpublic": 2338,
      "åĸĦ": 2339,
      "Ġvalue": 2340,
      "æĸĩåĮĸ": 2341,
      "Ġproblem": 2342,
      "ĠDe": 2343,
      "ources": 2344,
      "Ġwant": 2345,
      "Ġwithout": 2346,
      "æ²¹": 2347,
      "val": 2348,
      "Ġpresent": 2349,
      "Ġmean": 2350,
      "æ¸¸": 2351,
      "ĠThese": 2352,
      "éĿ©": 2353,
      "çº¢": 2354,
      "æľīåħ³": 2355,
      "æĻ®": 2356,
      "ton": 2357,
      "åĪ¶åº¦": 2358,
      "Ġwithin": 2359,
      "èĥŀ": 2360,
      "Ġanother": 2361,
      "Ġexperi": 2362,
      "çŁ³": 2363,
      "æķĻå¸Ī": 2364,
      "oun": 2365,
      "Ġhy": 2366,
      "Ġdirect": 2367,
      "å°±æĺ¯": 2368,
      "åĲ¸": 2369,
      "ries": 2370,
      "ertain": 2371,
      "ĠEng": 2372,
      "Ġrepres": 2373,
      "çĹĩ": 2374,
      "Ġphys": 2375,
      "sq": 2376,
      "æŃ¢": 2377,
      "oms": 2378,
      "bs": 2379,
      "pr": 2380,
      "Ġbas": 2381,
      "Ġcap": 2382,
      "èĨ": 2383,
      "ĠâĢĺ": 2384,
      "çĶ³": 2385,
      "Ġfollowing": 2386,
      "Ġfew": 2387,
      "ense": 2388,
      "Ġplay": 2389,
      "Ġinterest": 2390,
      "ier": 2391,
      "çīĪ": 2392,
      "St": 2393,
      "å¼Ĥ": 2394,
      "ording": 2395,
      "è¡Įä¸º": 2396,
      "crib": 2397,
      "åŁ¹åħ»": 2398,
      "Ġlearn": 2399,
      "uro": 2400,
      "æįŁ": 2401,
      "Ġsecond": 2402,
      "Ġeng": 2403,
      "angu": 2404,
      "Ġpercent": 2405,
      "åĩł": 2406,
      "å¿µ": 2407,
      ",\"": 2408,
      "æĿĲæĸĻ": 2409,
      "âĢ¦": 2410,
      "Ġpur": 2411,
      "tt": 2412,
      "Ġdon": 2413,
      "Ġpass": 2414,
      "Ġ16": 2415,
      "man": 2416,
      "éĺ³": 2417,
      "ified": 2418,
      "ium": 2419,
      "åĬ³åĬ¨": 2420,
      "22": 2421,
      "Ġprof": 2422,
      "ĠRes": 2423,
      "è¾¹": 2424,
      "Ġindividual": 2425,
      "ç¬¬ä¸Ģ": 2426,
      "Ġorder": 2427,
      "éŁ³": 2428,
      "sqrt": 2429,
      "ä»ĭ": 2430,
      "Ġlaw": 2431,
      "Ġsum": 2432,
      "tal": 2433,
      "Ġcirc": 2434,
      "of": 2435,
      "Ġpot": 2436,
      "Ġess": 2437,
      "å°Ķ": 2438,
      "æĶ¿åºľ": 2439,
      "ĊĊĠĠ": 2440,
      "åĩºçİ°": 2441,
      "æ»¡": 2442,
      "Ġcaus": 2443,
      "ĠSh": 2444,
      "port": 2445,
      "æħ": 2446,
      "iving": 2447,
      "å£«": 2448,
      "less": 2449,
      "æīĵ": 2450,
      "ression": 2451,
      "ote": 2452,
      "ĠCl": 2453,
      "Ġlight": 2454,
      "è¶Ĭ": 2455,
      "Ġ17": 2456,
      "æī§": 2457,
      "Ġmaterial": 2458,
      "Ġopp": 2459,
      "Ġproblems": 2460,
      "view": 2461,
      "ç»Ĩèĥŀ": 2462,
      "é©¬": 2463,
      "Ġtop": 2464,
      "äº§åĵģ": 2465,
      "Ġimpro": 2466,
      "Ġenvironment": 2467,
      "æ²»çĸĹ": 2468,
      "Ġproject": 2469,
      "æĪ¿": 2470,
      "ç¾¤": 2471,
      "ĠPh": 2472,
      "å®¤": 2473,
      "æ²³": 2474,
      "åĪ©çĶ¨": 2475,
      "åħŃ": 2476,
      "Ġsocial": 2477,
      "éĺŁ": 2478,
      "arent": 2479,
      "åĽłæŃ¤": 2480,
      "æĤ£èĢħ": 2481,
      "Ġiss": 2482,
      "æļ": 2483,
      "åĬ¿": 2484,
      "æ°´å¹³": 2485,
      "äººçļĦ": 2486,
      "ways": 2487,
      "Ġaddition": 2488,
      "ĠUniversity": 2489,
      "Ġ\\[": 2490,
      "èŀį": 2491,
      "\\),": 2492,
      "ank": 2493,
      "Ġcalcul": 2494,
      "Ġmill": 2495,
      "Ġsit": 2496,
      "ering": 2497,
      "ained": 2498,
      "é»Ħ": 2499,
      "æ¤į": 2500,
      "ç§»": 2501,
      "Ġinclude": 2502,
      "ining": 2503,
      "par": 2504,
      "é¾": 2505,
      "alk": 2506,
      "Ġpossible": 2507,
      "me": 2508,
      "Ġmeans": 2509,
      "oint": 2510,
      "æ¦Ĥ": 2511,
      "èĲ½": 2512,
      "å½¢æĪĲ": 2513,
      "å¿Ĺ": 2514,
      "orth": 2515,
      "æ±Ł": 2516,
      "ç£": 2517,
      "Ġet": 2518,
      "æį¢": 2519,
      "ccess": 2520,
      "Ġbre": 2521,
      "Ġorig": 2522,
      "Ġobject": 2523,
      "å®ŀéªĮ": 2524,
      "Ġdevelopment": 2525,
      "Ġant": 2526,
      "äºĴ": 2527,
      "Ġrest": 2528,
      "atural": 2529,
      "21": 2530,
      "èĭ±": 2531,
      "Ġfour": 2532,
      "è¿Ļä¸ª": 2533,
      "èī¯": 2534,
      "Ġdeterm": 2535,
      "ards": 2536,
      "Ġlim": 2537,
      ".(": 2538,
      "iness": 2539,
      "åĲ¦": 2540,
      "amp": 2541,
      "Ġimm": 2542,
      "ä¸įèĥ½": 2543,
      "å®ŀæĸ½": 2544,
      "ource": 2545,
      "cd": 2546,
      "Ġbest": 2547,
      "hor": 2548,
      "Ġnon": 2549,
      "ç»¼": 2550,
      "Ġgroup": 2551,
      "Ġmark": 2552,
      "ĠTo": 2553,
      "Ġmil": 2554,
      "Ġlast": 2555,
      "å¾®": 2556,
      "åĬŁèĥ½": 2557,
      "ences": 2558,
      "az": 2559,
      "å¯¹äºİ": 2560,
      "It": 2561,
      "Ġben": 2562,
      "Ġsqu": 2563,
      "æ¿": 2564,
      "ats": 2565,
      "æ°§": 2566,
      "çĲĨè®º": 2567,
      "ilar": 2568,
      "stit": 2569,
      "Ġcurrent": 2570,
      "cing": 2571,
      "åı¤": 2572,
      "åĲĪåĲĮ": 2573,
      "ication": 2574,
      "Ġhome": 2575,
      "ajor": 2576,
      "ä¸Ģå®ļ": 2577,
      "rop": 2578,
      "Ġprob": 2579,
      "Ġhere": 2580,
      "ĠHowever": 2581,
      "ä»ħ": 2582,
      "ĠPl": 2583,
      "è½½": 2584,
      "Ġdisease": 2585,
      "Ġmove": 2586,
      "èīº": 2587,
      "çĽ®æłĩ": 2588,
      "è´£ä»»": 2589,
      "We": 2590,
      "å¿ħé¡»": 2591,
      "åĽº": 2592,
      "ological": 2593,
      "gin": 2594,
      "Ġvol": 2595,
      "å¤Ł": 2596,
      "app": 2597,
      "100": 2598,
      "åºĶå½ĵ": 2599,
      "ope": 2600,
      "80": 2601,
      "ĠZ": 2602,
      "ä¹Ĳ": 2603,
      "Ġlow": 2604,
      "Ġprogram": 2605,
      "Ġrad": 2606,
      "ĠAmerican": 2607,
      "eral": 2608,
      "ians": 2609,
      "Ġbelie": 2610,
      "Ġwomen": 2611,
      "An": 2612,
      "Ġtimes": 2613,
      "Ġoccur": 2614,
      "æĵį": 2615,
      "Ġsever": 2616,
      "Ġparticular": 2617,
      "oid": 2618,
      "æĻ¯": 2619,
      "æī¹": 2620,
      "ived": 2621,
      "åį«": 2622,
      "åĽŃ": 2623,
      "ä¸ĸçķĮ": 2624,
      "Ġold": 2625,
      "Ġmus": 2626,
      "Ġsay": 2627,
      "Ġprovide": 2628,
      "ients": 2629,
      "Ġpain": 2630,
      "Ġdev": 2631,
      "åŃĺåľ¨": 2632,
      "å¼ł": 2633,
      "min": 2634,
      "swer": 2635,
      "ern": 2636,
      "æİ¢": 2637,
      "...": 2638,
      "å»ºç«ĭ": 2639,
      "ä¹ĭéĹ´": 2640,
      "ä¸»ä¹ī": 2641,
      "Ġbetter": 2642,
      "Ġinteg": 2643,
      "hemat": 2644,
      "utions": 2645,
      "ä¾¿": 2646,
      "ä¸´": 2647,
      "Ġel": 2648,
      "ret": 2649,
      "ĠWhen": 2650,
      "Ġleg": 2651,
      "Ġche": 2652,
      "ently": 2653,
      "æĭħ": 2654,
      "Ġcontrol": 2655,
      "arc": 2656,
      "If": 2657,
      "èıĮ": 2658,
      "angle": 2659,
      "æ¿Ģ": 2660,
      "Ġrisk": 2661,
      "åıĮ": 2662,
      "put": 2663,
      "å¢ŀåĬł": 2664,
      "Ġcase": 2665,
      "Ġperform": 2666,
      "ç»ĥ": 2667,
      "ills": 2668,
      "Ġblood": 2669,
      "Ġcost": 2670,
      "Ġperiod": 2671,
      "Ġhig": 2672,
      "æľīæķĪ": 2673,
      "icle": 2674,
      "br": 2675,
      "äºī": 2676,
      "Ġcult": 2677,
      "imal": 2678,
      "lished": 2679,
      "Ġwar": 2680,
      "å®ŀéĻħ": 2681,
      "ole": 2682,
      "lu": 2683,
      "Ġbecome": 2684,
      "Ġfin": 2685,
      "ç¬¬äºĮ": 2686,
      "Ġexam": 2687,
      "Ġmulti": 2688,
      "ç»ĵæŀľ": 2689,
      "24": 2690,
      "What": 2691,
      "erc": 2692,
      "sc": 2693,
      "èĽ": 2694,
      "è®¸": 2695,
      "ä¼¤": 2696,
      "Ġagainst": 2697,
      "Ġeconom": 2698,
      "Ġes": 2699,
      "Ġgovernment": 2700,
      "åľ°åĮº": 2701,
      "Ġsince": 2702,
      "Ġ14": 2703,
      "åĤ": 2704,
      "æĹı": 2705,
      "idence": 2706,
      "åĥ": 2707,
      "åĢº": 2708,
      "äº§çĶŁ": 2709,
      "Ġtoo": 2710,
      "Ġsignific": 2711,
      "ware": 2712,
      "åĿļ": 2713,
      "åĭ": 2714,
      "Ġindu": 2715,
      "åĬłå¼º": 2716,
      "å¹¼": 2717,
      "Ġavail": 2718,
      "Ġpri": 2719,
      "ĠCan": 2720,
      "Ġearly": 2721,
      "Ġair": 2722,
      "ission": 2723,
      "Ġang": 2724,
      "etic": 2725,
      "Ġ11": 2726,
      "å±ħ": 2727,
      "ĠâĢĶ": 2728,
      "ocus": 2729,
      "ctions": 2730,
      "ode": 2731,
      "ĠCol": 2732,
      "å°Ħ": 2733,
      "ç»ĵåĲĪ": 2734,
      "çĶŁçī©": 2735,
      "Ġtre": 2736,
      "çĪ±": 2737,
      "Ġ30": 2738,
      "Ġkeep": 2739,
      "ç»¼åĲĪ": 2740,
      "}}": 2741,
      "Ġ'": 2742,
      "rist": 2743,
      "åł": 2744,
      "éĶĢ": 2745,
      "Ġ13": 2746,
      "//": 2747,
      "å¯Ł": 2748,
      "Ġlet": 2749,
      "éĿĴ": 2750,
      "éĩĩçĶ¨": 2751,
      "è®²": 2752,
      "åħ¶ä¸Ń": 2753,
      "çĶ±äºİ": 2754,
      "pect": 2755,
      "(\\": 2756,
      "Ġfre": 2757,
      "å£°": 2758,
      "Ġbased": 2759,
      "è®¾å¤ĩ": 2760,
      "ograph": 2761,
      "23": 2762,
      "åģ¥åº·": 2763,
      "ention": 2764,
      "Ġunt": 2765,
      "ä»Ĭ": 2766,
      "æĭī": 2767,
      "ctor": 2768,
      "Ġmajor": 2769,
      "Ġseveral": 2770,
      "è¿ĻäºĽ": 2771,
      "Ġlangu": 2772,
      "Ġfore": 2773,
      "çļĦæĺ¯": 2774,
      "è¯Ĺ": 2775,
      "Ġside": 2776,
      "Ġlearning": 2777,
      "ä½ı": 2778,
      "ĠQu": 2779,
      "Ġlo": 2780,
      "åı¶": 2781,
      "ength": 2782,
      "æĿ¿": 2783,
      "ä¿ĥ": 2784,
      "åĽ¢": 2785,
      "ead": 2786,
      "çķ¥": 2787,
      "ä¹¡": 2788,
      "ä»½": 2789,
      "çĨ": 2790,
      "æĬķèµĦ": 2791,
      "ogn": 2792,
      "Ġopen": 2793,
      "ç»ľ": 2794,
      "åįł": 2795,
      "è¯¾ç¨ĭ": 2796,
      "Ġfamily": 2797,
      "ãĢĢ": 2798,
      "åıĳçİ°": 2799,
      "æīĢæľī": 2800,
      "çĸ¾": 2801,
      "Ġcause": 2802,
      "ends": 2803,
      "Ġhapp": 2804,
      "Ġ)": 2805,
      "Ġareas": 2806,
      "Ġable": 2807,
      "Ġhistory": 2808,
      "éĩįçĤ¹": 2809,
      "Ġstruct": 2810,
      "ised": 2811,
      "use": 2812,
      "face": 2813,
      "ling": 2814,
      "åıĺåĮĸ": 2815,
      "åĪĽæĸ°": 2816,
      "not": 2817,
      "work": 2818,
      "urther": 2819,
      "æĤ¨": 2820,
      "ames": 2821,
      "äºļ": 2822,
      "ided": 2823,
      "é¼": 2824,
      "left": 2825,
      "Ġnear": 2826,
      "ä½ĵç³»": 2827,
      "ox": 2828,
      "Ġmar": 2829,
      "ray": 2830,
      "aper": 2831,
      "ina": 2832,
      "çĸ«": 2833,
      "$$": 2834,
      "æŁĲ": 2835,
      "Ġ100": 2836,
      "å¤ª": 2837,
      "å¯Į": 2838,
      "çĻ¾": 2839,
      "ãĢĳ": 2840,
      "over": 2841,
      "Ġbi": 2842,
      "ek": 2843,
      "Ġrepresent": 2844,
      "ãĢĲ": 2845,
      "gen": 2846,
      "Ġamount": 2847,
      "ww": 2848,
      "Ġdra": 2849,
      "å¼Ģå±ķ": 2850,
      "cdot": 2851,
      "ç«Ļ": 2852,
      "å·ŀ": 2853,
      "èĢĥè¯ķ": 2854,
      "æ±¡": 2855,
      "ler": 2856,
      "ĠUnited": 2857,
      "Ġlist": 2858,
      "Ġmen": 2859,
      "åĽ½éĻħ": 2860,
      "Ġcond": 2861,
      "Ġspecies": 2862,
      "ĠEn": 2863,
      "Ġamong": 2864,
      "Ġaffect": 2865,
      "Ġtype": 2866,
      "ä¸ªäºº": 2867,
      "ended": 2868,
      "Ġname": 2869,
      "{\\": 2870,
      "For": 2871,
      "ä»¥ä¸ĭ": 2872,
      "Ġequation": 2873,
      "Ġpost": 2874,
      "å¥³": 2875,
      "ories": 2876,
      "\",": 2877,
      "NA": 2878,
      "\".": 2879,
      "Ġcomb": 2880,
      "math": 2881,
      "Ġfree": 2882,
      "Ġcertain": 2883,
      "Ġhead": 2884,
      "ĠTe": 2885,
      "æ³¨æĦı": 2886,
      "èįī": 2887,
      "ume": 2888,
      "ç«¯": 2889,
      "Ġcomput": 2890,
      "ables": 2891,
      "Ġbus": 2892,
      "ĊĠĠĠ": 2893,
      "Ġsaf": 2894,
      "Ġplant": 2895,
      "Ġscient": 2896,
      "Ġthings": 2897,
      "çªģ": 2898,
      "Ġsays": 2899,
      "çĶ¨äºİ": 2900,
      "Ġmeasure": 2901,
      "ither": 2902,
      "åĥı": 2903,
      "ird": 2904,
      "å¾Ģ": 2905,
      "ç»§": 2906,
      "çıŃ": 2907,
      "sy": 2908,
      "èĩªçĦ¶": 2909,
      "çİĭ": 2910,
      "pecial": 2911,
      "Ġsec": 2912,
      "éĺ¶": 2913,
      "ysis": 2914,
      "Ġconn": 2915,
      "cos": 2916,
      "ä»ĺ": 2917,
      "åĪ¤": 2918,
      "æłĳ": 2919,
      "ĠAt": 2920,
      "Ġabove": 2921,
      "mit": 2922,
      "):": 2923,
      "çŃĳ": 2924,
      "Ġfocus": 2925,
      "Ġrun": 2926,
      "Ġconsider": 2927,
      "Ġavailable": 2928,
      "è·µ": 2929,
      "verse": 2930,
      "though": 2931,
      "è¯ī": 2932,
      "Ġmonth": 2933,
      "Ch": 2934,
      "Ġdel": 2935,
      "æĮīçħ§": 2936,
      "Ġothers": 2937,
      "ä¸Ńå¿ĥ": 2938,
      "Ġbenef": 2939,
      "ances": 2940,
      "aces": 2941,
      "åħ´": 2942,
      "çĭ¬": 2943,
      "æĶ¿çŃĸ": 2944,
      "Ġapplic": 2945,
      "Ġterm": 2946,
      "æı¡": 2947,
      "elf": 2948,
      "èģĮä¸ļ": 2949,
      "hy": 2950,
      "Ġcho": 2951,
      "Ġage": 2952,
      "Ġfeel": 2953,
      "ä»ĸä»¬": 2954,
      "äº§ä¸ļ": 2955,
      "æĢ¥": 2956,
      "Ġcome": 2957,
      "ç´¢": 2958,
      "Ġflow": 2959,
      "be": 2960,
      "Ġdig": 2961,
      "ik": 2962,
      "ç¨³": 2963,
      "èĮĥåĽ´": 2964,
      "une": 2965,
      "è¡ĮæĶ¿": 2966,
      "ument": 2967,
      "ä¸ĢäºĽ": 2968,
      "Ġput": 2969,
      "Ġcountry": 2970,
      "Ġnatural": 2971,
      "æĵįä½ľ": 2972,
      "æĺŁ": 2973,
      "Ġpress": 2974,
      "Ġdiv": 2975,
      "åİĨåı²": 2976,
      "æıĲåĩº": 2977,
      "ç»Ī": 2978,
      "ably": 2979,
      "çĵ": 2980,
      "Ġlab": 2981,
      "Ġconcept": 2982,
      "ape": 2983,
      "Ġdue": 2984,
      "ç³ĸ": 2985,
      "Ġi": 2986,
      "ggest": 2987,
      "Ġsuccess": 2988,
      "Ġleft": 2989,
      "ember": 2990,
      "ĠGod": 2991,
      "ula": 2992,
      "ploy": 2993,
      "Ġresults": 2994,
      "Ġcr": 2995,
      "Ġvarious": 2996,
      "Ġview": 2997,
      "äºĨè§£": 2998,
      "osp": 2999,
      "####": 3000,
      "ĠSo": 3001,
      "199": 3002,
      "è¿ľ": 3003,
      "ä¼Ĺ": 3004,
      "Ġrece": 3005,
      "çŁŃ": 3006,
      "pos": 3007,
      "Ġassoci": 3008,
      "ç½ĳç»ľ": 3009,
      "Ġsignificant": 3010,
      "To": 3011,
      "oks": 3012,
      "ĠSy": 3013,
      "çĩ": 3014,
      "çĶ³è¯·": 3015,
      "æ¯Ķè¾ĥ": 3016,
      "Ġdays": 3017,
      "rect": 3018,
      "ĠBe": 3019,
      "Ġalways": 3020,
      "è´§": 3021,
      "çĤİ": 3022,
      "Ġspace": 3023,
      "icult": 3024,
      "Ġtreatment": 3025,
      "ĠStates": 3026,
      "Ġstep": 3027,
      "ä»¤": 3028,
      "å¤§çļĦ": 3029,
      "è¿Ļæł·": 3030,
      "Ġmaking": 3031,
      "for": 3032,
      "Ġprevent": 3033,
      "rap": 3034,
      "eter": 3035,
      "Ġobs": 3036,
      "Ġaccess": 3037,
      "Ġer": 3038,
      "å®ŀè·µ": 3039,
      "åĢĻ": 3040,
      "æ³¢": 3041,
      "vert": 3042,
      "Ġlittle": 3043,
      "æĲ": 3044,
      "ĠX": 3045,
      "aining": 3046,
      "æ£ĢæŁ¥": 3047,
      "åħ¨åĽ½": 3048,
      "Ġsystems": 3049,
      "ĠOr": 3050,
      "vious": 3051,
      "å¦Ĥä½ķ": 3052,
      "70": 3053,
      "ĠCent": 3054,
      "ours": 3055,
      "Ġinvest": 3056,
      "Ġturn": 3057,
      "Ġsimilar": 3058,
      "å¥½çļĦ": 3059,
      "Ġfar": 3060,
      "ones": 3061,
      "Ġleast": 3062,
      "Ġsing": 3063,
      "Ġalong": 3064,
      "Ġdescrib": 3065,
      "Ġtru": 3066,
      "Ġpotential": 3067,
      "Ġgr": 3068,
      "ators": 3069,
      "åºĬ": 3070,
      "ĠOn": 3071,
      "rix": 3072,
      "ately": 3073,
      "pi": 3074,
      "Ġsuggest": 3075,
      "Ġlevels": 3076,
      "èĳĹ": 3077,
      "SA": 3078,
      "åºķ": 3079,
      "Ġuntil": 3080,
      "Ġmov": 3081,
      "Ġsw": 3082,
      "bra": 3083,
      "é£İéĻ©": 3084,
      "æĭĽ": 3085,
      "Ġbook": 3086,
      "éĶ®": 3087,
      "ething": 3088,
      "Ġhard": 3089,
      "Ġcells": 3090,
      "Ġmot": 3091,
      "Ġworks": 3092,
      "Ġlocal": 3093,
      "æĹ©": 3094,
      "Ġrelations": 3095,
      "Ġbro": 3096,
      "å®¢": 3097,
      "Ġ25": 3098,
      "è¡¨ç¤º": 3099,
      "ç¡®å®ļ": 3100,
      "ively": 3101,
      "åįĬ": 3102,
      "Ġintern": 3103,
      "urope": 3104,
      "Ġshort": 3105,
      ")^": 3106,
      "çļ®": 3107,
      "omething": 3108,
      "Ġdiscuss": 3109,
      "Ġpopulation": 3110,
      "Ġcreat": 3111,
      "Âł": 3112,
      "ged": 3113,
      "ĠWor": 3114,
      "There": 3115,
      "ç¼º": 3116,
      "ledge": 3117,
      "ĠAll": 3118,
      "èĥ½å¤Ł": 3119,
      "ane": 3120,
      "Ex": 3121,
      "æĪĲä¸º": 3122,
      "Ġspecific": 3123,
      "è§£åĨ³": 3124,
      "Ġbehav": 3125,
      "åį±": 3126,
      "æīĢä»¥": 3127,
      "How": 3128,
      "sin": 3129,
      "idd": 3130,
      "éķĩ": 3131,
      "äºĪ": 3132,
      "è¾¾åĪ°": 3133,
      "ä¿Ŀéļľ": 3134,
      "ä¸¾": 3135,
      "åħ«": 3136,
      "Ġimpact": 3137,
      "çĽ´æİ¥": 3138,
      "Ġtemper": 3139,
      "ç»¿": 3140,
      "çĶ»": 3141,
      "Ġlater": 3142,
      "aken": 3143,
      "Ġseem": 3144,
      "ä¸ĥ": 3145,
      "``": 3146,
      "por": 3147,
      "åħ·ä½ĵ": 3148,
      "è¿ĲåĬ¨": 3149,
      "éĴĪ": 3150,
      "inc": 3151,
      "verage": 3152,
      "aster": 3153,
      "Ġnext": 3154,
      "lo": 3155,
      "ç¨ĭåºı": 3156,
      "ule": 3157,
      "åıįåºĶ": 3158,
      "Ġvir": 3159,
      "ma": 3160,
      "æľĽ": 3161,
      "uture": 3162,
      "Ġtoget": 3163,
      "Ġtogether": 3164,
      "Ġdri": 3165,
      "Ġrate": 3166,
      "Ġappear": 3167,
      "ending": 3168,
      "aps": 3169,
      "çĶ²": 3170,
      "Ġgeneral": 3171,
      "Ġclear": 3172,
      "alf": 3173,
      "åºĵ": 3174,
      "éĵ¶": 3175,
      "Ġincrease": 3176,
      "atory": 3177,
      "çķĻ": 3178,
      "è®¡åĪĴ": 3179,
      "ä¸ĢæŃ¥": 3180,
      "æİª": 3181,
      "ges": 3182,
      "å¨": 3183,
      "çļĦäºº": 3184,
      "Ġquestion": 3185,
      "Ġgive": 3186,
      "Ġcrit": 3187,
      "erence": 3188,
      "åĽłä¸º": 3189,
      "========": 3190,
      "ä½Ļ": 3191,
      "ortun": 3192,
      "è½»": 3193,
      "Ġprom": 3194,
      "Ġneg": 3195,
      "asing": 3196,
      "æĻº": 3197,
      "åŃ©": 3198,
      "åĨľä¸ļ": 3199,
      "Ġcourse": 3200,
      "æĸĩä»¶": 3201,
      "Ġwords": 3202,
      "Ġconditions": 3203,
      "æŃ»": 3204,
      "å¹¼åĦ¿": 3205,
      "å®ĮæĪĲ": 3206,
      "ateg": 3207,
      "As": 3208,
      "Ġwr": 3209,
      "å»ºçŃĳ": 3210,
      "ĠNational": 3211,
      "Ġtext": 3212,
      "Ġindust": 3213,
      "Ġyoung": 3214,
      "Ġheart": 3215,
      "æīĺ": 3216,
      "æİĮ": 3217,
      "omm": 3218,
      "oot": 3219,
      "ohn": 3220,
      "Ġfac": 3221,
      "ĠInt": 3222,
      "æĢĿæĥ³": 3223,
      "ored": 3224,
      "å½¢å¼ı": 3225,
      "é¸": 3226,
      "by": 3227,
      "Ġmass": 3228,
      "Ġpolit": 3229,
      "Ġteac": 3230,
      "çłģ": 3231,
      "åı¦": 3232,
      "ä¸¤ä¸ª": 3233,
      "Ġsomething": 3234,
      "Ġcy": 3235,
      "åĩ½": 3236,
      "çł´": 3237,
      "ĠAf": 3238,
      "Ġwhy": 3239,
      "lam": 3240,
      "agement": 3241,
      "Ġcomplete": 3242,
      "Ġeducation": 3243,
      "Ġ\\\\": 3244,
      "éĩĬ": 3245,
      "èĨľ": 3246,
      "Ġrele": 3247,
      "Ġ<": 3248,
      "æŃ£ç¡®": 3249,
      "æ¯į": 3250,
      "ĠSci": 3251,
      "Ġspecial": 3252,
      "çĶŁæĢģ": 3253,
      "èĽĭ": 3254,
      "Ġask": 3255,
      "Ġlanguage": 3256,
      "Ġcharacter": 3257,
      "ãĢĤï¼Ī": 3258,
      "Ġways": 3259,
      "Ġlikely": 3260,
      "åĵª": 3261,
      "è¡¨çİ°": 3262,
      "åħ³äºİ": 3263,
      "Ġenc": 3264,
      "éģĹ": 3265,
      "å¼Ģå§ĭ": 3266,
      "ann": 3267,
      "ĠEurope": 3268,
      ");": 3269,
      "icro": 3270,
      "ĠTr": 3271,
      "éĢģ": 3272,
      "Ġnorm": 3273,
      "çĻ»": 3274,
      "åħ¨éĿ¢": 3275,
      "æĽ²": 3276,
      "Ġill": 3277,
      "Ġnecess": 3278,
      "éĻĦ": 3279,
      "å°½": 3280,
      "Ġtry": 3281,
      "co": 3282,
      "fficient": 3283,
      "Ġusually": 3284,
      "Ġtotal": 3285,
      "çī¹çĤ¹": 3286,
      "è´Ń": 3287,
      "èĴ": 3288,
      "ER": 3289,
      "cri": 3290,
      "Ġexist": 3291,
      "Ġcreate": 3292,
      "äº¬": 3293,
      "Ġchanges": 3294,
      "ĠChrist": 3295,
      "åĮĸåŃ¦": 3296,
      "æī§è¡Į": 3297,
      "Ġdifficult": 3298,
      "Ġhigher": 3299,
      "ç¿": 3300,
      "Ġtool": 3301,
      "æĺ¯åĲ¦": 3302,
      "æ¼Ķ": 3303,
      "oring": 3304,
      "æĮĩå¯¼": 3305,
      "èĭ¥": 3306,
      "ä¸ĬçļĦ": 3307,
      "28": 3308,
      "Ġacross": 3309,
      "å¾Ħ": 3310,
      "Ġdem": 3311,
      "ä»·åĢ¼": 3312,
      "ç¬¬ä¸ī": 3313,
      "ĠSol": 3314,
      "Ġfund": 3315,
      "âĢĶâĢĶ": 3316,
      "ique": 3317,
      "Ġdeg": 3318,
      "ç¯": 3319,
      "Ġterms": 3320,
      "ilities": 3321,
      "æĶ¹éĿ©": 3322,
      "Ġunderstanding": 3323,
      "35": 3324,
      "atch": 3325,
      "ĠEar": 3326,
      "Ġcomplex": 3327,
      "Ġlength": 3328,
      "Ġdeath": 3329,
      "Ġrange": 3330,
      "å·¦": 3331,
      "Ġfil": 3332,
      "é¢ĳ": 3333,
      "ç½ª": 3334,
      "åįĥ": 3335,
      "å¯¼èĩ´": 3336,
      "Ġkey": 3337,
      "pecially": 3338,
      "Ġnet": 3339,
      "27": 3340,
      "Ġmodel": 3341,
      "45": 3342,
      "çİ°ä»£": 3343,
      "Ġmillion": 3344,
      "utes": 3345,
      "________": 3346,
      "cle": 3347,
      "åºŃ": 3348,
      "ĠGe": 3349,
      "ç§¯æŀģ": 3350,
      "éĵģ": 3351,
      "---": 3352,
      "Ġexpress": 3353,
      "åı³": 3354,
      "åĲĪä½ľ": 3355,
      "Ġparent": 3356,
      "Ġcommunity": 3357,
      "Ġauthor": 3358,
      "Ġfield": 3359,
      "ruction": 3360,
      "AT": 3361,
      "aves": 3362,
      "åİŁåĪĻ": 3363,
      "çºª": 3364,
      "è¯Ĭ": 3365,
      "ification": 3366,
      "lying": 3367,
      "26": 3368,
      "oney": 3369,
      "Ġey": 3370,
      "å·¥ä¸ļ": 3371,
      "omes": 3372,
      "åį°": 3373,
      "ison": 3374,
      "æº¶": 3375,
      "Ġ50": 3376,
      "çĺ": 3377,
      "Ġpoints": 3378,
      "çĶµåŃĲ": 3379,
      "ociety": 3380,
      "istic": 3381,
      "Ġvalues": 3382,
      "åħ¸": 3383,
      "ç»ıèĲ¥": 3384,
      "Ġbegin": 3385,
      "åĿĹ": 3386,
      "Ġtechnology": 3387,
      "mathb": 3388,
      "æĿĤ": 3389,
      "è¿Ļç§į": 3390,
      "Ġneeds": 3391,
      "Ġ/": 3392,
      "}\\": 3393,
      "raction": 3394,
      "æİĪ": 3395,
      "çļĦä¸Ģ": 3396,
      "ĠMed": 3397,
      "Ġrequire": 3398,
      "é²": 3399,
      "Ġreason": 3400,
      "Ġrecord": 3401,
      "af": 3402,
      "åŃ£": 3403,
      "èĤĿ": 3404,
      "Ġstat": 3405,
      "imals": 3406,
      "çĲĨè§£": 3407,
      "æĶ¯æĮģ": 3408,
      "reen": 3409,
      "ç²¾ç¥ŀ": 3410,
      "Ġcontinu": 3411,
      "Ġcolle": 3412,
      "ĠOne": 3413,
      "Ġwhether": 3414,
      "æĺ¥": 3415,
      "Ġtoday": 3416,
      "Ġopt": 3417,
      "Ġbelow": 3418,
      "Ġfuture": 3419,
      "åĨĮ": 3420,
      "Ġexperience": 3421,
      "}\\)": 3422,
      "Ġindic": 3423,
      "Ġworking": 3424,
      "let": 3425,
      "most": 3426,
      "å·²ç»ı": 3427,
      "Ġaway": 3428,
      "æķ°åŃ¦": 3429,
      "Ġstrong": 3430,
      "Ġestab": 3431,
      "rug": 3432,
      "åıĭ": 3433,
      "éĨ": 3434,
      "obal": 3435,
      "Ġcentury": 3436,
      "Ġhowever": 3437,
      "èİ·å¾Ĺ": 3438,
      "Ġdr": 3439,
      "Ġge": 3440,
      "ä¿ĥè¿Ľ": 3441,
      "Ġprofess": 3442,
      "è®¤ä¸º": 3443,
      "å¼Ģåıĳ": 3444,
      "itud": 3445,
      "aring": 3446,
      "Ġreturn": 3447,
      "åĮ»çĸĹ": 3448,
      "Ġnever": 3449,
      "Ġkind": 3450,
      "ales": 3451,
      "èµ°": 3452,
      "æľºåĪ¶": 3453,
      "åĩ½æķ°": 3454,
      "iation": 3455,
      "çĹĽ": 3456,
      "Ġwhole": 3457,
      "æķ£": 3458,
      "orts": 3459,
      "blem": 3460,
      "Ġsquare": 3461,
      "æİªæĸ½": 3462,
      "Ġquestions": 3463,
      "è§ĦåĪĴ": 3464,
      "Ġinit": 3465,
      "Ġhaving": 3466,
      "ĠBy": 3467,
      "usion": 3468,
      "ä¼°": 3469,
      "Ġrespons": 3470,
      "è¿ĩç¨ĭä¸Ń": 3471,
      "Ġpast": 3472,
      "æĴŃ": 3473,
      "Ġtypes": 3474,
      "çĿ£": 3475,
      "èĤ¥": 3476,
      "ä»£è¡¨": 3477,
      "Ġsubject": 3478,
      "Ġcases": 3479,
      "ä¸įæĸŃ": 3480,
      "enn": 3481,
      "åĨľæĿĳ": 3482,
      "Ġfurther": 3483,
      "ont": 3484,
      "Ġgoing": 3485,
      "Ġdam": 3486,
      "æ··": 3487,
      "Ġpred": 3488,
      "åĽłç´ł": 3489,
      "ç¢³": 3490,
      "åĪĨåĪ«": 3491,
      "åŁİå¸Ĥ": 3492,
      "omin": 3493,
      "Ġsurface": 3494,
      "Ġens": 3495,
      "90": 3496,
      "side": 3497,
      "åĽ°": 3498,
      "Ġeffects": 3499,
      "Ġcancer": 3500,
      "èĩªå·±çļĦ": 3501,
      "éģ¿": 3502,
      "ä¹Ŀ": 3503,
      "ĠBl": 3504,
      "åĲĦç§į": 3505,
      "æ¯ķ": 3506,
      "æİĮæı¡": 3507,
      "è¿Ľä¸ĢæŃ¥": 3508,
      "://": 3509,
      "åŃ©åŃĲ": 3510,
      "aching": 3511,
      "Ġpositive": 3512,
      "Ġrelationship": 3513,
      "æ¥": 3514,
      "Ġenough": 3515,
      "mber": 3516,
      "ĠBrit": 3517,
      "ĠAfric": 3518,
      "ptoms": 3519,
      "èģļ": 3520,
      "Ġimprove": 3521,
      "sing": 3522,
      "Ġfull": 3523,
      "Ġsize": 3524,
      "Ġprim": 3525,
      "Ġplants": 3526,
      "epend": 3527,
      "éª¨": 3528,
      "ĠSc": 3529,
      "Ġcountries": 3530,
      "Ġresearc": 3531,
      "é¢ĨåŁŁ": 3532,
      "ç§ĳæĬĢ": 3533,
      "Ġaccount": 3534,
      "Ġequal": 3535,
      "èĦĳ": 3536,
      "èµĽ": 3537,
      "åıĬæĹ¶": 3538,
      "éĢĲ": 3539,
      "Ġinflu": 3540,
      "edi": 3541,
      "åģ¿": 3542,
      "thing": 3543,
      "Ġeither": 3544,
      "Ġâ": 3545,
      "Ġbusiness": 3546,
      "ires": 3547,
      "æĺ¯æĮĩ": 3548,
      "Ġespecially": 3549,
      "rel": 3550,
      "æĮ¥": 3551,
      "ush": 3552,
      "Ġbrain": 3553,
      "ä¼ļè®¡": 3554,
      "äº«": 3555,
      "Ġword": 3556,
      "Ġpaper": 3557,
      "Ġfactors": 3558,
      "Ġanswer": 3559,
      "ream": 3560,
      "åĩ»": 3561,
      "è§ĦèĮĥ": 3562,
      "Ġabs": 3563,
      "å¸®": 3564,
      "Ġlower": 3565,
      "36": 3566,
      "å¾ħ": 3567,
      "Ġmakes": 3568,
      "Ġteam": 3569,
      "Ġstudies": 3570,
      "ä¹Łæĺ¯": 3571,
      "selves": 3572,
      "pro": 3573,
      "æİ¨è¿Ľ": 3574,
      "åĤ¨": 3575,
      "Ġdone": 3576,
      "éĶĻ": 3577,
      "ym": 3578,
      "Ġground": 3579,
      "ĠEnglish": 3580,
      "çĽ®åīį": 3581,
      "è½¯": 3582,
      "æ±ī": 3583,
      "çī©è´¨": 3584,
      "Ġknowledge": 3585,
      "ivity": 3586,
      "ĠWith": 3587,
      "Ġmathemat": 3588,
      "ley": 3589,
      "ç»į": 3590,
      "oman": 3591,
      "ĠGen": 3592,
      "èµĦäº§": 3593,
      "ilt": 3594,
      "ready": 3595,
      "iting": 3596,
      "nal": 3597,
      "chie": 3598,
      "\\_": 3599,
      "duct": 3600,
      "ĠStud": 3601,
      "ott": 3602,
      "Ġforce": 3603,
      "ising": 3604,
      "Ġ24": 3605,
      "Ġfrequ": 3606,
      "str": 3607,
      "75": 3608,
      "rams": 3609,
      "allen": 3610,
      "ç¬¦åĲĪ": 3611,
      "Ġsimple": 3612,
      "æĺİç¡®": 3613,
      "ĠJohn": 3614,
      "åį¡": 3615,
      "Ġder": 3616,
      "mat": 3617,
      "plic": 3618,
      "Ġchem": 3619,
      "ĠGo": 3620,
      "æķĳ": 3621,
      "Ġprovides": 3622,
      "éĺ¶æ®µ": 3623,
      "åľĨ": 3624,
      "æľ¨": 3625,
      "è¯Ħä»·": 3626,
      "Ġrole": 3627,
      "Al": 3628,
      "èĹ": 3629,
      "çľ¼": 3630,
      "Ġgroups": 3631,
      "ibility": 3632,
      "åį«çĶŁ": 3633,
      "aim": 3634,
      "Ġdistrib": 3635,
      "ï½": 3636,
      "Pro": 3637,
      "Ġ*": 3638,
      "Ġsingle": 3639,
      "ties": 3640,
      "ĠIm": 3641,
      "ĠPr": 3642,
      "æ¨¡å¼ı": 3643,
      "Ġbig": 3644,
      "ask": 3645,
      "equ": 3646,
      "æī©": 3647,
      "ches": 3648,
      "Ġsens": 3649,
      "åŁ¹è®Ń": 3650,
      "å¾ĹåĪ°": 3651,
      "ured": 3652,
      "ç¥¨": 3653,
      "ĠThat": 3654,
      "atures": 3655,
      "èĦī": 3656,
      "sh": 3657,
      "åĩıå°ĳ": 3658,
      "è¯¯": 3659,
      "Ġred": 3660,
      "Ġself": 3661,
      "åĨ·": 3662,
      "ä¸įæĺ¯": 3663,
      "éĢłæĪĲ": 3664,
      "33": 3665,
      "Ġsolution": 3666,
      "éĩıçļĦ": 3667,
      "29": 3668,
      "æĶ¶åħ¥": 3669,
      "Ġfive": 3670,
      "Ġ:": 3671,
      "rict": 3672,
      "apt": 3673,
      "å½Ĵ": 3674,
      "ĠGerm": 3675,
      "Ġobserv": 3676,
      "ĠSome": 3677,
      "Ġscience": 3678,
      "æ½": 3679,
      "ee": 3680,
      "Ġconsum": 3681,
      "æ¸©åº¦": 3682,
      ".)": 3683,
      "imum": 3684,
      "ĠApp": 3685,
      "ç±»åŀĭ": 3686,
      "Ġpolic": 3687,
      "æĦıä¹ī": 3688,
      "ĠCont": 3689,
      "Ġpatients": 3690,
      "Ġevent": 3691,
      "ĠAss": 3692,
      "ival": 3693,
      "ung": 3694,
      "Ġhouse": 3695,
      "Ġactivity": 3696,
      "ä»»åĬ¡": 3697,
      "Ġgrowth": 3698,
      "ç»ĦæĪĲ": 3699,
      "è¯Ńè¨Ģ": 3700,
      "Ġintrodu": 3701,
      "æī¾": 3702,
      "Ġbir": 3703,
      "éĺħ": 3704,
      "éĢĢ": 3705,
      "ĠAm": 3706,
      "eds": 3707,
      "Ġreally": 3708,
      "éº": 3709,
      "Ġbr": 3710,
      "æıĲåįĩ": 3711,
      "Ġstates": 3712,
      "çĸ¾çĹħ": 3713,
      "éĿ¢ç§¯": 3714,
      "ä»ĭç»į": 3715,
      "Ġcity": 3716,
      "åģĩ": 3717,
      "Ġconcer": 3718,
      "äººæīį": 3719,
      "Ġsure": 3720,
      "Ġalready": 3721,
      "Ġanalysis": 3722,
      "è¡Įä¸ļ": 3723,
      "Ġweight": 3724,
      "âĢĿï¼Į": 3725,
      "Ġphysical": 3726,
      "Ġwind": 3727,
      "ä¹ĭä¸Ģ": 3728,
      "When": 3729,
      "åĮºåŁŁ": 3730,
      "æĢ§çļĦ": 3731,
      "icial": 3732,
      "æ£Ģæµĭ": 3733,
      "Ġrelated": 3734,
      "Ġgraph": 3735,
      "å¢ŀéķ¿": 3736,
      "ĠUS": 3737,
      "Ġmind": 3738,
      "ç¼©": 3739,
      "ero": 3740,
      "iver": 3741,
      "Ġtoward": 3742,
      "è¿Ļä¸Ģ": 3743,
      "ĠĠĊĠĠ": 3744,
      "Ġbecame": 3745,
      "åĲ¬": 3746,
      "Ġclose": 3747,
      "lim": 3748,
      "è¿Ŀ": 3749,
      "Ġresources": 3750,
      "éĺ»": 3751,
      "Ġparts": 3752,
      "ae": 3753,
      "ĠWar": 3754,
      "Ġcannot": 3755,
      "Ġcontrib": 3756,
      "bon": 3757,
      "åŃ¦éĻ¢": 3758,
      "uation": 3759,
      "æĢİ": 3760,
      "nces": 3761,
      "Ġproduction": 3762,
      "æĬ¥åĳĬ": 3763,
      "ĠComm": 3764,
      "Ġstandard": 3765,
      "ery": 3766,
      "Ġpractice": 3767,
      "å°±ä¸ļ": 3768,
      "Ġemploy": 3769,
      "ç½Ĺ": 3770,
      "fer": 3771,
      "ä¸ºäºĨ": 3772,
      "æĦ¿": 3773,
      "Ġseen": 3774,
      "å°¿": 3775,
      "è·Ŀ": 3776,
      "è®¾ç½®": 3777,
      "Ġprotect": 3778,
      "ĠState": 3779,
      "ands": 3780,
      "ises": 3781,
      "å¯¹è±¡": 3782,
      "fact": 3783,
      "Ġarticle": 3784,
      "ä½Ĩæĺ¯": 3785,
      "overed": 3786,
      "ils": 3787,
      "åĳ³": 3788,
      "ĠWorld": 3789,
      "theta": 3790,
      "Ġlot": 3791,
      "Ġskills": 3792,
      "part": 3793,
      "ublic": 3794,
      "Ġann": 3795,
      "ĠCalcul": 3796,
      "inter": 3797,
      "Ġloss": 3798,
      "ĠMat": 3799,
      "æ¹¿": 3800,
      "åıĬåħ¶": 3801,
      "ç¨³å®ļ": 3802,
      "Ġrather": 3803,
      "ites": 3804,
      "å¼ķèµ·": 3805,
      "Ġrequired": 3806,
      "ä½ĵçļĦ": 3807,
      "Ġactivities": 3808,
      "Ġlog": 3809,
      "å®£": 3810,
      "Ġeff": 3811,
      "augh": 3812,
      "oura": 3813,
      "è¶ħè¿ĩ": 3814,
      "Ġaccording": 3815,
      "Ġflu": 3816,
      "è¯´æĺİ": 3817,
      "æĸ¹åĲĳ": 3818,
      "ns": 3819,
      "çļĦéĩįè¦ģ": 3820,
      "earch": 3821,
      "Ġonce": 3822,
      "inary": 3823,
      "Ġtrue": 3824,
      "èıľ": 3825,
      "ene": 3826,
      "çļĦåŁºæľ¬": 3827,
      "Â°": 3828,
      "ç«¥": 3829,
      "Ġtaken": 3830,
      "rad": 3831,
      "ometimes": 3832,
      "Ġsymptoms": 3833,
      "gebra": 3834,
      "ç´§": 3835,
      "ipp": 3836,
      "éĴ¢": 3837,
      "ĠShe": 3838,
      "ditional": 3839,
      "ä¿ĿæĮģ": 3840,
      "igure": 3841,
      "Ġproducts": 3842,
      "aut": 3843,
      "Ġachie": 3844,
      "Ġcontent": 3845,
      "ober": 3846,
      "åĪĨä¸º": 3847,
      "åİŁåĽł": 3848,
      "Ġarg": 3849,
      "Ġrecogn": 3850,
      "åľ°æĸ¹": 3851,
      "éĻįä½İ": 3852,
      "ĠIntern": 3853,
      "Ġlive": 3854,
      "ĠNe": 3855,
      "Ġpattern": 3856,
      "èĥĮ": 3857,
      "Ġengine": 3858,
      "Ġstudent": 3859,
      "ç¯ĩ": 3860,
      "ä¸°": 3861,
      "Ġparticip": 3862,
      "ned": 3863,
      "where": 3864,
      "Ġcut": 3865,
      "ä¼¼": 3866,
      "Ġhalf": 3867,
      "Ġseries": 3868,
      "Ġfall": 3869,
      "unt": 3870,
      "è§ī": 3871,
      "ç¼´": 3872,
      "ĠçļĦ": 3873,
      "ç»©": 3874,
      "ĠMar": 3875,
      "Ġtell": 3876,
      "ĠNum": 3877,
      "ä¸įå¾Ĺ": 3878,
      "istance": 3879,
      "allenge": 3880,
      "Ġquality": 3881,
      "åıĸå¾Ĺ": 3882,
      "é¥®": 3883,
      "çĮ®": 3884,
      "Ġ40": 3885,
      "idered": 3886,
      "æĸ¹æ¡Ī": 3887,
      "reg": 3888,
      "Ġdeveloped": 3889,
      "åħ±åĲĮ": 3890,
      "Ġessential": 3891,
      "æ¯ķä¸ļ": 3892,
      "èĭı": 3893,
      "Ġpay": 3894,
      "Ġsource": 3895,
      "sych": 3896,
      "estion": 3897,
      "iding": 3898,
      "ĠMay": 3899,
      "æ±½": 3900,
      "iol": 3901,
      "æ°ĳæĹı": 3902,
      "Ġneeded": 3903,
      "\\_\\_": 3904,
      "ĠEqu": 3905,
      "Ġpressure": 3906,
      "ips": 3907,
      "Ġapproach": 3908,
      "Ġaverage": 3909,
      "èĭĹ": 3910,
      "ĠMan": 3911,
      "Ġwide": 3912,
      "Ġdetail": 3913,
      "Ġstory": 3914,
      "ä¸¥éĩį": 3915,
      "Ġfri": 3916,
      "Ġnut": 3917,
      "å¡«": 3918,
      "ĠMe": 3919,
      "äº¿": 3920,
      "çī¹å¾ģ": 3921,
      "ES": 3922,
      "Ġbat": 3923,
      "Ġsent": 3924,
      "é½": 3925,
      "urch": 3926,
      "ä¿Ŀè¯ģ": 3927,
      "ä¹Ļ": 3928,
      "äº²": 3929,
      "çĬ¯": 3930,
      "yn": 3931,
      "bo": 3932,
      "istics": 3933,
      "å±ŀäºİ": 3934,
      "èĽĭçĻ½": 3935,
      "roll": 3936,
      "ĠCar": 3937,
      "èĪª": 3938,
      "Ġbuilding": 3939,
      "Ġfail": 3940,
      "Ġdefin": 3941,
      "çĨŁ": 3942,
      "åĲ¯": 3943,
      "çĽĸ": 3944,
      "bol": 3945,
      "Ġsite": 3946,
      "Ġconsidered": 3947,
      "Ġupon": 3948,
      "æķĪæŀľ": 3949,
      "ounds": 3950,
      "Ġposition": 3951,
      "æ±ĩ": 3952,
      "aced": 3953,
      "Ġaddress": 3954,
      "åħħåĪĨ": 3955,
      "Ġ>": 3956,
      "Ġevidence": 3957,
      "ĠHealth": 3958,
      "èµĦæĸĻ": 3959,
      "Ġmembers": 3960,
      "é¡º": 3961,
      "åħ³éĶ®": 3962,
      "Ġreduce": 3963,
      "Ġnature": 3964,
      "åĬ±": 3965,
      "Ġcorrect": 3966,
      "Ġphot": 3967,
      "chan": 3968,
      "Ġcollect": 3969,
      "å»¶": 3970,
      "èĢĥçĶŁ": 3971,
      "åĨ²": 3972,
      "Ġitself": 3973,
      "ius": 3974,
      "çŃ¾": 3975,
      "éľĢæ±Ĥ": 3976,
      "å¥ĸ": 3977,
      "çī¹åĪ«": 3978,
      "Ġassociated": 3979,
      "Ġden": 3980,
      "ç¾İåĽ½": 3981,
      "éĥ½æĺ¯": 3982,
      "Ġmeet": 3983,
      "Ġpath": 3984,
      "çŁ¿": 3985,
      "è¿Ľåħ¥": 3986,
      "orem": 3987,
      "ĠCo": 3988,
      "izing": 3989,
      "æĬĢèĥ½": 3990,
      "è®¢": 3991,
      "ç»Ŀ": 3992,
      "ĠRep": 3993,
      "å®ĺ": 3994,
      "isc": 3995,
      "è®¨": 3996,
      "Ġprop": 3997,
      "ID": 3998,
      "è®¤è¯Ĩ": 3999,
      "Ġur": 4000,
      "Ġdrug": 4001,
      "Ġcal": 4002,
      "åıĤä¸İ": 4003,
      "ĠSouth": 4004,
      "urity": 4005,
      "å·´": 4006,
      "æĺİæĺ¾": 4007,
      "äºĳ": 4008,
      "org": 4009,
      "èĦ±": 4010,
      "oll": 4011,
      "Ġrespect": 4012,
      "eb": 4013,
      "ä¸Ģæ¬¡": 4014,
      "Ġpoly": 4015,
      "like": 4016,
      "åıĤåĬł": 4017,
      "ĠNorth": 4018,
      "èį¯çī©": 4019,
      "amin": 4020,
      "Ġrecomm": 4021,
      "light": 4022,
      "æ°§åĮĸ": 4023,
      "æĸ°çļĦ": 4024,
      "ç©ºéĹ´": 4025,
      "Ġfunctions": 4026,
      "ĠPer": 4027,
      "Ġwhite": 4028,
      "å®ĮåĸĦ": 4029,
      "åĶ®": 4030,
      "çģ¾": 4031,
      "Ġvers": 4032,
      "Ġissues": 4033,
      "acy": 4034,
      "Ġweek": 4035,
      "åįļ": 4036,
      "ä¼łç»Ł": 4037,
      "Ġhours": 4038,
      "reme": 4039,
      "ĠGu": 4040,
      "sp": 4041,
      "Ġcreated": 4042,
      "Ġsat": 4043,
      "Ġresearchers": 4044,
      "ĠDo": 4045,
      "--------": 4046,
      "AR": 4047,
      "Ġclimate": 4048,
      "æĮģç»Ń": 4049,
      "}{\\": 4050,
      "stitute": 4051,
      "å²ģ": 4052,
      "Ġexerc": 4053,
      "åĪĳ": 4054,
      "é£ŀ": 4055,
      "You": 4056,
      "ä»į": 4057,
      "osis": 4058,
      "çĽ®çļĦ": 4059,
      "è´«": 4060,
      "ivil": 4061,
      "sequ": 4062,
      "ç²Ĵ": 4063,
      "èĻ«": 4064,
      "ÃĹ": 4065,
      "æĿİ": 4066,
      "anced": 4067,
      "Ġlay": 4068,
      "Ġblack": 4069,
      "èµĦéĩĳ": 4070,
      "iddle": 4071,
      "è°ĥæķ´": 4072,
      "åĢŁ": 4073,
      "çŃĶæ¡Ī": 4074,
      "Ġequations": 4075,
      "Ġentire": 4076,
      "Ã©": 4077,
      "è¿Ĳè¡Į": 4078,
      "åħ¬åħ±": 4079,
      "Ġactually": 4080,
      ")(": 4081,
      "Ġ198": 4082,
      "æ¹ĸ": 4083,
      "Ġcondition": 4084,
      "Ġrelig": 4085,
      "Ġdoc": 4086,
      "Ġdetermine": 4087,
      "Ġreact": 4088,
      "ournal": 4089,
      "æıı": 4090,
      "circ": 4091,
      "é»ĳ": 4092,
      "Ġoriginal": 4093,
      "Ġnational": 4094,
      "æ³ķéĻ¢": 4095,
      "leep": 4096,
      "Ġdifference": 4097,
      "ï¼īï¼Į": 4098,
      "åŃ¦ç§ĳ": 4099,
      "åºĶè¯¥": 4100,
      "éĿŀå¸¸": 4101,
      "å¹³åĿĩ": 4102,
      "Ġeffective": 4103,
      "Ġmarket": 4104,
      "Ġquick": 4105,
      "Ġpolitical": 4106,
      "Ġincreased": 4107,
      "è§¦": 4108,
      "Ġformula": 4109,
      "illed": 4110,
      "åĿļæĮģ": 4111,
      "çĬ¶æĢģ": 4112,
      "ows": 4113,
      "ĠNo": 4114,
      "éĿĻ": 4115,
      "place": 4116,
      "å®ľ": 4117,
      "èĤ¿": 4118,
      "Ġidea": 4119,
      "å®¶åºŃ": 4120,
      "Ġanimals": 4121,
      "Wh": 4122,
      "ä¾§": 4123,
      "æ±ł": 4124,
      "ä¹°": 4125,
      "Ġri": 4126,
      "è´Łè´£": 4127,
      "Ġgreater": 4128,
      "ai": 4129,
      "Ġthought": 4130,
      "Ġsal": 4131,
      "çĩĥ": 4132,
      "ĠAct": 4133,
      "éĩĳèŀį": 4134,
      "oph": 4135,
      "æİ¨åĬ¨": 4136,
      "Ġcame": 4137,
      "lor": 4138,
      "Ġrul": 4139,
      "onse": 4140,
      "åĲĪçĲĨ": 4141,
      "Ġmaint": 4142,
      "Ġnecessary": 4143,
      "Ġthemselves": 4144,
      "Ġmedical": 4145,
      "oon": 4146,
      "atives": 4147,
      "è´¦": 4148,
      "ç²ī": 4149,
      "Ġstress": 4150,
      "ä»»ä½ķ": 4151,
      "Ġshows": 4152,
      "ç¦ı": 4153,
      "é£Łåĵģ": 4154,
      "ĠCal": 4155,
      "è¡¨è¾¾": 4156,
      "inci": 4157,
      "ĠSte": 4158,
      "Ġspeed": 4159,
      "åģľ": 4160,
      "Ġmoney": 4161,
      "IN": 4162,
      "Ġwriting": 4163,
      "ä¸´åºĬ": 4164,
      "Ġdest": 4165,
      "ç¡¬": 4166,
      "ĠEarth": 4167,
      "Ġtravel": 4168,
      "gest": 4169,
      "è¿½": 4170,
      "48": 4171,
      "è½®": 4172,
      "å¾ª": 4173,
      "çĻĮ": 4174,
      "ä¸Ńåįİ": 4175,
      "æĹħ": 4176,
      "ĠAmerica": 4177,
      "ĠSu": 4178,
      "Ġopportun": 4179,
      "èĻĳ": 4180,
      "Ġpie": 4181,
      "åŃ¦çĶŁçļĦ": 4182,
      "Ġnegative": 4183,
      "Ġregion": 4184,
      "æķ°åŃĹ": 4185,
      "go": 4186,
      "ump": 4187,
      "é¦Ļ": 4188,
      "Ġmethods": 4189,
      "ze": 4190,
      "Ġfish": 4191,
      "å©": 4192,
      "Ġoil": 4193,
      "ĠDr": 4194,
      "Ġgas": 4195,
      "å¸®åĬ©": 4196,
      "åĪ¶å®ļ": 4197,
      "Ġsix": 4198,
      "Ġport": 4199,
      "my": 4200,
      "32": 4201,
      "empt": 4202,
      "Ġsepar": 4203,
      "èĤº": 4204,
      "Ġbar": 4205,
      "Ġfactor": 4206,
      "dd": 4207,
      "rack": 4208,
      "ply": 4209,
      "æľºåħ³": 4210,
      "ging": 4211,
      "Ġmaterials": 4212,
      "Ġver": 4213,
      "Ġliving": 4214,
      "ror": 4215,
      "ĠII": 4216,
      "99": 4217,
      "ĠAb": 4218,
      "mathbf": 4219,
      "Ġtemperature": 4220,
      "Ġhistor": 4221,
      "ä¸ļåĬ¡": 4222,
      "Ġconc": 4223,
      "ney": 4224,
      "åĨ³å®ļ": 4225,
      "Ġability": 4226,
      "Ġä¸Ģ": 4227,
      "ä½ľèĢħ": 4228,
      "éĵ¶è¡Į": 4229,
      "acks": 4230,
      "Ġfamil": 4231,
      "ä»İèĢĮ": 4232,
      "Ġcheck": 4233,
      "æĹ¢": 4234,
      "Ġsolve": 4235,
      "Ġcoll": 4236,
      "Ġfeet": 4237,
      "Ġdistance": 4238,
      "ç»Łä¸Ģ": 4239,
      "Ġprevious": 4240,
      "éģĩ": 4241,
      "itude": 4242,
      "ĠPar": 4243,
      "éħĴ": 4244,
      "wh": 4245,
      "ening": 4246,
      "Ġcomes": 4247,
      "Ġprovided": 4248,
      "åį·": 4249,
      "Ġmeaning": 4250,
      "Ġlink": 4251,
      "ON": 4252,
      "yl": 4253,
      "AC": 4254,
      "ä¾µ": 4255,
      "æĢ§èĥ½": 4256,
      "ming": 4257,
      "èĸ": 4258,
      "oly": 4259,
      "é¢Ĩå¯¼": 4260,
      "Ġmodern": 4261,
      "Ġglobal": 4262,
      "Ġmonths": 4263,
      "æĪĲæľ¬": 4264,
      "ections": 4265,
      "cient": 4266,
      "Ġskin": 4267,
      "éī": 4268,
      "acc": 4269,
      "iment": 4270,
      "éī´": 4271,
      "åħ°": 4272,
      "æ¶ī": 4273,
      "äº¤éĢļ": 4274,
      "åıĤèĢĥ": 4275,
      "æµĵ": 4276,
      "æĺ¾ç¤º": 4277,
      "Ġsun": 4278,
      "éĵ¾": 4279,
      "Ġalmost": 4280,
      "ç¨ĭåº¦": 4281,
      "Ġfat": 4282,
      "ried": 4283,
      "ä»ª": 4284,
      "åľŁåľ°": 4285,
      "aging": 4286,
      "è¡¡": 4287,
      "hing": 4288,
      "æŃ£å¸¸": 4289,
      "yle": 4290,
      "æľŁéĹ´": 4291,
      "åĲĥ": 4292,
      "Ġadult": 4293,
      "Ġpublished": 4294,
      "æ¦Ĥå¿µ": 4295,
      "Ġcomputer": 4296,
      "38": 4297,
      "èĵ": 4298,
      "Ġsequ": 4299,
      "åĳ¢": 4300,
      "ä½įç½®": 4301,
      "ened": 4302,
      "æ¯Ľ": 4303,
      "å®Ŀ": 4304,
      "æŃĮ": 4305,
      "ĠAust": 4306,
      "Ġrat": 4307,
      "oles": 4308,
      "erve": 4309,
      "ç«ŀ": 4310,
      "ront": 4311,
      "imately": 4312,
      "65": 4313,
      "åłĤ": 4314,
      "æĭŁ": 4315,
      "hib": 4316,
      "cies": 4317,
      "Ġavoid": 4318,
      "Ġassess": 4319,
      "å³": 4320,
      "è¿Ļæĺ¯": 4321,
      "èĦĤ": 4322,
      "Ġquant": 4323,
      "ĠYork": 4324,
      "æħ¢": 4325,
      "Ġdraw": 4326,
      "å¸Į": 4327,
      "uel": 4328,
      "âĦ": 4329,
      "Ġeconomic": 4330,
      "Ġshown": 4331,
      "å®Ī": 4332,
      "éĢı": 4333,
      "å®½": 4334,
      "uted": 4335,
      "Ġnormal": 4336,
      "ractions": 4337,
      "éĤ£ä¹Ī": 4338,
      "åĪ»": 4339,
      "Ġmagn": 4340,
      "æĶ¿æ²»": 4341,
      "Ġgreen": 4342,
      "ĠPart": 4343,
      "Ġstructure": 4344,
      "æ±¡æŁĵ": 4345,
      "æĦŁæŁĵ": 4346,
      "Ġsoft": 4347,
      "ĠExample": 4348,
      "Ġstop": 4349,
      "aries": 4350,
      "åĩĿ": 4351,
      "Ġwritten": 4352,
      "ĠãĢģ": 4353,
      "å¼ķå¯¼": 4354,
      "Ġcat": 4355,
      "Ġarch": 4356,
      "itary": 4357,
      "éĽ¨": 4358,
      "Ġrights": 4359,
      "æĽ¾": 4360,
      "ĠSim": 4361,
      "ç¬Ķ": 4362,
      "é¾Ļ": 4363,
      "Ġmicro": 4364,
      "Ġhealthy": 4365,
      "Ġproduce": 4366,
      "37": 4367,
      "ĊĠĠĠĠ": 4368,
      "Ġbase": 4369,
      "åĪĨç±»": 4370,
      "è§Ĥå¯Ł": 4371,
      "Ġinteract": 4372,
      "Ġmor": 4373,
      "^\\": 4374,
      "Ġjob": 4375,
      "Ġsides": 4376,
      "IS": 4377,
      "arr": 4378,
      "aged": 4379,
      "arrow": 4380,
      "Ġprote": 4381,
      "è¯ķéªĮ": 4382,
      "ç£ģ": 4383,
      "Ġtaking": 4384,
      "ĠDep": 4385,
      "artment": 4386,
      "Ġtook": 4387,
      "åŃĶ": 4388,
      "Ġcompon": 4389,
      "Ġregard": 4390,
      "Ġmanagement": 4391,
      "åĦ¿ç«¥": 4392,
      "Ġsoil": 4393,
      "å°¼": 4394,
      "åĪ¸": 4395,
      "iction": 4396,
      "adr": 4397,
      "Ġsuper": 4398,
      "Ġbehavior": 4399,
      "ĠAfter": 4400,
      "mb": 4401,
      "plement": 4402,
      "ĠFind": 4403,
      "ores": 4404,
      "Ġcop": 4405,
      "èĻļ": 4406,
      "Ġincreasing": 4407,
      "çĽĺ": 4408,
      "Ġwon": 4409,
      "arget": 4410,
      "çī¹èī²": 4411,
      "æ®ĭ": 4412,
      "å¹´çļĦ": 4413,
      "ç¤¾ä¼ļä¸»ä¹ī": 4414,
      "order": 4415,
      "emic": 4416,
      "Ġdog": 4417,
      "çĻ»è®°": 4418,
      "åħĥç´ł": 4419,
      "Ġsense": 4420,
      "æ¤įçī©": 4421,
      "Ġla": 4422,
      "based": 4423,
      "Ġever": 4424,
      "çĹĩçĬ¶": 4425,
      "Ġservices": 4426,
      "uck": 4427,
      "çĦ¶åĲİ": 4428,
      "æĿĥåĪ©": 4429,
      "å¥Ĺ": 4430,
      "åºŁ": 4431,
      "Ġliter": 4432,
      "æ¡£": 4433,
      "é¾Ħ": 4434,
      "å¤§å®¶": 4435,
      "Ġdiet": 4436,
      "omial": 4437,
      "å°ģ": 4438,
      "ï¼īãĢĤ": 4439,
      "Ġ\\((": 4440,
      "Ġyet": 4441,
      "èĻ½": 4442,
      "åıªæľī": 4443,
      "ĠComp": 4444,
      "34": 4445,
      "know": 4446,
      "æ¢°": 4447,
      "çĽĲ": 4448,
      "Ġut": 4449,
      "ĠHis": 4450,
      "Ġhtt": 4451,
      "Ġconstant": 4452,
      "åĪĨå¸ĥ": 4453,
      "Ġcontain": 4454,
      "éĢŁåº¦": 4455,
      "å§Ķåĳĺ": 4456,
      "Ġ60": 4457,
      "æĿ¾": 4458,
      "Ġ21": 4459,
      "æĿ¥çļĦ": 4460,
      "ccording": 4461,
      "Ġpersonal": 4462,
      "abor": 4463,
      "æĻ®éĢļ": 4464,
      "Ġpriv": 4465,
      "Ġbreak": 4466,
      "Ġheat": 4467,
      "Ġsuff": 4468,
      "èĤ¾": 4469,
      "çĽĳçĿ£": 4470,
      "Ġnumer": 4471,
      "wo": 4472,
      "urs": 4473,
      "Ġreading": 4474,
      "ĠHist": 4475,
      "Ġindividuals": 4476,
      "æľīçļĦ": 4477,
      "Ġstra": 4478,
      "apter": 4479,
      "Ġeasy": 4480,
      "astic": 4481,
      "het": 4482,
      "ä»·æł¼": 4483,
      "ensive": 4484,
      "Ġclaim": 4485,
      "éĺ¿": 4486,
      "æĦıè¯Ĩ": 4487,
      "Ġrev": 4488,
      "Ġindepend": 4489,
      "rown": 4490,
      "éĩįå¤§": 4491,
      "Ġlines": 4492,
      "çĹħæ¯Ĵ": 4493,
      "è®¾æĸ½": 4494,
      "Ġcompany": 4495,
      "Ġrelative": 4496,
      "åĳ¼": 4497,
      "Ġmatter": 4498,
      "Ġaction": 4499,
      "å¢ŀå¼º": 4500,
      "å¤«": 4501,
      "lex": 4502,
      "aches": 4503,
      "ĠProblem": 4504,
      "æ¶Īè´¹": 4505,
      "è¯Ħä¼°": 4506,
      "iet": 4507,
      "çĶ¨æĪ·": 4508,
      "åį´": 4509,
      ")ãĢģ": 4510,
      "eding": 4511,
      "åĢį": 4512,
      "ulations": 4513,
      "Ġincludes": 4514,
      "Ġetc": 4515,
      "âĢĿãĢĤ": 4516,
      "ĠAg": 4517,
      "ä¾Ŀæ³ķ": 4518,
      "Ġlonger": 4519,
      "Ġwrite": 4520,
      "Ġcolor": 4521,
      "pid": 4522,
      "Ġmultiple": 4523,
      "Ġgives": 4524,
      "éĺħè¯»": 4525,
      "å¤ı": 4526,
      "Ġbegan": 4527,
      "çĶŁéķ¿": 4528,
      "Ġorigin": 4529,
      "çļĦä¸»è¦ģ": 4530,
      "æ´Ĺ": 4531,
      "å¤®": 4532,
      "ç¼ĵ": 4533,
      "vere": 4534,
      "Ġregular": 4535,
      "31": 4536,
      "éļıçĿĢ": 4537,
      "itation": 4538,
      "78": 4539,
      "ç»Łè®¡": 4540,
      "ä¸ĭåĪĹ": 4541,
      "èĤī": 4542,
      "Ġbasic": 4543,
      "é¡µ": 4544,
      "Ġidentify": 4545,
      "ithm": 4546,
      "Ġparents": 4547,
      "çģµ": 4548,
      "%,": 4549,
      "Ġfarm": 4550,
      "Ġconduct": 4551,
      "Ġonline": 4552,
      "Ġthroughout": 4553,
      "ese": 4554,
      "Ġemer": 4555,
      "Ġ--": 4556,
      "imens": 4557,
      "estern": 4558,
      "äººç±»": 4559,
      "Ġdou": 4560,
      "æ³Ľ": 4561,
      "Ġpopular": 4562,
      "ĠMath": 4563,
      "Ġtheory": 4564,
      "è¾ĳ": 4565,
      "Ġmedic": 4566,
      "è¿ĲçĶ¨": 4567,
      "apan": 4568,
      "è´¹çĶ¨": 4569,
      "fect": 4570,
      "ift": 4571,
      "itor": 4572,
      "Ġangle": 4573,
      "è°ĥæŁ¥": 4574,
      "Ġlove": 4575,
      "vey": 4576,
      "Ġchemical": 4577,
      "çļĦå½±åĵį": 4578,
      "ister": 4579,
      "Ġdemon": 4580,
      "ĠSchool": 4581,
      "åĮĹäº¬": 4582,
      "æ¨¡åŀĭ": 4583,
      "Ġdesigned": 4584,
      ")\\)": 4585,
      "é¢Ħéĺ²": 4586,
      "reng": 4587,
      "äº¡": 4588,
      "iam": 4589,
      "éĩĩåıĸ": 4590,
      "AN": 4591,
      "æµĭè¯ķ": 4592,
      "Ġ2010": 4593,
      "Ġmax": 4594,
      "ĠDes": 4595,
      "åĩĢ": 4596,
      "Ġtalk": 4597,
      "åİŁçĲĨ": 4598,
      "åıĳæĮ¥": 4599,
      "åĸľ": 4600,
      "AS": 4601,
      "Ġrecent": 4602,
      "Ġhab": 4603,
      "Ġselect": 4604,
      "icles": 4605,
      "éģ¿åħį": 4606,
      "ä¸įä»ħ": 4607,
      "ç»§ç»Ń": 4608,
      "èĥ½æºĲ": 4609,
      "Ġmach": 4610,
      "39": 4611,
      "Ġbur": 4612,
      "åĪ°äºĨ": 4613,
      "Ġheav": 4614,
      "Ġthing": 4615,
      "Ġmechan": 4616,
      "æĿŁ": 4617,
      "è§Ħæ¨¡": 4618,
      "äººåı£": 4619,
      "ched": 4620,
      "äº¤æĺĵ": 4621,
      "Ġfire": 4622,
      "ights": 4623,
      "èĹı": 4624,
      "Ġsociety": 4625,
      "å»ºè®®": 4626,
      "quad": 4627,
      "Ġexact": 4628,
      "fully": 4629,
      "ä¾Ŀæį®": 4630,
      "çĽ¸å¯¹": 4631,
      "éĴŁ": 4632,
      "çļĦåıĳå±ķ": 4633,
      "Ġclean": 4634,
      "44": 4635,
      "ners": 4636,
      "åŁºéĩĳ": 4637,
      "æķĻæĿĲ": 4638,
      "Ġeval": 4639,
      "è½´": 4640,
      "èīºæľ¯": 4641,
      "æ¯Ķä¾ĭ": 4642,
      "aily": 4643,
      "âĦĥ": 4644,
      "ç¦ģ": 4645,
      "çĶ°": 4646,
      "IC": 4647,
      "Ġsimply": 4648,
      "è¶£": 4649,
      "ĠCanad": 4650,
      "Ġreview": 4651,
      "raft": 4652,
      "ĠPres": 4653,
      "Ġbuilt": 4654,
      "egin": 4655,
      "pri": 4656,
      "Ġvide": 4657,
      "ĠBritish": 4658,
      "Ġdeep": 4659,
      "äº¤æµģ": 4660,
      "Ġcontact": 4661,
      "^{-": 4662,
      "äººä»¬": 4663,
      "Ġste": 4664,
      "Ġservice": 4665,
      "med": 4666,
      "Ġspread": 4667,
      "è´¢æĶ¿": 4668,
      "lt": 4669,
      "è´´": 4670,
      "åĬłå·¥": 4671,
      "åıĳå±ķçļĦ": 4672,
      "hood": 4673,
      "ordin": 4674,
      "éĢĶ": 4675,
      "Ġevents": 4676,
      "ĠPe": 4677,
      "éĽ¶": 4678,
      "Ġcauses": 4679,
      "éĺ´": 4680,
      "æĸ½å·¥": 4681,
      "new": 4682,
      "Ġce": 4683,
      "ä¹ĭéĹ´çļĦ": 4684,
      "Ġuses": 4685,
      "ï½ŀ": 4686,
      "Ġschools": 4687,
      "Ġimage": 4688,
      "log": 4689,
      "ĠPre": 4690,
      "Ġhelps": 4691,
      "amental": 4692,
      "minist": 4693,
      "alleng": 4694,
      "è£ģ": 4695,
      "æľĿ": 4696,
      "ç§°ä¸º": 4697,
      "çŁ¥éģĵ": 4698,
      "Ġaccept": 4699,
      "åĲİçļĦ": 4700,
      "ĠResearch": 4701,
      "Ġprobability": 4702,
      "mm": 4703,
      "Ġforms": 4704,
      "Ġsurv": 4705,
      "Ġhor": 4706,
      "Ġapprox": 4707,
      "ixed": 4708,
      "Com": 4709,
      "OR": 4710,
      "lease": 4711,
      "Ġappl": 4712,
      "Ġpict": 4713,
      "æŀ¶": 4714,
      "å®ļä¹ī": 4715,
      "Ġthird": 4716,
      "rench": 4717,
      "éĿł": 4718,
      "ĠJan": 4719,
      "æĹ¶åĢĻ": 4720,
      "æĹ¶ä»£": 4721,
      "ĠWhile": 4722,
      "æŃ¦": 4723,
      "çĺ¤": 4724,
      "ï¼ģ": 4725,
      "rate": 4726,
      "è®¡ç®Ĺæľº": 4727,
      "Ġcaused": 4728,
      "BC": 4729,
      "Ġresponse": 4730,
      "çĽ¸åºĶ": 4731,
      "Ġsubst": 4732,
      "ĠNot": 4733,
      "Ġåľ¨": 4734,
      "Ġparticularly": 4735,
      "èŃ": 4736,
      "èģĶç³»": 4737,
      "ĠÂ": 4738,
      "è¯ģæĺİ": 4739,
      "ä¸įåĲĮçļĦ": 4740,
      "æ®Ĭ": 4741,
      "Ġenvironmental": 4742,
      "Ġhold": 4743,
      "aving": 4744,
      "arily": 4745,
      "Ġindustry": 4746,
      "Ġsex": 4747,
      "Ġ2012": 4748,
      "é¼ĵ": 4749,
      "åº§": 4750,
      "èĢĥèĻĳ": 4751,
      "Ġ#": 4752,
      "Ġobt": 4753,
      "æĽ´åĬł": 4754,
      "ĠScience": 4755,
      "ç®Ģåįķ": 4756,
      "55": 4757,
      "uments": 4758,
      "åĬ¨çī©": 4759,
      "Ġface": 4760,
      "ĠEm": 4761,
      "Ġtraining": 4762,
      "Ġcross": 4763,
      "pose": 4764,
      "å¡ŀ": 4765,
      "ĠCons": 4766,
      "ĠMin": 4767,
      "Ġelectric": 4768,
      "olic": 4769,
      "æł¸å¿ĥ": 4770,
      "å¹³åı°": 4771,
      "aff": 4772,
      "Ġir": 4773,
      "Ġbal": 4774,
      "Ġtable": 4775,
      "æ´²": 4776,
      "æľīæľº": 4777,
      "ä¸Ńå¤®": 4778,
      "Ġpage": 4779,
      "Ġfru": 4780,
      "Ġbring": 4781,
      "Ġsleep": 4782,
      "Ġconsist": 4783,
      "Ġanaly": 4784,
      "çī©çĲĨ": 4785,
      "rapy": 4786,
      "Ġdefined": 4787,
      "ĠUse": 4788,
      "Ġminutes": 4789,
      "æĬĺ": 4790,
      "åĳĪ": 4791,
      "But": 4792,
      "Ġelements": 4793,
      "Ġdoing": 4794,
      "ricult": 4795,
      "çīĻ": 4796,
      "è´·": 4797,
      "yth": 4798,
      "Ġrefer": 4799,
      "Ġbill": 4800,
      "Ġsometimes": 4801,
      "Ġprinci": 4802,
      "Ġvariety": 4803,
      "æĮĩæłĩ": 4804,
      "Ġinitial": 4805,
      "aling": 4806,
      "Ġslow": 4807,
      "rought": 4808,
      "duc": 4809,
      "åĿĢ": 4810,
      "Ġtarget": 4811,
      "64": 4812,
      "èŃ¦": 4813,
      "éĢļå¸¸": 4814,
      "Ġdecre": 4815,
      "åĪĨåŃĲ": 4816,
      "è¯¢": 4817,
      "ç»ıè¿ĩ": 4818,
      "æĢ§è´¨": 4819,
      "Ġsection": 4820,
      "ĠĠĠĠĠ": 4821,
      "Ġdiagn": 4822,
      "è¯¦": 4823,
      "Ġcoun": 4824,
      "Ġestim": 4825,
      "son": 4826,
      "ufact": 4827,
      "åī¯": 4828,
      "Ġwild": 4829,
      "Ġinvolved": 4830,
      "Ġcarbon": 4831,
      "Ġlives": 4832,
      "Ġtakes": 4833,
      "æĹ¶æľŁ": 4834,
      "ä¸°å¯Į": 4835,
      "ç§ĭ": 4836,
      "ä¹īåĬ¡": 4837,
      "çĥ§": 4838,
      "å¾Īå¤ļ": 4839,
      "ields": 4840,
      "Ġfem": 4841,
      "hest": 4842,
      "CO": 4843,
      "Ġremov": 4844,
      "ä¸ºä¸»": 4845,
      "çļĦæĸ¹æ³ķ": 4846,
      "æ²»çĲĨ": 4847,
      "Ġensure": 4848,
      "ronic": 4849,
      "ervation": 4850,
      "alle": 4851,
      "æľºæ¢°": 4852,
      "èĢĲ": 4853,
      "çļĦåŁºç¡Ģ": 4854,
      "Ġbenefits": 4855,
      "èĲ½å®ŀ": 4856,
      "ĠLevel": 4857,
      "èĢģå¸Ī": 4858,
      "æ²Ļ": 4859,
      "Ġearth": 4860,
      "Ġmusic": 4861,
      "å·¥èīº": 4862,
      "ender": 4863,
      "è´¢äº§": 4864,
      "lands": 4865,
      "ĠJapan": 4866,
      "ĠCount": 4867,
      "ä¾ĭå¦Ĥ": 4868,
      "é±": 4869,
      "èĤł": 4870,
      "çİ°è±¡": 4871,
      "Ġissue": 4872,
      "anks": 4873,
      "uary": 4874,
      "Ġlat": 4875,
      "Ġproperties": 4876,
      "Ġoutside": 4877,
      "Ġeat": 4878,
      "Ġbelieve": 4879,
      "éķ¿æľŁ": 4880,
      "85": 4881,
      "Ġprec": 4882,
      "èĢĮä¸Ķ": 4883,
      "Ġexc": 4884,
      "ares": 4885,
      "æī¿æĭħ": 4886,
      "ĠSub": 4887,
      "èĤĮ": 4888,
      "èĩªåĬ¨": 4889,
      "ike": 4890,
      "çĥŁ": 4891,
      "æĶ¯ä»ĺ": 4892,
      "Ġimplement": 4893,
      "Ġpoll": 4894,
      "Ġmom": 4895,
      "Ġprograms": 4896,
      "Ġshare": 4897,
      "åħ¨çĲĥ": 4898,
      "Ġmovement": 4899,
      "Ġled": 4900,
      "ĠJew": 4901,
      "å¸ģ": 4902,
      "Ġreported": 4903,
      "ued": 4904,
      "Ġapplications": 4905,
      "elling": 4906,
      "åİĭåĬĽ": 4907,
      "é±¼": 4908,
      "formation": 4909,
      "ĠBo": 4910,
      "åĩºçīĪ": 4911,
      "Ġstreng": 4912,
      "åĬŀæ³ķ": 4913,
      "æķ°éĩı": 4914,
      "05": 4915,
      "çĽ¸åĲĮ": 4916,
      "Ġnetwork": 4917,
      "ç»ıéªĮ": 4918,
      "æĺ¯ä¸Ģç§į": 4919,
      "æĭĽçĶŁ": 4920,
      "Ġunit": 4921,
      "¤Ĳ": 4922,
      "ached": 4923,
      "Ġencoura": 4924,
      "ederal": 4925,
      "æ²ī": 4926,
      "rial": 4927,
      "ä¸įåı¯": 4928,
      "ĠWill": 4929,
      "ades": 4930,
      "rim": 4931,
      "Ġlarger": 4932,
      "Ġsafe": 4933,
      "Ġviol": 4934,
      "ops": 4935,
      "çī¹æ®Ĭ": 4936,
      "åģı": 4937,
      "asc": 4938,
      "Ġ2011": 4939,
      "$.": 4940,
      "ç»¿èī²": 4941,
      "Ġdom": 4942,
      "Ġdivid": 4943,
      "ä¹³": 4944,
      "Ġtax": 4945,
      "Ġinj": 4946,
      "æĦıè§ģ": 4947,
      "Ġcenter": 4948,
      "å®ļçļĦ": 4949,
      "å¸¸è§ģ": 4950,
      "å¿ĥçĲĨ": 4951,
      "rie": 4952,
      "undred": 4953,
      "åĪ¶éĢł": 4954,
      "ä½ľåĵģ": 4955,
      "ament": 4956,
      "Ġbacter": 4957,
      "ems": 4958,
      "èļ": 4959,
      "æ¸Ĳ": 4960,
      "Ġsources": 4961,
      "Ġago": 4962,
      "æĸĹ": 4963,
      "Ġtree": 4964,
      "Ġcompet": 4965,
      "idge": 4966,
      "æľ«": 4967,
      "dom": 4968,
      "è®¼": 4969,
      "gar": 4970,
      "Ġattempt": 4971,
      "åĽ½åĨħ": 4972,
      "anger": 4973,
      "Ġadded": 4974,
      "Ġtriangle": 4975,
      "å¼±": 4976,
      "çº¸": 4977,
      "Ġprint": 4978,
      "çİ°åľ¨": 4979,
      "rast": 4980,
      "ĠMore": 4981,
      "ä»İäºĭ": 4982,
      "rated": 4983,
      "æ±½è½¦": 4984,
      "Ġroot": 4985,
      "ED": 4986,
      "oor": 4987,
      "66": 4988,
      "çļĦé«ĺ": 4989,
      "Ġgenerally": 4990,
      "Ġ28": 4991,
      "æĥħåĨµä¸ĭ": 4992,
      "èĶ": 4993,
      "umb": 4994,
      "Ġproduced": 4995,
      "play": 4996,
      "Ġdoesn": 4997,
      "éķľ": 4998,
      "ĠThen": 4999,
      "æīįèĥ½": 5000,
      "ĠKing": 5001,
      "ĠIndia": 5002,
      "åĲĮåŃ¦": 5003,
      "Ġharm": 5004,
      "ustom": 5005,
      "é¡¶": 5006,
      "âĳł": 5007,
      "isions": 5008,
      "Ġgetting": 5009,
      "Ġchalleng": 5010,
      "pot": 5011,
      "Ġincluded": 5012,
      "amples": 5013,
      "åĲĹ": 5014,
      "iency": 5015,
      "ĠAc": 5016,
      "æ¬¢": 5017,
      "uth": 5018,
      "500": 5019,
      "è¯īè®¼": 5020,
      "æĪı": 5021,
      "Ġscientists": 5022,
      "So": 5023,
      "Ġsolutions": 5024,
      "Ġball": 5025,
      "åĵªäºĽ": 5026,
      "çļĦæľĢ": 5027,
      "èĦı": 5028,
      "Ġcompan": 5029,
      "æŀĦæĪĲ": 5030,
      "æĪĲç»©": 5031,
      "âĢ¢": 5032,
      "ĠOct": 5033,
      "49": 5034,
      "EN": 5035,
      "Ġextreme": 5036,
      "rees": 5037,
      "ana": 5038,
      "amed": 5039,
      "ĠEd": 5040,
      "Ġwall": 5041,
      "ads": 5042,
      "Ġtherefore": 5043,
      "Ġ{": 5044,
      "On": 5045,
      "Ġthus": 5046,
      "Ġ2009": 5047,
      "Ġpsych": 5048,
      "çļĦä½ľçĶ¨": 5049,
      "ĠAug": 5050,
      "ucle": 5051,
      "æİ¥åıĹ": 5052,
      "ecause": 5053,
      "abet": 5054,
      "onal": 5055,
      "Ġconcent": 5056,
      "Ġcover": 5057,
      "å§Ķåĳĺä¼ļ": 5058,
      "æĺł": 5059,
      "Ġessay": 5060,
      "Ġwhose": 5061,
      "Ġ}": 5062,
      "bit": 5063,
      "ĠAre": 5064,
      "iques": 5065,
      "Ġofficial": 5066,
      "Ġthreat": 5067,
      "å®ĥä»¬": 5068,
      "Ġï¼Ī": 5069,
      "æ¬§": 5070,
      "ĠFun": 5071,
      "åĿı": 5072,
      "Ġuseful": 5073,
      "room": 5074,
      "äºĭæķħ": 5075,
      "Ġlate": 5076,
      "Ġaff": 5077,
      "ãĢĤâĢĿ": 5078,
      "Ġ2013": 5079,
      "èĲ¥åħ»": 5080,
      "Ġallows": 5081,
      "éļĶ": 5082,
      "ç´¯": 5083,
      "Ġast": 5084,
      "çļĦéĹ®é¢ĺ": 5085,
      "åıĹåĪ°": 5086,
      "Ġinside": 5087,
      "èĮ¶": 5088,
      "Ġremain": 5089,
      "Ġexpression": 5090,
      "Ġ27": 5091,
      "Ġinvestig": 5092,
      "Ġcritical": 5093,
      "Ġvirus": 5094,
      "plication": 5095,
      "æ¶¦": 5096,
      "ä¸Ģèµ·": 5097,
      "ĠJu": 5098,
      "ĠSystem": 5099,
      "è¡¨éĿ¢": 5100,
      "æĪĺçķ¥": 5101,
      "Ġprobably": 5102,
      "Ġappropri": 5103,
      "set": 5104,
      "åģļå¥½": 5105,
      "wise": 5106,
      "Ġdemonstr": 5107,
      "Ġcamp": 5108,
      "Ġculture": 5109,
      "aly": 5110,
      "å·¦åı³": 5111,
      "Ġforest": 5112,
      "Ġdamage": 5113,
      "Ġideas": 5114,
      "éĴĪå¯¹": 5115,
      "ief": 5116,
      "Ġwebs": 5117,
      "äºĭä¸ļ": 5118,
      "Ġlooking": 5119,
      "è¿ŀæİ¥": 5120,
      "Ġteachers": 5121,
      "Ġeasily": 5122,
      "è®ºæĸĩ": 5123,
      "Ġproperty": 5124,
      "Ġcm": 5125,
      "âĳ¡": 5126,
      "çĪ¶": 5127,
      "åĺ": 5128,
      "ĠLet": 5129,
      "pril": 5130,
      "Ġox": 5131,
      "ï¼ļâĢľ": 5132,
      "ancial": 5133,
      "åĨ¬": 5134,
      "issions": 5135,
      "ĠAustral": 5136,
      "æĢ§åĴĮ": 5137,
      "åī§": 5138,
      "eration": 5139,
      "Ġlack": 5140,
      "ls": 5141,
      "ä¸įè¦ģ": 5142,
      "ä½ĵèĤ²": 5143,
      "Ġinstead": 5144,
      "è´¸": 5145,
      "æĺ¯ä¸Ģ": 5146,
      "Ġcontinue": 5147,
      "Ġthous": 5148,
      "ĠGra": 5149,
      "ground": 5150,
      "ä¿¡åı·": 5151,
      "Ġpoor": 5152,
      "æĪĲæŀľ": 5153,
      "å£¤": 5154,
      "Ġ22": 5155,
      "Ġdirectly": 5156,
      "åįıè®®": 5157,
      "www": 5158,
      "Ġpolicy": 5159,
      "Ġsound": 5160,
      "èµĦæł¼": 5161,
      "iber": 5162,
      "Ġunique": 5163,
      "ä¸»ä½ĵ": 5164,
      "Ġattention": 5165,
      "Ġdirection": 5166,
      "æĸĩç«ł": 5167,
      "ography": 5168,
      "rig": 5169,
      "lection": 5170,
      "ĠCO": 5171,
      "Ġdeb": 5172,
      "Ġfoods": 5173,
      "ĠKe": 5174,
      "æ»¡è¶³": 5175,
      "çļĦå¤§": 5176,
      "Ġemot": 5177,
      "enced": 5178,
      "matrix": 5179,
      "äºĭä»¶": 5180,
      "cript": 5181,
      "Ġnight": 5182,
      "é¦ĸåħĪ": 5183,
      "Ġexamples": 5184,
      "inks": 5185,
      "æ¯ıä¸ª": 5186,
      "å®¹æĺĵ": 5187,
      "éĩĳå±ŀ": 5188,
      "Ġtools": 5189,
      "uge": 5190,
      "å¦Ĥä¸ĭ": 5191,
      "èħ¹": 5192,
      "Ġadditional": 5193,
      "å®īæİĴ": 5194,
      "Ġmess": 5195,
      "Ġgrowing": 5196,
      "Ġ$\\": 5197,
      "æĶ¹åıĺ": 5198,
      "è®Ńç»ĥ": 5199,
      "vant": 5200,
      "Ġperformance": 5201,
      "Ġcontains": 5202,
      "è¾ħ": 5203,
      "Ġdeveloping": 5204,
      "çĸĳ": 5205,
      "Ġaltern": 5206,
      "ĠäºĮ": 5207,
      "ĠHere": 5208,
      "çī©çļĦ": 5209,
      "ç¡®ä¿Ŀ": 5210,
      "æµĭéĩı": 5211,
      "å¹¶ä¸Ķ": 5212,
      "çĶµè·¯": 5213,
      "å¹¿æ³Ľ": 5214,
      "å·¥åħ·": 5215,
      "è½¯ä»¶": 5216,
      "rs": 5217,
      "ĠMany": 5218,
      "ĠFirst": 5219,
      "æĢĿèĢĥ": 5220,
      "Ġmanufact": 5221,
      "Ġreflect": 5222,
      "Ġhyd": 5223,
      "Ġstri": 5224,
      "sec": 5225,
      "Ġquite": 5226,
      "è°¢": 5227,
      "Ġrule": 5228,
      "çĶŁåĳ½": 5229,
      "Ġmedia": 5230,
      "å®īè£ħ": 5231,
      "Ġlimit": 5232,
      "oes": 5233,
      "ying": 5234,
      "IT": 5235,
      "And": 5236,
      "ĠVal": 5237,
      "airs": 5238,
      "rew": 5239,
      "Ġfa": 5240,
      "Ġdistribution": 5241,
      "ĠChina": 5242,
      "```": 5243,
      "Qu": 5244,
      "ony": 5245,
      "Ġcentral": 5246,
      "begin": 5247,
      "åı«": 5248,
      "åİļ": 5249,
      "Ġwood": 5250,
      "hens": 5251,
      "èľ": 5252,
      "Ġanimal": 5253,
      "Ġcircle": 5254,
      "Ġserious": 5255,
      "æĪĲåĬŁ": 5256,
      "Ġsomeone": 5257,
      "Ġmath": 5258,
      "éĹŃ": 5259,
      "Ġscientific": 5260,
      "Ġvisit": 5261,
      "ha": 5262,
      "Ġdocument": 5263,
      "Ġsafety": 5264,
      "One": 5265,
      "ĠSch": 5266,
      "åĩĨå¤ĩ": 5267,
      "èģĮå·¥": 5268,
      "eed": 5269,
      "å®Įåħ¨": 5270,
      "è§£éĩĬ": 5271,
      "Ġbit": 5272,
      "cell": 5273,
      "Ġfav": 5274,
      "Ġbecomes": 5275,
      "Ġaware": 5276,
      "çīĽ": 5277,
      "%.": 5278,
      "è®¸å¤ļ": 5279,
      "Ġtown": 5280,
      "Ġhundred": 5281,
      "ban": 5282,
      "è¿ĺæĺ¯": 5283,
      "éļĲ": 5284,
      "Ġelement": 5285,
      "Ġcapac": 5286,
      "Ġinterp": 5287,
      "Ġcompared": 5288,
      "....": 5289,
      "Ġsea": 5290,
      "ç³»åĪĹ": 5291,
      "ĠYour": 5292,
      "åı¥è¯Ŀ": 5293,
      "Ġdaily": 5294,
      "è£Ĥ": 5295,
      "Ġtur": 5296,
      "çº¤": 5297,
      "Ġbooks": 5298,
      "èĭ±è¯Ń": 5299,
      "Ġmiles": 5300,
      "osing": 5301,
      "Ġgame": 5302,
      "67": 5303,
      "åĩºçļĦ": 5304,
      "ä¸ĭéĻį": 5305,
      "æ³¨åĨĮ": 5306,
      "Solution": 5307,
      "ĠFrench": 5308,
      "na": 5309,
      "æķı": 5310,
      "åķĨåĵģ": 5311,
      "Ġsust": 5312,
      "mar": 5313,
      "Ġleading": 5314,
      "é«ĺæł¡": 5315,
      "resp": 5316,
      "èĪ¹": 5317,
      "ĠCor": 5318,
      "Ġkids": 5319,
      "ĠEduc": 5320,
      "çĶļ": 5321,
      "èĥ¶": 5322,
      "ancy": 5323,
      "sect": 5324,
      "'re": 5325,
      "æ®ĸ": 5326,
      "Ġmother": 5327,
      "Ġtraditional": 5328,
      "95": 5329,
      "æ´ĭ": 5330,
      "èģĶåĲĪ": 5331,
      "çĽĳæµĭ": 5332,
      "Ġstarted": 5333,
      "ĠCenter": 5334,
      "Ġfoot": 5335,
      "Ġsymbol": 5336,
      "Ġearli": 5337,
      "ä¼ĳ": 5338,
      "éħ¶": 5339,
      "æĿ¥è¯´": 5340,
      "åĪĽå»º": 5341,
      "ç»´æĬ¤": 5342,
      "åħ¨éĥ¨": 5343,
      "ĠĠĠ": 5344,
      "Ġcommit": 5345,
      "å½©": 5346,
      "By": 5347,
      "ĠFr": 5348,
      "ĠMult": 5349,
      "ç§Ģ": 5350,
      "Ġachieve": 5351,
      "ometric": 5352,
      "Ġcru": 5353,
      "Ġbab": 5354,
      "ãĢĤ(": 5355,
      "Ġveget": 5356,
      "Ġgot": 5357,
      "Ġcontext": 5358,
      "resh": 5359,
      "ĠMarch": 5360,
      "èĻ½çĦ¶": 5361,
      "Ġful": 5362,
      "Ġprep": 5363,
      "åª": 5364,
      ":\"": 5365,
      "åĨł": 5366,
      "å¼¹": 5367,
      "æĬ½": 5368,
      "Ġprimary": 5369,
      "pper": 5370,
      "Ġadj": 5371,
      "Ġhol": 5372,
      "erg": 5373,
      "é²ľ": 5374,
      "Ġaim": 5375,
      "Ġpatient": 5376,
      "ĠTrans": 5377,
      "inct": 5378,
      "Ġlinear": 5379,
      "ellow": 5380,
      "cil": 5381,
      "ometry": 5382,
      "ii": 5383,
      "ĠForm": 5384,
      "68": 5385,
      "Cl": 5386,
      "è¯ĬæĸŃ": 5387,
      "haps": 5388,
      "çħ¤": 5389,
      "ĠSince": 5390,
      "Ġfram": 5391,
      "Ġblock": 5392,
      "å±¥": 5393,
      "Ġattack": 5394,
      "Ġfinal": 5395,
      "æĹłæ³ķ": 5396,
      "ĠReg": 5397,
      "é¦Ĩ": 5398,
      "æ»ĳ": 5399,
      "æ³¥": 5400,
      "æ³ķè§Ħ": 5401,
      "Ġsil": 5402,
      "II": 5403,
      "çĶ¨çļĦ": 5404,
      "ington": 5405,
      "asons": 5406,
      "Ġinternational": 5407,
      "ĠExp": 5408,
      "Ġreve": 5409,
      "å¯Ĵ": 5410,
      "èħº": 5411,
      "è§Ħå®ļçļĦ": 5412,
      "Ġsimpl": 5413,
      "è¿Ķ": 5414,
      "Ġmathematical": 5415,
      "47": 5416,
      "vention": 5417,
      "åİĤ": 5418,
      "Ġsou": 5419,
      "Ġcit": 5420,
      "Ġcapt": 5421,
      "è®°å½ķ": 5422,
      "ĠAng": 5423,
      "Ġquickly": 5424,
      "æľĭ": 5425,
      "ptember": 5426,
      "clusion": 5427,
      "Ġeth": 5428,
      "ensity": 5429,
      "æīĢå¾Ĺ": 5430,
      "Ġoperations": 5431,
      "Ġacid": 5432,
      "He": 5433,
      "Ġestablished": 5434,
      "ĠFrom": 5435,
      "åĪ¤æĸŃ": 5436,
      "æ´¾": 5437,
      "Ġimmedi": 5438,
      "PA": 5439,
      "Ġapplication": 5440,
      "Ġcivil": 5441,
      "ĠSm": 5442,
      "come": 5443,
      "Ġzero": 5444,
      "å¤ľ": 5445,
      "Ġlargest": 5446,
      "Ġobjects": 5447,
      "æĺ¯åľ¨": 5448,
      "ino": 5449,
      "åŁºåĽł": 5450,
      "Ġcard": 5451,
      "}(": 5452,
      "Ġoffer": 5453,
      "Ġsample": 5454,
      "Ġ2008": 5455,
      "Ġconcepts": 5456,
      "æĳĦ": 5457,
      "Ġleaders": 5458,
      "æĿ¥æºĲ": 5459,
      "Ġ23": 5460,
      "))": 5461,
      "é«ĺçļĦ": 5462,
      "Con": 5463,
      "iforn": 5464,
      "ector": 5465,
      "osure": 5466,
      "Ġsmaller": 5467,
      "å°ıæĹ¶": 5468,
      "åħļçļĦ": 5469,
      "åıĤæķ°": 5470,
      "Ġmental": 5471,
      "hel": 5472,
      "Ġlif": 5473,
      "SS": 5474,
      "ille": 5475,
      "Ġvacc": 5476,
      "term": 5477,
      "æİ¢ç´¢": 5478,
      "Ġheld": 5479,
      "Ġinvolves": 5480,
      "Ġsteps": 5481,
      "Ġwarm": 5482,
      "éĻĪ": 5483,
      "Ġvit": 5484,
      "æĽ´å¤ļ": 5485,
      "ulate": 5486,
      "Ġbehind": 5487,
      "Ġexercise": 5488,
      "Ġpan": 5489,
      "Ġunits": 5490,
      "rox": 5491,
      "éĺ²æ²»": 5492,
      "æĮ¯": 5493,
      "å¹ħ": 5494,
      "Ġones": 5495,
      "EC": 5496,
      "Ġwalk": 5497,
      "ding": 5498,
      "è®¿": 5499,
      "42": 5500,
      "åĮĸçļĦ": 5501,
      "iles": 5502,
      "Ġheight": 5503,
      "ä¸īä¸ª": 5504,
      "Ġstrateg": 5505,
      "ĠArt": 5506,
      "Ġjo": 5507,
      "Ġtend": 5508,
      "æĻļ": 5509,
      "Ġprogress": 5510,
      "Ġrot": 5511,
      "é«ĺçŃī": 5512,
      "å¤ļç§į": 5513,
      "Ġtrees": 5514,
      "ä¹ħ": 5515,
      "itch": 5516,
      "å²Ĺ": 5517,
      "Ġspir": 5518,
      "åĿĲ": 5519,
      "åħ»èĢģ": 5520,
      "åĨľæ°ĳ": 5521,
      "å¾ªçİ¯": 5522,
      "ham": 5523,
      "æĬµ": 5524,
      "Ġrequires": 5525,
      "Re": 5526,
      "çģŃ": 5527,
      "ĠMost": 5528,
      "å°ļ": 5529,
      "à¤": 5530,
      "ä¸¥æł¼": 5531,
      "Ġaspect": 5532,
      "é½Ĳ": 5533,
      "Ġvolume": 5534,
      "Ġmilitary": 5535,
      "ĠLaw": 5536,
      "ĠGl": 5537,
      "cont": 5538,
      "ĠChar": 5539,
      "å¥¥": 5540,
      "è¾ĵåħ¥": 5541,
      "çİī": 5542,
      "Ġsold": 5543,
      "Ġdiseases": 5544,
      "è¿ĺæľī": 5545,
      "éľĩ": 5546,
      "çŃ¹": 5547,
      "ĠEuropean": 5548,
      "è§Ħå¾ĭ": 5549,
      "Ġfit": 5550,
      "ĠJune": 5551,
      "åĪĽéĢł": 5552,
      "bor": 5553,
      "ĠMon": 5554,
      "isms": 5555,
      "çĭ¬ç«ĭ": 5556,
      "ously": 5557,
      "Ġelse": 5558,
      "è¦": 5559,
      "Ġseems": 5560,
      "ension": 5561,
      "istry": 5562,
      "Ġshape": 5563,
      "Ġfront": 5564,
      "çģ¯": 5565,
      "Ġ26": 5566,
      "åĪ©çĽĬ": 5567,
      "è¯ĳ": 5568,
      "å®ģ": 5569,
      "æĸĩæĺİ": 5570,
      "ĠFran": 5571,
      "éĢĤåºĶ": 5572,
      "yond": 5573,
      "Ġalthough": 5574,
      "å·¥èµĦ": 5575,
      "è¡¨æĺİ": 5576,
      "æĬĳ": 5577,
      "Ġproced": 5578,
      "ĠMod": 5579,
      "Ġhighly": 5580,
      "Ġcommunities": 5581,
      "Ġnation": 5582,
      "ĠWest": 5583,
      "Ġinstit": 5584,
      "Ġexpect": 5585,
      "eks": 5586,
      "çĬ¯ç½ª": 5587,
      "Ġemb": 5588,
      "Ġfeed": 5589,
      "æľĢåĲİ": 5590,
      "Ġsearch": 5591,
      "å¼ĢæĶ¾": 5592,
      "Ġbirth": 5593,
      "cription": 5594,
      "åĬŀçĲĨ": 5595,
      "èµĦæľ¬": 5596,
      "ifornia": 5597,
      "è°±": 5598,
      "ç½ļ": 5599,
      "ĠDec": 5600,
      "Ġdescribed": 5601,
      "åĨħéĥ¨": 5602,
      "å¨ģ": 5603,
      "æ¯«": 5604,
      "ĠInstitute": 5605,
      "cm": 5606,
      "å®ŀè¡Į": 5607,
      "ĠUnder": 5608,
      "Ġtowards": 5609,
      "Ġshall": 5610,
      "ĠTherefore": 5611,
      "åľŁå£¤": 5612,
      "éĢļçŁ¥": 5613,
      "46": 5614,
      "Ġinfection": 5615,
      "AD": 5616,
      "å±ħæ°ĳ": 5617,
      "Ġexpected": 5618,
      "ä¸¤ç§į": 5619,
      "ests": 5620,
      "ĠOther": 5621,
      "ĠLear": 5622,
      "Ġhumans": 5623,
      "Ġgard": 5624,
      "æĥ¯": 5625,
      "é¹": 5626,
      "Ġthinking": 5627,
      "è¦Ĩ": 5628,
      "ä¹ĭåĲİ": 5629,
      "¹ģ": 5630,
      "èĥĥ": 5631,
      "ç©ºæ°Ķ": 5632,
      "æľĭåıĭ": 5633,
      "Ġrates": 5634,
      "éľ²": 5635,
      "åŁºäºİ": 5636,
      "ä¸ĩåħĥ": 5637,
      "ĠIndian": 5638,
      "wor": 5639,
      "Ġhost": 5640,
      "cean": 5641,
      "ube": 5642,
      "Ġcompanies": 5643,
      "igen": 5644,
      "uk": 5645,
      "ä¼´": 5646,
      "ĠThus": 5647,
      "IV": 5648,
      "éĹ»": 5649,
      "Ġeye": 5650,
      "pm": 5651,
      "å¸ĮæľĽ": 5652,
      "å®«": 5653,
      "å¥¹": 5654,
      "Ġspeak": 5655,
      "ĠDepartment": 5656,
      "celer": 5657,
      "Ġpack": 5658,
      "ç³»ç»ŁçļĦ": 5659,
      "198": 5660,
      "å²Ľ": 5661,
      "Ġcode": 5662,
      "\\(": 5663,
      "å±Ĭ": 5664,
      "Ġsituation": 5665,
      "Ġprior": 5666,
      "ç¤¼": 5667,
      "olar": 5668,
      "åĽ°éļ¾": 5669,
      "Ġsoon": 5670,
      "Ġsupply": 5671,
      "æĺ¯ä¸Ģä¸ª": 5672,
      "ĠRet": 5673,
      "standing": 5674,
      "ä¹ĺ": 5675,
      "æĪĲç«ĭ": 5676,
      "Ġvideo": 5677,
      "æ·±åħ¥": 5678,
      "ç©¿": 5679,
      "thern": 5680,
      "Ġdry": 5681,
      "uit": 5682,
      "åĶĲ": 5683,
      "Ġexcept": 5684,
      "Ġmid": 5685,
      "èĥľ": 5686,
      ")}": 5687,
      "Ġtechniques": 5688,
      "ctors": 5689,
      "éĩįè¦ģçļĦ": 5690,
      "Ġplaces": 5691,
      "æĭ¥": 5692,
      "æĽ¿": 5693,
      "è¶ĭ": 5694,
      "æķĪçİĩ": 5695,
      "å½ĵäºĭ": 5696,
      "Ġæľ¬": 5697,
      "å¥ĩ": 5698,
      "Ġactive": 5699,
      "Ġwent": 5700,
      "Ġpurpose": 5701,
      "åħ³æ³¨": 5702,
      "æĺ¾èĳĹ": 5703,
      "ç¬¬åĽĽ": 5704,
      "Ġcustom": 5705,
      "è´µ": 5706,
      "AP": 5707,
      "Ġbad": 5708,
      "Ġsecurity": 5709,
      "hern": 5710,
      "back": 5711,
      "Ġsolar": 5712,
      "å¿ħè¦ģ": 5713,
      "éĻ¢æł¡": 5714,
      "Ġtiss": 5715,
      "æĻºèĥ½": 5716,
      "rag": 5717,
      "Ġfast": 5718,
      "Ġbeginning": 5719,
      "osition": 5720,
      "å®£ä¼ł": 5721,
      "å¹´çº§": 5722,
      "æĻ¶": 5723,
      "åħįçĸ«": 5724,
      "Ġinn": 5725,
      "Ġforces": 5726,
      "ĠAugust": 5727,
      "ĠApril": 5728,
      "çīĮ": 5729,
      "Ġteaching": 5730,
      "Ġwaste": 5731,
      "Ġfinancial": 5732,
      "ç¹ģ": 5733,
      "Ġ2014": 5734,
      "Ġten": 5735,
      "roduction": 5736,
      "joy": 5737,
      "Ġdegree": 5738,
      "ĠĠĠĠĠĠĠĠĠĠĠĠĠĠĠĠ": 5739,
      "çĽ¸äºĴ": 5740,
      "AL": 5741,
      "Ġstay": 5742,
      "åĬłå¿«": 5743,
      "Ġtransport": 5744,
      "Ġmoment": 5745,
      "izes": 5746,
      "èį·": 5747,
      "sum": 5748,
      "èĢĹ": 5749,
      "æįŁå¤±": 5750,
      "äº®": 5751,
      "åħµ": 5752,
      "lation": 5753,
      "ET": 5754,
      "Ġbroad": 5755,
      "éĶĢåĶ®": 5756,
      "ç¥ŀç»ı": 5757,
      "Ġdecl": 5758,
      "åĨħçļĦ": 5759,
      "Ġbasis": 5760,
      "ç§ģ": 5761,
      "éĽ·": 5762,
      "å°ıåŃ¦": 5763,
      "ä¸Ĭè¿°": 5764,
      "éģµ": 5765,
      "ä¸ĵå®¶": 5766,
      "Ġreceived": 5767,
      "éĽĨä¸Ń": 5768,
      "Ġsus": 5769,
      "èµĶ": 5770,
      "Ġmiddle": 5771,
      "pite": 5772,
      "çłĶç©¶çĶŁ": 5773,
      "nomial": 5774,
      "ilos": 5775,
      "ĠTheorem": 5776,
      "Ġhands": 5777,
      "These": 5778,
      "åĪ¶ä½ľ": 5779,
      "Ġreach": 5780,
      "ivative": 5781,
      "ocity": 5782,
      "Ġ90": 5783,
      "æ»¤": 5784,
      "è±Ĩ": 5785,
      "ST": 5786,
      "ç®±": 5787,
      "åĮ»éĻ¢": 5788,
      "Ġbott": 5789,
      "Ġfeatures": 5790,
      "Ġlabor": 5791,
      "77": 5792,
      "Ġmount": 5793,
      "éĻĨ": 5794,
      "Ġappropriate": 5795,
      "Ġinfluence": 5796,
      "åĪº": 5797,
      "Ġsevere": 5798,
      "Ġlost": 5799,
      "Ġ80": 5800,
      "æ²Ł": 5801,
      "water": 5802,
      "ĠDis": 5803,
      "Ġcarry": 5804,
      "æĶ»": 5805,
      "Ġwa": 5806,
      "Ġremains": 5807,
      "Ġimportance": 5808,
      "éĹ®é¢ĺçļĦ": 5809,
      "Let": 5810,
      "Ġsoftware": 5811,
      "useum": 5812,
      "Ġsn": 5813,
      "æī£": 5814,
      "æ´ģ": 5815,
      "ĠGerman": 5816,
      "Ġnorth": 5817,
      "Ġdrink": 5818,
      "æĹħæ¸¸": 5819,
      "Ġaud": 5820,
      "åįķåħĥ": 5821,
      "AB": 5822,
      "ä¸Ģå®ļçļĦ": 5823,
      "ä¸½": 5824,
      "Ġlimited": 5825,
      "åĩĨç¡®": 5826,
      "raw": 5827,
      "åĬª": 5828,
      "Ġtests": 5829,
      "ĠMus": 5830,
      "ĠProg": 5831,
      "ĠJuly": 5832,
      "yp": 5833,
      "Ġfamilies": 5834,
      "âĪ": 5835,
      "ĠAfrica": 5836,
      "Ġrules": 5837,
      "æģ¶": 5838,
      "}}{": 5839,
      "å°¤": 5840,
      "Ġhot": 5841,
      "ĠFeb": 5842,
      "æ¡¥": 5843,
      "Ġax": 5844,
      "Ġdepend": 5845,
      "ĠCalifornia": 5846,
      "ç§Ł": 5847,
      "åªĴ": 5848,
      "å¤įæĿĤ": 5849,
      "åĮ»åŃ¦": 5850,
      "ä¼ļè®®": 5851,
      "èµ·æĿ¥": 5852,
      "åĲ«éĩı": 5853,
      "ĠPost": 5854,
      "æ²¿": 5855,
      "mission": 5856,
      "cember": 5857,
      "è´¯": 5858,
      "Ġvector": 5859,
      "Ġleaves": 5860,
      "oe": 5861,
      "ç´łè´¨": 5862,
      "ovember": 5863,
      "irm": 5864,
      "Ġclin": 5865,
      "æī¶": 5866,
      "Ġcapital": 5867,
      "éħįç½®": 5868,
      "ä¼ĺåĬ¿": 5869,
      "Ġperfect": 5870,
      "Ġrepe": 5871,
      "ĠInternational": 5872,
      "anation": 5873,
      "ĠInter": 5874,
      "At": 5875,
      "Ġhar": 5876,
      "Ġmole": 5877,
      "iot": 5878,
      "ĠHar": 5879,
      "åıĳå¸ĥ": 5880,
      "æ£ĢéªĮ": 5881,
      "æĢİä¹Ī": 5882,
      "gor": 5883,
      "Ġjud": 5884,
      "Ġagree": 5885,
      "è°Ī": 5886,
      "Ġbra": 5887,
      "æĹĭ": 5888,
      "æ·»": 5889,
      "Ġchoose": 5890,
      "æ°¨": 5891,
      "43": 5892,
      "book": 5893,
      "å·®å¼Ĥ": 5894,
      "vest": 5895,
      "orthern": 5896,
      "$,": 5897,
      "Ġprocesses": 5898,
      "âĢ¦âĢ¦": 5899,
      "41": 5900,
      "æ¥¼": 5901,
      "æµĵåº¦": 5902,
      "ãĢģãĢĬ": 5903,
      "ç¾¤ä¼Ĺ": 5904,
      "Ġevalu": 5905,
      "è§ĦåĪĻ": 5906,
      "æĶ¹åĸĦ": 5907,
      "Ġscale": 5908,
      "ĠDav": 5909,
      "que": 5910,
      "åħ·å¤ĩ": 5911,
      "Ġprice": 5912,
      "()": 5913,
      "Ġund": 5914,
      "åĲįç§°": 5915,
      "imin": 5916,
      "ceed": 5917,
      "})": 5918,
      "lement": 5919,
      "Ġproviding": 5920,
      "ĠPress": 5921,
      "racy": 5922,
      "ä½ľä¸ļ": 5923,
      "iter": 5924,
      "åĽºå®ļ": 5925,
      "used": 5926,
      "ifying": 5927,
      "Ġcosts": 5928,
      "ä¸įä¼ļ": 5929,
      "ĠMy": 5930,
      "æ¡Īä»¶": 5931,
      "åķĨä¸ļ": 5932,
      "èĥĨ": 5933,
      "å®Ĺ": 5934,
      "å·Ŀ": 5935,
      "year": 5936,
      "rote": 5937,
      "ocks": 5938,
      "ĠSw": 5939,
      "Ġprotein": 5940,
      "ç»ĥä¹ł": 5941,
      "Ġhabit": 5942,
      "Ġgoal": 5943,
      "æ£®": 5944,
      "Ġfigure": 5945,
      "Ġtypically": 5946,
      "ech": 5947,
      "Ġmeasures": 5948,
      "ĠInc": 5949,
      "ĠServ": 5950,
      "Ġweeks": 5951,
      "oming": 5952,
      "Ġlaws": 5953,
      "æķ°çļĦ": 5954,
      "é¤Ĳ": 5955,
      "Ġvisual": 5956,
      "time": 5957,
      "ference": 5958,
      "Ġasked": 5959,
      "åĪĨéħį": 5960,
      "çĳ": 5961,
      "Ġç¬¬äºĮ": 5962,
      "ĠAnt": 5963,
      "ĠAlthough": 5964,
      "gn": 5965,
      "å·¥ä½ľçļĦ": 5966,
      "79": 5967,
      "Ġancient": 5968,
      "æ¶īåıĬ": 5969,
      "Ġteacher": 5970,
      "é¼ĵåĬ±": 5971,
      "èī¯å¥½çļĦ": 5972,
      "Ġhttp": 5973,
      "æľ¬ç§ĳ": 5974,
      "è®¨è®º": 5975,
      "Ġratio": 5976,
      "Ġimag": 5977,
      "ĠJanuary": 5978,
      "ä¼ĺåĮĸ": 5979,
      "abetes": 5980,
      "éĿ©åĳ½": 5981,
      "Ġapplied": 5982,
      "ĠEl": 5983,
      "].": 5984,
      "ĠRiver": 5985,
      "Ġdoctor": 5986,
      "Ġmention": 5987,
      "Ġworkers": 5988,
      "ĠAfrican": 5989,
      "uman": 5990,
      "rogen": 5991,
      "================": 5992,
      "Ġvariable": 5993,
      "rition": 5994,
      "oud": 5995,
      "Ġnews": 5996,
      "76": 5997,
      "åĳ¼åĲ¸": 5998,
      "çĶ·": 5999,
      "éĩİ": 6000,
      "met": 6001,
      "PS": 6002,
      "56": 6003,
      "rical": 6004,
      "Ġmatrix": 6005,
      "ä¸ĸçºª": 6006,
      "Ġdecision": 6007,
      "äºĨä¸Ģ": 6008,
      "Ġsequence": 6009,
      "ĠSeptember": 6010,
      "head": 6011,
      "elt": 6012,
      "Ġmodels": 6013,
      "éĻĲåĪ¶": 6014,
      "Ġdemand": 6015,
      "rab": 6016,
      "ç±į": 6017,
      "ĠJes": 6018,
      "çĥĪ": 6019,
      "izations": 6020,
      "itect": 6021,
      "Ġprotection": 6022,
      "ĠUsing": 6023,
      "itis": 6024,
      "ä¸ĭéĿ¢": 6025,
      "å¸Ŀ": 6026,
      "reek": 6027,
      "erences": 6028,
      "Ġbox": 6029,
      "èħĶ": 6030,
      "%ï¼Į": 6031,
      "aid": 6032,
      "Ġprivate": 6033,
      "Ġestablish": 6034,
      "å³°": 6035,
      "Ġvel": 6036,
      "ç»ĺ": 6037,
      "Ġimages": 6038,
      "2020": 6039,
      "å±¥è¡Į": 6040,
      "Ġlocated": 6041,
      "Ġmoving": 6042,
      "éŃ": 6043,
      "å¦ĩ": 6044,
      "Ġä¸ī": 6045,
      "rael": 6046,
      "åĻ¨çļĦ": 6047,
      "life": 6048,
      "æµ®": 6049,
      "Ġbrought": 6050,
      "uries": 6051,
      "è¿ĻéĩĮ": 6052,
      "Ġtold": 6053,
      "ç§ĳçłĶ": 6054,
      "éĺ²æŃ¢": 6055,
      "fort": 6056,
      "adratic": 6057,
      "è¡Ģç®¡": 6058,
      "æľĢé«ĺ": 6059,
      "Ġadminist": 6060,
      "çļĦè§Ħå®ļ": 6061,
      "ĠHer": 6062,
      "ç¬¬åįģ": 6063,
      "Ġtesting": 6064,
      "Ġ29": 6065,
      "Ġ2007": 6066,
      "è¿Ĳè¾ĵ": 6067,
      "Ġnucle": 6068,
      "ĠOctober": 6069,
      "Ġeyes": 6070,
      "æľĢå¤§": 6071,
      "ç«ŀäºī": 6072,
      "ĠChild": 6073,
      "Ġtrig": 6074,
      "æŃ»äº¡": 6075,
      "è¾ĵåĩº": 6076,
      "Ġ\\):": 6077,
      "ulated": 6078,
      "coh": 6079,
      "åĸ·": 6080,
      "Ġstru": 6081,
      "Ġpredict": 6082,
      "å¿«éĢŁ": 6083,
      "ĠTechn": 6084,
      "ä¸Ŀ": 6085,
      "ĠRuss": 6086,
      "king": 6087,
      "å½ķåıĸ": 6088,
      "load": 6089,
      "oke": 6090,
      "58": 6091,
      "ç¿»": 6092,
      "ologies": 6093,
      "Ġmemory": 6094,
      "Ġenh": 6095,
      "Ġbound": 6096,
      "ĠBar": 6097,
      "erson": 6098,
      "è¯¾æĸĩ": 6099,
      "Ġdark": 6100,
      "åĬĽéĩı": 6101,
      "ç¡«": 6102,
      "çº³ç¨İ": 6103,
      "çĬ¶åĨµ": 6104,
      "ipment": 6105,
      "åŃ¦ä½į": 6106,
      "æİ¥è§¦": 6107,
      "alities": 6108,
      "ĠHistory": 6109,
      "åĬªåĬĽ": 6110,
      "çĽĳç®¡": 6111,
      "Ġfight": 6112,
      "é¡¾": 6113,
      "known": 6114,
      "æĢ»ç»ĵ": 6115,
      "see": 6116,
      "oses": 6117,
      "ience": 6118,
      "Ġveh": 6119,
      "åĬłåħ¥": 6120,
      "æŃ¤å¤ĸ": 6121,
      "Ġsouth": 6122,
      "çģ°": 6123,
      "Ġconver": 6124,
      "æ½ľ": 6125,
      "æķ´ä½ĵ": 6126,
      "Ġwebsite": 6127,
      "Ġenjoy": 6128,
      "AM": 6129,
      "é£Łçī©": 6130,
      "ruary": 6131,
      "ĠVol": 6132,
      "ĠMc": 6133,
      "Ġnearly": 6134,
      "Ġcred": 6135,
      "uff": 6136,
      "æĿĨ": 6137,
      "Ġinstall": 6138,
      "encies": 6139,
      "Ġagricult": 6140,
      "ĠDef": 6141,
      "ĠDay": 6142,
      "Ġdeal": 6143,
      "estic": 6144,
      "ĠTra": 6145,
      "æķħäºĭ": 6146,
      "inese": 6147,
      "Ġassum": 6148,
      "Ġseason": 6149,
      "åĢºåĬ¡": 6150,
      "Ġmis": 6151,
      "åĪĨéĴŁ": 6152,
      "è·Ŀç¦»": 6153,
      "ava": 6154,
      "Ġarri": 6155,
      "éĢĴ": 6156,
      "ndom": 6157,
      "çº¯": 6158,
      "Ġreligious": 6159,
      "ĠRel": 6160,
      "Ġconstruction": 6161,
      "Ġcolon": 6162,
      "iers": 6163,
      "rick": 6164,
      "ĠNow": 6165,
      "Ġoccurs": 6166,
      "plies": 6167,
      "åĪ©äºİ": 6168,
      "Ġsummer": 6169,
      "å¹´æĿ¥": 6170,
      "åĪĺ": 6171,
      "Ġdanger": 6172,
      "æľīéĻĲ": 6173,
      "ç¡ķ": 6174,
      "Ġadults": 6175,
      "Ġadapt": 6176,
      "éĶĻè¯¯": 6177,
      "Ġpow": 6178,
      "çĶļèĩ³": 6179,
      "Ġfear": 6180,
      "å¼ºåĮĸ": 6181,
      "ĠWash": 6182,
      "aste": 6183,
      "Ġillust": 6184,
      "Ġadvant": 6185,
      "Ġvert": 6186,
      "Ġconstruct": 6187,
      "éº¦": 6188,
      "umn": 6189,
      "Ġfinding": 6190,
      "Ġegg": 6191,
      "Ġgoes": 6192,
      "Ġdevices": 6193,
      "Ġfraction": 6194,
      "Ġfriends": 6195,
      "ster": 6196,
      "Ġcou": 6197,
      "âĢĿ.": 6198,
      "zz": 6199,
      "odies": 6200,
      "Ġstatement": 6201,
      "osite": 6202,
      "Ġborn": 6203,
      "Ġ2015": 6204,
      "Ġcreating": 6205,
      "orders": 6206,
      "ibr": 6207,
      "atur": 6208,
      "å®¶éķ¿": 6209,
      "Ġdegrees": 6210,
      "å±ĭ": 6211,
      "è´¢åĬ¡": 6212,
      "Ġrapid": 6213,
      "ĠGovern": 6214,
      "èĩªçĶ±": 6215,
      "Ġnothing": 6216,
      "è¯¦ç»Ĩ": 6217,
      "ĠOf": 6218,
      "Ġefforts": 6219,
      "ĠCong": 6220,
      "Ġsurround": 6221,
      "ä»¥æĿ¥": 6222,
      "æŁ±": 6223,
      "ä½³": 6224,
      "Ġincreases": 6225,
      "Ġdifferences": 6226,
      "EM": 6227,
      "Ġexactly": 6228,
      "Ġult": 6229,
      "pan": 6230,
      "èº«ä½ĵ": 6231,
      "å¤ªéĺ³": 6232,
      "Ġsubt": 6233,
      "ĠEngland": 6234,
      "off": 6235,
      "Ġbeaut": 6236,
      "ogle": 6237,
      "åį±éĻ©": 6238,
      "ç»ķ": 6239,
      "Ġpatterns": 6240,
      "Ġanything": 6241,
      "Ġformed": 6242,
      "ĠGreat": 6243,
      "Ġcultural": 6244,
      "Ġbeyond": 6245,
      "Ġ`": 6246,
      "Ġsites": 6247,
      "æŀĦå»º": 6248,
      "Ġpen": 6249,
      "æĬĵ": 6250,
      "Ġapply": 6251,
      "ĠAssoci": 6252,
      "ĠWilliam": 6253,
      "rehens": 6254,
      "Ġhimself": 6255,
      "ĠEach": 6256,
      "iar": 6257,
      "Ġalone": 6258,
      "ml": 6259,
      "è¯¾åłĤ": 6260,
      "åĬ¨åĬĽ": 6261,
      "Un": 6262,
      "Ġextra": 6263,
      "}^": 6264,
      "å·¨": 6265,
      "Ġapproximately": 6266,
      "ĠFact": 6267,
      "idents": 6268,
      "itable": 6269,
      "ä¸ªæľĪ": 6270,
      "aul": 6271,
      "Ġcommunication": 6272,
      "èĭ¦": 6273,
      "Ġep": 6274,
      "Ġsustain": 6275,
      "åĩºäºĨ": 6276,
      "è¿Ľè¡ĮäºĨ": 6277,
      "Ġcommand": 6278,
      "äººæ°ĳæ³ķéĻ¢": 6279,
      "éģį": 6280,
      "Ġmaximum": 6281,
      "arian": 6282,
      "ĠCanada": 6283,
      "ĠRead": 6284,
      "æł·çļĦ": 6285,
      "iply": 6286,
      "Ġcold": 6287,
      "Ġcommer": 6288,
      "Ġvict": 6289,
      "æ¶Īéĺ²": 6290,
      "ä½įäºİ": 6291,
      "omb": 6292,
      "èĢģå¹´": 6293,
      "72": 6294,
      "Ġfather": 6295,
      "Ġbacteria": 6296,
      "overy": 6297,
      "Ġdate": 6298,
      "ä¸įè¶³": 6299,
      "å½ĵäºĭäºº": 6300,
      "Ġcool": 6301,
      "ĠDiv": 6302,
      "è¯ģä¹¦": 6303,
      "Ġaccom": 6304,
      "CD": 6305,
      "åıįæĺł": 6306,
      "ä¹İ": 6307,
      "æ°¸": 6308,
      "Ġdead": 6309,
      "å©ļ": 6310,
      "Ġhope": 6311,
      "ĠRed": 6312,
      "Ġroom": 6313,
      "Ġadop": 6314,
      "è£ħç½®": 6315,
      "ĠSur": 6316,
      "ĠRo": 6317,
      "Ġconnect": 6318,
      "ocr": 6319,
      "Ġmiss": 6320,
      "Ġautom": 6321,
      "Ġtrade": 6322,
      "åĢĴ": 6323,
      "è·¨": 6324,
      "amb": 6325,
      "With": 6326,
      "pha": 6327,
      "Ġgradu": 6328,
      "Ġcoordin": 6329,
      "ĠCur": 6330,
      "Ġinteresting": 6331,
      "å°º": 6332,
      "ç¡®è®¤": 6333,
      "åĨ°": 6334,
      "ondon": 6335,
      "Stage": 6336,
      "ä¼Ł": 6337,
      "edia": 6338,
      "Ġangles": 6339,
      "Ġtrying": 6340,
      "aught": 6341,
      "Ġfollowed": 6342,
      "Ġsaw": 6343,
      "ĠEducation": 6344,
      "itle": 6345,
      "Ġ$$": 6346,
      "å½ĵåīį": 6347,
      "è°ĵ": 6348,
      "ç¼ĺ": 6349,
      "Ġrare": 6350,
      "ought": 6351,
      "Ġexplain": 6352,
      "æłª": 6353,
      ".**": 6354,
      "Ġking": 6355,
      "stitution": 6356,
      "Ġson": 6357,
      "ĠTest": 6358,
      "ä½ĵçİ°": 6359,
      "èĢ³": 6360,
      "èĦļ": 6361,
      "åĴĮåĽ½": 6362,
      "Ġweb": 6363,
      "Ġprojects": 6364,
      "mitted": 6365,
      "da": 6366,
      "ĠTwo": 6367,
      "Ġconvers": 6368,
      "Ġrain": 6369,
      "âĳ¢": 6370,
      "Ġ35": 6371,
      "Ġcomponents": 6372,
      "Ġeverything": 6373,
      "Ġdevice": 6374,
      "ĠMathemat": 6375,
      "Ġstage": 6376,
      "Ġcorresp": 6377,
      ".;": 6378,
      "æıĴ": 6379,
      "ĠPark": 6380,
      "elta": 6381,
      "eters": 6382,
      "é¢ľ": 6383,
      "åĲ¸æĶ¶": 6384,
      "åĪļ": 6385,
      "ĠĠĊ": 6386,
      "éŁ³ä¹Ĳ": 6387,
      "Ġfundamental": 6388,
      "88": 6389,
      "Ġmotion": 6390,
      "Ġrandom": 6391,
      "roup": 6392,
      "unch": 6393,
      "åĮħåĲ«": 6394,
      "hesis": 6395,
      "Ġassign": 6396,
      "Ph": 6397,
      "å²©": 6398,
      "æĿĢ": 6399,
      "Ġrock": 6400,
      "Ġfuel": 6401,
      "Ġkm": 6402,
      "Ġinstance": 6403,
      "Ġcoast": 6404,
      "Ġplaced": 6405,
      "Ġbreat": 6406,
      "ĠEquations": 6407,
      "ĠPresident": 6408,
      "Ġcompar": 6409,
      "Ġinput": 6410,
      "ords": 6411,
      "ype": 6412,
      "å¼ºåº¦": 6413,
      "å¿ĹæĦ¿": 6414,
      "è¿ŀç»Ń": 6415,
      "æ³¡": 6416,
      "éĢĤçĶ¨": 6417,
      "Ġfields": 6418,
      "ĠDecember": 6419,
      "can": 6420,
      "abilities": 6421,
      "åįĸ": 6422,
      "èĢħçļĦ": 6423,
      "ä¹łæĥ¯": 6424,
      "è¯º": 6425,
      "Ġcompletely": 6426,
      "Ġyourself": 6427,
      "Ġindependent": 6428,
      "Ġappe": 6429,
      "Ġcateg": 6430,
      "è·Ł": 6431,
      "æīĢåľ¨": 6432,
      "ios": 6433,
      "Ġconstit": 6434,
      "ford": 6435,
      "Ġoverall": 6436,
      "Ġcollection": 6437,
      "Ġtransform": 6438,
      "ĠPat": 6439,
      "æĸ¹ç¨ĭ": 6440,
      "odes": 6441,
      "allel": 6442,
      "Ġstrength": 6443,
      "ĠJesus": 6444,
      "çĶµæµģ": 6445,
      "Ġbul": 6446,
      "Ġnote": 6447,
      "oted": 6448,
      "pir": 6449,
      "point": 6450,
      "åŁºåľ°": 6451,
      "aled": 6452,
      "69": 6453,
      "Ġcitiz": 6454,
      "oking": 6455,
      "ĠIsrael": 6456,
      "Ġsugar": 6457,
      "Ġroots": 6458,
      "èĤ¡ä¸ľ": 6459,
      "è½¬ç§»": 6460,
      "Ġreasons": 6461,
      "éĺĢ": 6462,
      "Ġfile": 6463,
      "è®¤å®ļ": 6464,
      "Ġlocation": 6465,
      "å¡ĳ": 6466,
      "bl": 6467,
      "ellig": 6468,
      "å¹³è¡¡": 6469,
      "çļĦåĨħå®¹": 6470,
      "Ġvariables": 6471,
      "åįĪ": 6472,
      "Ġpowerful": 6473,
      "æģ¢": 6474,
      "æº¶æ¶²": 6475,
      "swers": 6476,
      "illing": 6477,
      "Ġice": 6478,
      "ĠSer": 6479,
      "ingu": 6480,
      "Ġefficient": 6481,
      "èħĲ": 6482,
      "Ġreceive": 6483,
      "åºĶæĢ¥": 6484,
      "omy": 6485,
      "Ġdigital": 6486,
      "ĠChristian": 6487,
      "Ġconsequ": 6488,
      "Ġ...": 6489,
      "oration": 6490,
      "Ġexplore": 6491,
      "ĠNovember": 6492,
      "Ġcontroll": 6493,
      "Ġbehavi": 6494,
      "ĠEven": 6495,
      "Ġresistance": 6496,
      "æĺ¯ä»Ģä¹Ī": 6497,
      "è¯ģåĪ¸": 6498,
      "Ġdied": 6499,
      "che": 6500,
      "ä¼łæĴŃ": 6501,
      "æ··åĲĪ": 6502,
      "åı¸æ³ķ": 6503,
      "Ġanti": 6504,
      "Ġ45": 6505,
      "ĠJournal": 6506,
      "Ġrecently": 6507,
      "Ġearlier": 6508,
      "ĠAccording": 6509,
      "Ġç¬¬ä¸Ģ": 6510,
      "Ġresponsible": 6511,
      "è´¸æĺĵ": 6512,
      "erent": 6513,
      "æ°ı": 6514,
      "ç»ĻäºĪ": 6515,
      "Ġisn": 6516,
      "mosp": 6517,
      "ĠSpe": 6518,
      "æ°¢": 6519,
      "ĠHigh": 6520,
      "Ġaffected": 6521,
      "Ġpractices": 6522,
      "},": 6523,
      "å·§": 6524,
      "Ġwrote": 6525,
      "cohol": 6526,
      "Ġ2000": 6527,
      "èĩªä¸»": 6528,
      "Ġolder": 6529,
      "Ġlegal": 6530,
      "Ġleave": 6531,
      "åľĪ": 6532,
      "Ġvelocity": 6533,
      "Ġdat": 6534,
      "ãĢĭï¼Į": 6535,
      "Ġrise": 6536,
      "Ġuser": 6537,
      "Ġfollows": 6538,
      "ï¼īãĢģ": 6539,
      "ama": 6540,
      "ĠFin": 6541,
      "Ġ2016": 6542,
      "çĶµåİĭ": 6543,
      "Ġdisplay": 6544,
      "Ġpiece": 6545,
      "2000": 6546,
      "é«ĺåº¦": 6547,
      "Ġreduced": 6548,
      "Ġvia": 6549,
      "Ġhous": 6550,
      "Ġcommonly": 6551,
      "ç£·": 6552,
      "ica": 6553,
      "ĠLine": 6554,
      "Ġcele": 6555,
      "Ġprime": 6556,
      "Ġrecommend": 6557,
      "æĬ¤çĲĨ": 6558,
      "çĶŁæĪĲ": 6559,
      "Ġneigh": 6560,
      "èĩªèº«": 6561,
      "ĠOur": 6562,
      "Ġcam": 6563,
      "åĲĦç±»": 6564,
      "Ġstraight": 6565,
      "çĦ¦": 6566,
      "åįıè°ĥ": 6567,
      "æĢĿç»´": 6568,
      "ä¼ĺç§Ģ": 6569,
      "ĠAmericans": 6570,
      "Ġopportunity": 6571,
      "Ġblue": 6572,
      "Ġequipment": 6573,
      ";(": 6574,
      "ç®Ĺæ³ķ": 6575,
      "èĢĥæł¸": 6576,
      "ogen": 6577,
      "ç²®": 6578,
      "Ġinstr": 6579,
      "èµı": 6580,
      "æĢĢ": 6581,
      "ä¸Ĭæµ·": 6582,
      "å½»": 6583,
      "ä¹Łåı¯ä»¥": 6584,
      "Ġeating": 6585,
      "åĵģç§į": 6586,
      "ĠWashington": 6587,
      "æĩ": 6588,
      "Ġcalculate": 6589,
      "Ġrob": 6590,
      "Ġtherapy": 6591,
      "Res": 6592,
      "ĠArch": 6593,
      "Ġdefinition": 6594,
      "Ġscreen": 6595,
      "Ġrespond": 6596,
      "ĠClass": 6597,
      "rieved": 6598,
      "ynam": 6599,
      "Ġmember": 6600,
      "Ġpurch": 6601,
      "OS": 6602,
      "orial": 6603,
      "Ġcommunic": 6604,
      "Sub": 6605,
      "Ġfair": 6606,
      "Ġweather": 6607,
      "Ġwinter": 6608,
      "åİĺ": 6609,
      "tery": 6610,
      "Ġarr": 6611,
      "çļĦçłĶç©¶": 6612,
      "Ġswe": 6613,
      "Ġproport": 6614,
      "300": 6615,
      "ste": 6616,
      "lin": 6617,
      "Ġsett": 6618,
      "æĪĲåĳĺ": 6619,
      "ux": 6620,
      "ĠCity": 6621,
      "Ġhypot": 6622,
      "è°ĥèĬĤ": 6623,
      "æģ¢å¤į": 6624,
      "rite": 6625,
      "Ġversion": 6626,
      "Ġ70": 6627,
      "ç¢į": 6628,
      "ĠDevelop": 6629,
      "rices": 6630,
      "Ġmaintain": 6631,
      "è¾Ĩ": 6632,
      "ĠGeneral": 6633,
      "ĠChinese": 6634,
      "Ġacceler": 6635,
      "Ġdiag": 6636,
      "æĹ§": 6637,
      "è¿Ļåı¥è¯Ŀ": 6638,
      "Sh": 6639,
      "cious": 6640,
      "èĴ¸": 6641,
      "Ġprofessional": 6642,
      "çº¤ç»´": 6643,
      "men": 6644,
      "è¡ĮåĬ¨": 6645,
      "Ġfractions": 6646,
      "ä¹Łæľī": 6647,
      "Ġsigns": 6648,
      "While": 6649,
      "ĠIS": 6650,
      "çŃīæĸ¹éĿ¢": 6651,
      "Ġallowed": 6652,
      "CC": 6653,
      "Ġ2006": 6654,
      "ĠÂł": 6655,
      "Ġmathematics": 6656,
      "Ġconflic": 6657,
      "name": 6658,
      "\\_\\_\\_\\_": 6659,
      "Ġappears": 6660,
      "Ġbenefit": 6661,
      "Ġeffort": 6662,
      "Ġwoman": 6663,
      "ĠAlso": 6664,
      "52": 6665,
      "Ġintegral": 6666,
      "æĪª": 6667,
      "Ġtask": 6668,
      "å®ĥçļĦ": 6669,
      "Ġremember": 6670,
      "63": 6671,
      "Ġbeg": 6672,
      "è¾ĸ": 6673,
      "98": 6674,
      "Ġeveryone": 6675,
      "Ġroad": 6676,
      "oday": 6677,
      "Ġstandards": 6678,
      "ĠCour": 6679,
      "ĠCommun": 6680,
      "åĪĽä¸ļ": 6681,
      "angles": 6682,
      "ä¸²": 6683,
      "Ġshap": 6684,
      "iable": 6685,
      "Ġcurrently": 6686,
      "Ġtrack": 6687,
      "çļĦæĹ¶åĢĻ": 6688,
      "éĽĨä½ĵ": 6689,
      "phas": 6690,
      "Ġnamed": 6691,
      "ico": 6692,
      "ĠCounty": 6693,
      "å°Ĭ": 6694,
      "å£ģ": 6695,
      "cles": 6696,
      "otes": 6697,
      "Ġalgebra": 6698,
      "ĠExpl": 6699,
      "Ġhon": 6700,
      "æııè¿°": 6701,
      "æī¹åĩĨ": 6702,
      "è´Ńä¹°": 6703,
      "æŀĿ": 6704,
      "Ġenter": 6705,
      "Ġguid": 6706,
      "Ġrepresents": 6707,
      "Ġincor": 6708,
      "ara": 6709,
      "ä»²": 6710,
      "æĿĥçļĦ": 6711,
      "Ġoccup": 6712,
      "Ġtou": 6713,
      "Ġcry": 6714,
      "enty": 6715,
      "åĩºåı£": 6716,
      "ĠPhys": 6717,
      "çº·": 6718,
      "Ġ2005": 6719,
      "Ġvirt": 6720,
      "åĩŃ": 6721,
      "çĸı": 6722,
      "çĶ¨äºº": 6723,
      "éĢĤå½ĵ": 6724,
      "olute": 6725,
      "æ¸¸æĪı": 6726,
      "reet": 6727,
      "çĮª": 6728,
      "ĠChurch": 6729,
      "Ġobserved": 6730,
      "Ġformer": 6731,
      "_{\\": 6732,
      "æĪĳä»¬çļĦ": 6733,
      "Ġwat": 6734,
      "æ¸¯": 6735,
      "Is": 6736,
      "å®¡è®¡": 6737,
      "èĤ¿çĺ¤": 6738,
      "è¦ĨçĽĸ": 6739,
      "è¸": 6740,
      "Ġdivided": 6741,
      "Ġgold": 6742,
      "rm": 6743,
      "ä¸»ç®¡": 6744,
      "å°¾": 6745,
      "äºĭé¡¹": 6746,
      "Ġsuccessful": 6747,
      "Ġfruit": 6748,
      "Ġeconomy": 6749,
      "Ġchoice": 6750,
      "%ãĢĤ": 6751,
      "Ġfederal": 6752,
      "eterm": 6753,
      "èį£": 6754,
      "åİħ": 6755,
      "æķ´ä¸ª": 6756,
      "Ġgir": 6757,
      "Ġorganization": 6758,
      "ĠBi": 6759,
      "hold": 6760,
      "è¡£": 6761,
      "wards": 6762,
      "çĶĺ": 6763,
      "Ġexec": 6764,
      "fty": 6765,
      "emy": 6766,
      "Thus": 6767,
      "Ġgave": 6768,
      "çİ¯èĬĤ": 6769,
      "Ġexpand": 6770,
      "fficiency": 6771,
      "Ġchance": 6772,
      "edom": 6773,
      "ĠInst": 6774,
      "Ġusers": 6775,
      "54": 6776,
      "Ġcapacity": 6777,
      "Ġrow": 6778,
      "ĠDiff": 6779,
      "ris": 6780,
      "è¿ģ": 6781,
      "ĠPM": 6782,
      "å¤§å°ı": 6783,
      "Ġexposure": 6784,
      "Ġcircum": 6785,
      "æĬĳåĪ¶": 6786,
      "æ¥ļ": 6787,
      "çļĦæĸ°": 6788,
      "ĠRoman": 6789,
      "'(": 6790,
      "åĬ¨æľº": 6791,
      "Ġaccur": 6792,
      "Ġsitu": 6793,
      "xi": 6794,
      "ĠEast": 6795,
      "73": 6796,
      "è®¾ç«ĭ": 6797,
      "ĠFebruary": 6798,
      "Ġspirit": 6799,
      "Ġteeth": 6800,
      "Now": 6801,
      "Ġmachine": 6802,
      "ĠDi": 6803,
      "ĠBas": 6804,
      "æīĭæ®µ": 6805,
      "æ¡Īä¾ĭ": 6806,
      "ĠLondon": 6807,
      "Ġidentified": 6808,
      "Ġrich": 6809,
      "Ġsatis": 6810,
      "bur": 6811,
      "Ġjoint": 6812,
      "å¡Ķ": 6813,
      "é©¬åħĭ": 6814,
      "äºĭå®ŀ": 6815,
      "Ġpet": 6816,
      "ĠVir": 6817,
      "æļ´": 6818,
      "Ġcontinued": 6819,
      "olve": 6820,
      "æĸĩåŃ¦": 6821,
      "ç¤ºèĮĥ": 6822,
      "ç¤¾åĮº": 6823,
      "ï¼Ľï¼Ī": 6824,
      "more": 6825,
      "è§Ĵåº¦": 6826,
      "è¯´è¿ĩ": 6827,
      "bre": 6828,
      "Ġbirds": 6829,
      "Ġspring": 6830,
      "Ġacqu": 6831,
      "æ°Ķä½ĵ": 6832,
      "ĠProf": 6833,
      "Ġdidn": 6834,
      "Ġdiscovered": 6835,
      "é©±": 6836,
      "å¹´é¾Ħ": 6837,
      "Ġequival": 6838,
      "åħ¼": 6839,
      "éĢĲæ¸Ĳ": 6840,
      "çĶŁç´ł": 6841,
      "tan": 6842,
      "ä¹ĭåīį": 6843,
      "EL": 6844,
      "ä¸ĵåĪ©": 6845,
      "Ġcoming": 6846,
      "éĩįè§Ĩ": 6847,
      "åķĨæłĩ": 6848,
      "}^{": 6849,
      "éĽª": 6850,
      "åħ´è¶£": 6851,
      "wide": 6852,
      "æĸĩåŃĹ": 6853,
      "2010": 6854,
      "Be": 6855,
      "Ġstatus": 6856,
      "Ġfig": 6857,
      "æ¯Ķå¦Ĥ": 6858,
      "Ġpregn": 6859,
      "59": 6860,
      "force": 6861,
      "ĠDNA": 6862,
      "Ġbillion": 6863,
      "åŃ¦æľ¯": 6864,
      "ä¸ģ": 6865,
      "ocol": 6866,
      "Ġshowed": 6867,
      "Ġdrugs": 6868,
      "Ġsch": 6869,
      "ä¸»é¢ĺ": 6870,
      "é¢Ĺ": 6871,
      "Ġ2017": 6872,
      "Ġhistorical": 6873,
      "åįģäºĮ": 6874,
      "Ġstrategies": 6875,
      "åħ±åĴĮåĽ½": 6876,
      "å¯»": 6877,
      "åĬĽçļĦ": 6878,
      "ĠPol": 6879,
      "Ġcommercial": 6880,
      "Ġwrong": 6881,
      "å¤§éĩı": 6882,
      "ĠSan": 6883,
      "Ġpicture": 6884,
      "åİĺç±³": 6885,
      "tes": 6886,
      "Ġsolving": 6887,
      "Ġnames": 6888,
      "ä»£çłģ": 6889,
      "Ġworth": 6890,
      "Ad": 6891,
      "anish": 6892,
      "æ·»åĬł": 6893,
      "ĠJust": 6894,
      "related": 6895,
      "Some": 6896,
      "ternal": 6897,
      "è®©åŃ¦çĶŁ": 6898,
      "Ġbran": 6899,
      "æ¯ķä¸ļçĶŁ": 6900,
      "ä¹±": 6901,
      "Ġcrucial": 6902,
      "02": 6903,
      "æľĹ": 6904,
      "åĲī": 6905,
      "Ġgenetic": 6906,
      "éĨĩ": 6907,
      "å®ĭ": 6908,
      "Ġtransfer": 6909,
      "yd": 6910,
      "å¹´åº¦": 6911,
      "çªĹ": 6912,
      "èģĶç½ĳ": 6913,
      "Ġteach": 6914,
      "Ġexperim": 6915,
      "Ġrac": 6916,
      "57": 6917,
      "pped": 6918,
      "Ġdestro": 6919,
      "ĠAut": 6920,
      "çİ©": 6921,
      "è¯Ńæĸĩ": 6922,
      "Ġbalance": 6923,
      "aint": 6924,
      "Ġhighest": 6925,
      "ä¹ı": 6926,
      "ç¦»åŃĲ": 6927,
      "Ġdro": 6928,
      "ç¡ķå£«": 6929,
      "æ¶Ĥ": 6930,
      "ãĢĤãĢĬ": 6931,
      "omas": 6932,
      "Ġoutput": 6933,
      "Ġevolution": 6934,
      "alt": 6935,
      "éº»": 6936,
      "Ġphilos": 6937,
      "Ġstarting": 6938,
      "Ġinches": 6939,
      "Ġfrequency": 6940,
      "ĠBecause": 6941,
      "Ġstyle": 6942,
      "æ¡Ĩ": 6943,
      "lamm": 6944,
      "ĠãĢĬ": 6945,
      "çļĦè¦ģæ±Ĥ": 6946,
      "èµĶåģ¿": 6947,
      "åŃķ": 6948,
      "ospital": 6949,
      "éĢīé¡¹": 6950,
      "çļĦå·¥ä½ľ": 6951,
      "Ġdiabetes": 6952,
      "è®¤çľŁ": 6953,
      "Ġeducational": 6954,
      "rief": 6955,
      "åģļåĪ°": 6956,
      "åľ°çĲĥ": 6957,
      "Ġmajority": 6958,
      "Ġriver": 6959,
      "ä¸Ģæł·": 6960,
      "Ġguide": 6961,
      "62": 6962,
      "æĿ¥çľĭ": 6963,
      "ĠWork": 6964,
      "All": 6965,
      "è´·æ¬¾": 6966,
      "08": 6967,
      "aur": 6968,
      "ĠHouse": 6969,
      "ä¸įèī¯": 6970,
      "æľªæĿ¥": 6971,
      "orge": 6972,
      "Ġabsor": 6973,
      "Ġlesson": 6974,
      "51": 6975,
      "ĠDuring": 6976,
      "æĸĩçĮ®": 6977,
      "Ġacad": 6978,
      "lege": 6979,
      "ĠCoun": 6980,
      "éĿ¢çļĦ": 6981,
      "æĹ¶çļĦ": 6982,
      "æįŁå®³": 6983,
      "utive": 6984,
      "æ°®": 6985,
      "03": 6986,
      "æī©å¤§": 6987,
      "Ġfully": 6988,
      "ĠWater": 6989,
      "Ġplanet": 6990,
      "Ġseven": 6991,
      "Ġgiving": 6992,
      "}\\).": 6993,
      "ä½İäºİ": 6994,
      "Ġrelatively": 6995,
      "ä¸»åĬ¨": 6996,
      "ĠQuestion": 6997,
      "Ġarchitect": 6998,
      "å®Įæķ´": 6999,
      "ĠNumbers": 7000,
      "Ġrect": 7001,
      "ibly": 7002,
      "å¤ļä¸ª": 7003,
      "ken": 7004,
      "ä¼į": 7005,
      "äººæ°ĳæĶ¿åºľ": 7006,
      "infty": 7007,
      "Ġtox": 7008,
      "ĠNumber": 7009,
      "Ġworked": 7010,
      "ä¸Ģèĩ´": 7011,
      "è½¬æį¢": 7012,
      "Ġstrugg": 7013,
      "æĭ¥æľī": 7014,
      "èĤ¤": 7015,
      "Ġperhaps": 7016,
      "Ġchanged": 7017,
      "åħģ": 7018,
      "Ġrepl": 7019,
      "æķĻæİĪ": 7020,
      "Here": 7021,
      "Se": 7022,
      "æĳĺ": 7023,
      "ĠSum": 7024,
      "From": 7025,
      "RO": 7026,
      "Ġpick": 7027,
      "Ġoffers": 7028,
      "Ġpresence": 7029,
      "å°¤åħ¶": 7030,
      "éĢļä¿¡": 7031,
      "ä¸ºä»Ģä¹Ī": 7032,
      "Ġexpressed": 7033,
      "ees": 7034,
      "æĭĵ": 7035,
      "è¡Ģåİĭ": 7036,
      "è¿ħ": 7037,
      "Ġeight": 7038,
      "Ġround": 7039,
      "ĠChe": 7040,
      "çĽĽ": 7041,
      "Ġord": 7042,
      "udd": 7043,
      "çªģåĩº": 7044,
      "Ġmob": 7045,
      "ameter": 7046,
      "61": 7047,
      "éĽĦ": 7048,
      "æĬķåħ¥": 7049,
      "Ġhour": 7050,
      "ĠSec": 7051,
      "ĠâĢ¦": 7052,
      "gypt": 7053,
      "ĠĠĊĠ": 7054,
      "53": 7055,
      "çİ°åľº": 7056,
      "ĠAlgebra": 7057,
      "Ġplane": 7058,
      "ession": 7059,
      "Find": 7060,
      "Ġbottom": 7061,
      "ä¸ĭçļĦ": 7062,
      "éģĵå¾·": 7063,
      "æļĤ": 7064,
      "éª¤": 7065,
      "åıĺéĩı": 7066,
      "ev": 7067,
      "ĠSociety": 7068,
      "Ġresulting": 7069,
      "Ġç¬¬ä¸ī": 7070,
      "gery": 7071,
      "æłĩå¿Ĺ": 7072,
      "æľŁéĻĲ": 7073,
      "Ġtopic": 7074,
      "åľ°çĲĨ": 7075,
      "Ġexperiment": 7076,
      "uild": 7077,
      "æĿĥçĽĬ": 7078,
      "ses": 7079,
      "Ġbaby": 7080,
      "æľ¬æĸĩ": 7081,
      "Ġrunning": 7082,
      "èĸĦ": 7083,
      "é©¶": 7084,
      "Ġstructures": 7085,
      "Ġdivision": 7086,
      "å¤ļå°ĳ": 7087,
      "éĥ½æľī": 7088,
      "ĠWhy": 7089,
      "Challenge": 7090,
      "Ġemissions": 7091,
      "Ġmi": 7092,
      "ĠOver": 7093,
      "æ°ĳäºĭ": 7094,
      "irect": 7095,
      "RE": 7096,
      "ching": 7097,
      "ä¸īè§Ĵ": 7098,
      "ĠStudents": 7099,
      "æıĲä¾ĽäºĨ": 7100,
      "Ġincome": 7101,
      "ĠBr": 7102,
      "Ġrout": 7103,
      "'ll": 7104,
      "alse": 7105,
      "è¶ĭåĬ¿": 7106,
      "æ¨ª": 7107,
      "æ´»æĢ§": 7108,
      "æĳ©": 7109,
      "è¯¸": 7110,
      "ĠRetrieved": 7111,
      "71": 7112,
      "ĠOb": 7113,
      "Ġatmosp": 7114,
      "Ġstar": 7115,
      "Ġvill": 7116,
      "Ġboard": 7117,
      "çŃĸçķ¥": 7118,
      "IP": 7119,
      "Ġinstruct": 7120,
      "åŃĹç¬¦": 7121,
      "ç²ĺ": 7122,
      "åıĮæĸ¹": 7123,
      "ç§ĺ": 7124,
      "ĠBra": 7125,
      "key": 7126,
      "Ġreference": 7127,
      "ĠDist": 7128,
      "Ġsurvey": 7129,
      "è¯·æ±Ĥ": 7130,
      "Ġeasier": 7131,
      "Ġchurch": 7132,
      "è´¥": 7133,
      "Ġoperation": 7134,
      "Ġactual": 7135,
      "Ġwin": 7136,
      "ç½²": 7137,
      "col": 7138,
      "éĴ±": 7139,
      "Ġfemale": 7140,
      "äº©": 7141,
      "åľ°ä½į": 7142,
      "Ġmut": 7143,
      "izon": 7144,
      "å®¡æŁ¥": 7145,
      "align": 7146,
      "æ¯ıå¹´": 7147,
      "Ġforward": 7148,
      "ulum": 7149,
      "ĠMex": 7150,
      "åıĳçĹħ": 7151,
      "åı¦ä¸Ģ": 7152,
      "rete": 7153,
      "Ġcand": 7154,
      "nes": 7155,
      "ä¿®æĶ¹": 7156,
      "Ġletter": 7157,
      "çĶ¨äººåįķä½į": 7158,
      "ĠGermany": 7159,
      "apers": 7160,
      "Ġpeace": 7161,
      "Ġsuggests": 7162,
      "Ġdu": 7163,
      "ĠTheir": 7164,
      "era": 7165,
      "å°±ä¼ļ": 7166,
      "èĥİ": 7167,
      "æµĨ": 7168,
      "éĺµ": 7169,
      "Ġchallenges": 7170,
      "çĤ¼": 7171,
      "å¼ºè°ĥ": 7172,
      "Ġdistinct": 7173,
      "Ġgarden": 7174,
      "èĥ¸": 7175,
      "ĠHel": 7176,
      "å±Ĥæ¬¡": 7177,
      "ystem": 7178,
      "approx": 7179,
      "74": 7180,
      "ifically": 7181,
      "amm": 7182,
      "Ġmig": 7183,
      "Ġdx": 7184,
      "Ġactions": 7185,
      "Ġregions": 7186,
      "Ġalgor": 7187,
      "æµģåĬ¨": 7188,
      "Ġcities": 7189,
      "ĠFl": 7190,
      "æī¬": 7191,
      "Ġcombination": 7192,
      "Ġweak": 7193,
      "æ°ĶåĢĻ": 7194,
      "1000": 7195,
      "2019": 7196,
      "CT": 7197,
      "alysis": 7198,
      "å°ıç»Ħ": 7199,
      "Ġfriend": 7200,
      "uration": 7201,
      "è¡°": 7202,
      "ãĢĭãĢģãĢĬ": 7203,
      "2018": 7204,
      "Ġsignificantly": 7205,
      "åŃĺåĤ¨": 7206,
      "ĠUnion": 7207,
      "æĶ¶çĽĬ": 7208,
      "Ġcomprehens": 7209,
      "Ġidentity": 7210,
      "Ġpresented": 7211,
      "Ġbelief": 7212,
      "dent": 7213,
      "Ġconnected": 7214,
      "Ġmap": 7215,
      "çĶµæ±ł": 7216,
      "å¥¶": 7217,
      "Ġrelationships": 7218,
      "Ġengineering": 7219,
      "æĦıæĢĿ": 7220,
      "Ġseparate": 7221,
      "é©¬åħĭæĢĿ": 7222,
      "enth": 7223,
      "Ġfindings": 7224,
      "Ġimmune": 7225,
      "åŃ¦ä¼ļ": 7226,
      "Ġitems": 7227,
      "semb": 7228,
      "DA": 7229,
      "éĢĤåĲĪ": 7230,
      "åĳ¨æľŁ": 7231,
      "anging": 7232,
      "Ġgain": 7233,
      "Ġnutri": 7234,
      "ĠData": 7235,
      "Ġseg": 7236,
      "pective": 7237,
      "Ġconsumption": 7238,
      "kg": 7239,
      "åıĳè¡¨": 7240,
      "åı¦å¤ĸ": 7241,
      "bmatrix": 7242,
      "Ġassist": 7243,
      "åĲĪæł¼": 7244,
      "æĹ¥å¸¸": 7245,
      "å¤ļæķ°": 7246,
      "æĮĩåĩº": 7247,
      "Ġpul": 7248,
      "Ġstim": 7249,
      "iful": 7250,
      "rupt": 7251,
      "change": 7252,
      "å¢Ļ": 7253,
      "èįĲ": 7254,
      "éĻ¤äºĨ": 7255,
      "äº¦": 7256,
      "æĥł": 7257,
      "é¸¡": 7258,
      "å¤Ħäºİ": 7259,
      "upp": 7260,
      "Ġopportunities": 7261,
      "Ġemphas": 7262,
      "åªĴä½ĵ": 7263,
      "04": 7264,
      "hab": 7265,
      "comes": 7266,
      "ros": 7267,
      "Ġfavor": 7268,
      "ĠUK": 7269,
      "ç»ĵæĿŁ": 7270,
      "Ġdiscussion": 7271,
      "Answer": 7272,
      "ĠBlack": 7273,
      "orage": 7274,
      "icip": 7275,
      "å¥ĭ": 7276,
      "Ġcontract": 7277,
      "ç§»åĬ¨": 7278,
      "ä»ĸçļĦ": 7279,
      "èĵĿ": 7280,
      "ĠFrance": 7281,
      "ygen": 7282,
      "å®ŀä¾ĭ": 7283,
      "è°ģ": 7284,
      "Ġexisting": 7285,
      "Ġfresh": 7286,
      "çºł": 7287,
      "åħ¸åŀĭ": 7288,
      "å´": 7289,
      "ĠPhil": 7290,
      "ĠProgram": 7291,
      "Ġhair": 7292,
      "Ġmouth": 7293,
      "è§£æŀĲ": 7294,
      "åĢºæĿĥ": 7295,
      "mp": 7296,
      "house": 7297,
      "Ġcorrespond": 7298,
      "Ġdetermined": 7299,
      "att": 7300,
      "å¤§äºİ": 7301,
      "æł½": 7302,
      "Ġphen": 7303,
      "Ġdetails": 7304,
      "Ġoptions": 7305,
      "æ¼ı": 7306,
      "æĸ°åŀĭ": 7307,
      "Ġbank": 7308,
      "å®ļæľŁ": 7309,
      "æĬ¥åĲį": 7310,
      "aign": 7311,
      "èĴĻ": 7312,
      "Ġreports": 7313,
      "Ġiron": 7314,
      "do": 7315,
      "char": 7316,
      "ä¿Ĺ": 7317,
      "asks": 7318,
      "clus": 7319,
      "ky": 7320,
      "Ġä¸Ń": 7321,
      "ç§įæ¤į": 7322,
      "oice": 7323,
      "opy": 7324,
      "Ġ36": 7325,
      "æĤ¨çļĦ": 7326,
      "Ġpolynomial": 7327,
      "æĢ»ä½ĵ": 7328,
      "plications": 7329,
      "çº²": 7330,
      "Ġspect": 7331,
      "æĪĳçļĦ": 7332,
      "åŁİéķĩ": 7333,
      "ç¢±": 7334,
      "ĠProt": 7335,
      "é²ģ": 7336,
      "ä¼ĺåħĪ": 7337,
      "Ġdescribe": 7338,
      "Ġlearned": 7339,
      "Ġillness": 7340,
      "è½¬åĮĸ": 7341,
      "ĠPeople": 7342,
      "æľĢç»Ī": 7343,
      "æ¾": 7344,
      "åĽ¾å½¢": 7345,
      "éģĵè·¯": 7346,
      "otal": 7347,
      "å¹¶ä¸į": 7348,
      "ĠTri": 7349,
      "Ġresource": 7350,
      "à¸": 7351,
      "Example": 7352,
      "iny": 7353,
      "After": 7354,
      "Ġvary": 7355,
      "ldots": 7356,
      "ĠAustralia": 7357,
      "Ġalcohol": 7358,
      "bed": 7359,
      "ç½ĳç«Ļ": 7360,
      "è´¡": 7361,
      "gra": 7362,
      "ager": 7363,
      "ĠLa": 7364,
      "Ġpassed": 7365,
      "Ġthousands": 7366,
      "Ġcarried": 7367,
      "ä¸Ģä¸ĭ": 7368,
      "æĮĳ": 7369,
      "Ġoffice": 7370,
      "Ġgrade": 7371,
      "rome": 7372,
      "zing": 7373,
      "Ġdie": 7374,
      "Ġmag": 7375,
      "èĥĮæĻ¯": 7376,
      "Cons": 7377,
      "Ġcharge": 7378,
      "çļĦæĸ¹å¼ı": 7379,
      "Ġload": 7380,
      "Ġinsect": 7381,
      "æĪĲåĪĨ": 7382,
      "Ġtele": 7383,
      "Ġinnov": 7384,
      "Ġ32": 7385,
      "ĠWeb": 7386,
      "oma": 7387,
      "Ġdoub": 7388,
      "å¯Ĩåº¦": 7389,
      "Ġcollabor": 7390,
      "ãĢģ\"": 7391,
      "å¦Ī": 7392,
      "è½¨": 7393,
      "è¾©": 7394,
      "åĬ¨æĢģ": 7395,
      "Ġing": 7396,
      "Ġclassroom": 7397,
      "åį±å®³": 7398,
      "Ġroll": 7399,
      "è·³": 7400,
      "Ġtissue": 7401,
      "ä»£çĲĨ": 7402,
      "çĪĨ": 7403,
      "rans": 7404,
      "erate": 7405,
      "Ġtruth": 7406,
      "å®¢æĪ·": 7407,
      "çģĮ": 7408,
      "Ġimmediately": 7409,
      "Ġstaff": 7410,
      "é¡¿": 7411,
      "åģ¥åħ¨": 7412,
      "èĩªæ²»": 7413,
      "Ġwatch": 7414,
      "olving": 7415,
      "Ġglass": 7416,
      "Ġiniti": 7417,
      "Ġchallenge": 7418,
      "ä»¥åĲİ": 7419,
      "ĠLat": 7420,
      "çĤī": 7421,
      "Ġupper": 7422,
      "2015": 7423,
      "HE": 7424,
      "Ġplanning": 7425,
      "Ġeventually": 7426,
      "ographic": 7427,
      "ĠNet": 7428,
      "åĲ¨": 7429,
      "Ġantib": 7430,
      "ĠInteg": 7431,
      "Ġstories": 7432,
      "Ġplans": 7433,
      "Ġhappen": 7434,
      "ç»ĦåĲĪ": 7435,
      "Ġsem": 7436,
      "Ġgets": 7437,
      "å¯¹åºĶ": 7438,
      "Int": 7439,
      "ĠEgypt": 7440,
      "æľ¬ä¹¦": 7441,
      "Ġerror": 7442,
      "Ġpp": 7443,
      "ags": 7444,
      "erved": 7445,
      ")ãĢĤ": 7446,
      "åĵĪ": 7447,
      "åħ¬éĩĮ": 7448,
      "Ġutil": 7449,
      "åĪĿæŃ¥": 7450,
      "2011": 7451,
      "è°·": 7452,
      "ĠEnvironment": 7453,
      "ĠPyth": 7454,
      "ä¼¸": 7455,
      "å¹³æĸ¹": 7456,
      "å«": 7457,
      "Ġexcess": 7458,
      "ĠCollege": 7459,
      "çļĦæĹ¶éĹ´": 7460,
      "DP": 7461,
      "ä¼¯": 7462,
      "Ġprinciples": 7463,
      "care": 7464,
      "{(": 7465,
      "Ã¡": 7466,
      "è¿İ": 7467,
      "uting": 7468,
      "æİ¨å¹¿": 7469,
      "Ġintroduced": 7470,
      "MS": 7471,
      "æīĭæľ¯": 7472,
      "ĠãĢĲ": 7473,
      "åĬ¡éĻ¢": 7474,
      "Ġsolid": 7475,
      "åŁİä¹¡": 7476,
      "æµģç¨ĭ": 7477,
      "2012": 7478,
      "Ġsort": 7479,
      "ä»Ĭå¤©": 7480,
      "Ġforeign": 7481,
      "Ġcycle": 7482,
      "åĲĪæ³ķ": 7483,
      "éĢĲæŃ¥": 7484,
      "Ġ(-": 7485,
      "æĭ¿": 7486,
      "Ġalternative": 7487,
      "Ġgene": 7488,
      "Ġsurpr": 7489,
      "çī¹æĢ§": 7490,
      "å¼Ĥå¸¸": 7491,
      "spe": 7492,
      "åıĳè¡Į": 7493,
      "æķ°æį®åºĵ": 7494,
      "ĠPlan": 7495,
      "ĠStand": 7496,
      "Ġslight": 7497,
      "ç£¨": 7498,
      "çĴ": 7499,
      "ç´«": 7500,
      "ĠRem": 7501,
      "Ġcontinuous": 7502,
      "é»ĺ": 7503,
      "ĠGreen": 7504,
      "Ġhuge": 7505,
      "æĥħæĦŁ": 7506,
      "Ġdenomin": 7507,
      "ĠPal": 7508,
      "Ġtransl": 7509,
      "æı´": 7510,
      "Ġminimum": 7511,
      "è¡¥åħħ": 7512,
      "Ġvision": 7513,
      "Ġbelieved": 7514,
      "ç¥ĸ": 7515,
      "hors": 7516,
      "Ġmission": 7517,
      ")}{": 7518,
      "Ġsets": 7519,
      "æİĴæĶ¾": 7520,
      "Ġliqu": 7521,
      "Ġfeature": 7522,
      "æīĢç¤º": 7523,
      "è¯ģæį®": 7524,
      "ĠUN": 7525,
      "çī¹åĪ«æĺ¯": 7526,
      "Ġinvolve": 7527,
      "Ġextremely": 7528,
      "æ°¯": 7529,
      "éĴĻ": 7530,
      "ĠRev": 7531,
      "è§ĤçĤ¹": 7532,
      "æĸĳ": 7533,
      "ĠMich": 7534,
      "ĠMor": 7535,
      "ean": 7536,
      "OT": 7537,
      "onic": 7538,
      "çĽ¸åºĶçļĦ": 7539,
      "Ġopposite": 7540,
      "Ġchanging": 7541,
      "åĢ¾": 7542,
      "Ġdouble": 7543,
      "bal": 7544,
      "with": 7545,
      "Ġrequirements": 7546,
      "Ġtrib": 7547,
      "unction": 7548,
      "ä½łçļĦ": 7549,
      "Ġpopulations": 7550,
      "Ġcovered": 7551,
      "å®¡æł¸": 7552,
      "Ġcollege": 7553,
      "æ¢ģ": 7554,
      "æ³½": 7555,
      "ĠChapter": 7556,
      "Ġscen": 7557,
      "åħ¬å¼ı": 7558,
      "åĮĢ": 7559,
      "ĠDavid": 7560,
      "Since": 7561,
      "Ġcro": 7562,
      "Ġestimated": 7563,
      "èį¯åĵģ": 7564,
      "Ġnative": 7565,
      "è¾ĥå¤§": 7566,
      "ams": 7567,
      "Ġexperiences": 7568,
      "æ¸Ĺ": 7569,
      "Ġmilk": 7570,
      "æ¶µ": 7571,
      "äº§çĶŁçļĦ": 7572,
      "åĹ": 7573,
      "asion": 7574,
      "Ġmonit": 7575,
      "Ġdimens": 7576,
      "Ste": 7577,
      "çĲĨå¿µ": 7578,
      "ãĢĤâĢľ": 7579,
      "Ġheavy": 7580,
      "ĠÎ": 7581,
      "Ġmoved": 7582,
      "Ġå¹´": 7583,
      "å½ĵåľ°": 7584,
      "des": 7585,
      "pire": 7586,
      "inite": 7587,
      "Ġsoci": 7588,
      "ĠAssociation": 7589,
      "leq": 7590,
      "Ġadvanced": 7591,
      "Ġexhib": 7592,
      "æĹ¥æľ¬": 7593,
      "onds": 7594,
      "Ġmale": 7595,
      "çļĦåħ³ç³»": 7596,
      "iant": 7597,
      "isation": 7598,
      "Ġinterpret": 7599,
      "Ġdomin": 7600,
      "Ġadding": 7601,
      "Ġbuy": 7602,
      "ĠAv": 7603,
      "DF": 7604,
      "ĠPract": 7605,
      "é½¿": 7606,
      "æİ¨èįĲ": 7607,
      "Ġ2018": 7608,
      "mark": 7609,
      "Ġparty": 7610,
      "æŃ¥éª¤": 7611,
      "cast": 7612,
      "¡èĲ": 7613,
      "æ±¤": 7614,
      "æĢİæł·": 7615,
      "ĠMary": 7616,
      "Ġfert": 7617,
      "æ´Ľ": 7618,
      "elines": 7619,
      "ĠBC": 7620,
      "âĢĿ,": 7621,
      "ball": 7622,
      "èª": 7623,
      "ĠInternet": 7624,
      "poses": 7625,
      "ä¼ı": 7626,
      "Ġmuscle": 7627,
      "äººæ°ĳåħ±åĴĮåĽ½": 7628,
      "Ġmer": 7629,
      "Ġbed": 7630,
      "ç¨İåĬ¡": 7631,
      "é¼»": 7632,
      "96": 7633,
      "Ġcitizens": 7634,
      "ocal": 7635,
      "06": 7636,
      "Ġinequ": 7637,
      "åĮºåĪ«": 7638,
      "Ġmo": 7639,
      "cel": 7640,
      "çº¹": 7641,
      "ä¸Ļ": 7642,
      "ç»ıå¸¸": 7643,
      "èĢķ": 7644,
      "Ġderivative": 7645,
      "IL": 7646,
      "Ġjournal": 7647,
      "åĬłå¤§": 7648,
      "Ġstore": 7649,
      "Ġnotes": 7650,
      "æ®ĭçĸ¾": 7651,
      "çĵ¦": 7652,
      "2021": 7653,
      "Ġequivalent": 7654,
      "åĽ½åĬ¡éĻ¢": 7655,
      "åĲ«æľī": 7656,
      "Ġnovel": 7657,
      "Ġannual": 7658,
      "ĠPublic": 7659,
      "Ġexpressions": 7660,
      "Ġhom": 7661,
      "Ġ-\\": 7662,
      "Ġ31": 7663,
      "ĠJames": 7664,
      "Ġplease": 7665,
      "æĶ¶éĽĨ": 7666,
      "ĠIts": 7667,
      "Ġindustrial": 7668,
      "Ġgeneration": 7669,
      "ç»§æī¿": 7670,
      "Ġ2004": 7671,
      "å§Ķæīĺ": 7672,
      "Ġaspects": 7673,
      "é¸Ł": 7674,
      "Ġtreated": 7675,
      "åĩłä¸ª": 7676,
      "ially": 7677,
      "Ġinvolving": 7678,
      "ĠCalculus": 7679,
      "ä½ľåĩº": 7680,
      "é¼ł": 7681,
      "Ġcounter": 7682,
      "èĪŀ": 7683,
      "Ġtemperatures": 7684,
      "æĺ¯çĶ±": 7685,
      "works": 7686,
      "çŃīçº§": 7687,
      "Ġparallel": 7688,
      "ĠCongress": 7689,
      "ilit": 7690,
      "Ġhappens": 7691,
      "Ġclearly": 7692,
      "ĠMedic": 7693,
      "ĠWestern": 7694,
      "çľĭåĪ°": 7695,
      "Ġconducted": 7696,
      "æĿ¡ä¾ĭ": 7697,
      "Ġplat": 7698,
      "CP": 7699,
      "ä¼¦": 7700,
      "ä¹¡æĿĳ": 7701,
      "ophy": 7702,
      "ĠMark": 7703,
      "Ġdecades": 7704,
      "pat": 7705,
      "rence": 7706,
      "Ġq": 7707,
      "ĠFound": 7708,
      "åºĨ": 7709,
      "Ġwidely": 7710,
      "Ġnumerous": 7711,
      "çļĦåŁºç¡Ģä¸Ĭ": 7712,
      "Ġstream": 7713,
      "Ġopin": 7714,
      "Ġcontrast": 7715,
      "Ġclinical": 7716,
      "ĠProject": 7717,
      "åĲĪçī©": 7718,
      "æĥħå½¢": 7719,
      "Ġlegis": 7720,
      "Ġsac": 7721,
      "å¼ĥ": 7722,
      "ä¸Ńåįİäººæ°ĳåħ±åĴĮåĽ½": 7723,
      "Ġsetting": 7724,
      "åĬ³åĬ¨èĢħ": 7725,
      "é«ĺä¸Ń": 7726,
      "Ġign": 7727,
      "é¥°": 7728,
      "Ġrelease": 7729,
      "Ġremove": 7730,
      "è½¬è®©": 7731,
      "è¿ĶåĽŀ": 7732,
      "äº¿åħĥ": 7733,
      "Ġcalculated": 7734,
      "ĠFund": 7735,
      "Ġsufficient": 7736,
      "Ġgames": 7737,
      "Ġpractical": 7738,
      "Ġisol": 7739,
      "Ġconnection": 7740,
      "èİ·åıĸ": 7741,
      "æ¢¦": 7742,
      "Ġtechnique": 7743,
      "hetic": 7744,
      "çİ°ä»£åĮĸ": 7745,
      "2013": 7746,
      "gency": 7747,
      "æĬ¼": 7748,
      "ologist": 7749,
      "åį³åı¯": 7750,
      "Ġperformed": 7751,
      "ĠOut": 7752,
      "æł¹æľ¬": 7753,
      "cal": 7754,
      "åħ±äº§": 7755,
      "ida": 7756,
      "09": 7757,
      "uses": 7758,
      "é¡ºåºı": 7759,
      "å¾Ģå¾Ģ": 7760,
      "Ġintellig": 7761,
      "Ġcelebr": 7762,
      "ä½ĵä¼ļ": 7763,
      "è¡Ĺ": 7764,
      "Ġclos": 7765,
      "å¢¨": 7766,
      "éĢ»": 7767,
      "å¥½åľ°": 7768,
      "Ġlibr": 7769,
      "åľºæīĢ": 7770,
      "Ġfaith": 7771,
      "olved": 7772,
      "æľīåĪ©äºİ": 7773,
      "æĦŁåıĹ": 7774,
      "za": 7775,
      "Ġattract": 7776,
      "Ġthick": 7777,
      "Ġfamous": 7778,
      "çĦĬ": 7779,
      "Ġadjust": 7780,
      "Ġserve": 7781,
      "Ġves": 7782,
      "Ġtechnologies": 7783,
      "cks": 7784,
      "è´Ŀ": 7785,
      "Ġcharacteristics": 7786,
      "âħ": 7787,
      "ĠInf": 7788,
      "Ġtopics": 7789,
      "æ³µ": 7790,
      "åĿ¡": 7791,
      "'ve": 7792,
      "åĵ²": 7793,
      "Ġdisorder": 7794,
      "ï¼ĮâĢľ": 7795,
      "é©¾": 7796,
      "èķ": 7797,
      "Ġ2020": 7798,
      "iring": 7799,
      "ç»ĵè®º": 7800,
      "Ġorganizations": 7801,
      "Ġsave": 7802,
      "åĲĦçº§": 7803,
      "Ġgoals": 7804,
      "lies": 7805,
      "åĲĪæĪĲ": 7806,
      "ulf": 7807,
      "åı¯èĥ½ä¼ļ": 7808,
      "çĤ¹çļĦ": 7809,
      "Ġrecommended": 7810,
      "Ġanyone": 7811,
      "Ġunivers": 7812,
      "Ġdecisions": 7813,
      "They": 7814,
      "çĸ«èĭĹ": 7815,
      "æĽ¾ç»ı": 7816,
      "Ġkil": 7817,
      "Ġelimin": 7818,
      "Ġpresident": 7819,
      "New": 7820,
      "åĲĦé¡¹": 7821,
      "Ġbodies": 7822,
      "Ġdrive": 7823,
      "çļĦä¸Ģç§į": 7824,
      "åĲĮä¸Ģ": 7825,
      "Ġreplace": 7826,
      "Ġreaction": 7827,
      "Ġfrequently": 7828,
      "ĠSocial": 7829,
      "Ġproof": 7830,
      "Ġspeech": 7831,
      "2017": 7832,
      "èĩªæĪĳ": 7833,
      "Ġded": 7834,
      "alpha": 7835,
      "åħĪè¿Ľ": 7836,
      "Ġbreast": 7837,
      "Ġdepression": 7838,
      "ĠSee": 7839,
      "åĲ¯åĬ¨": 7840,
      "ç¼ĸåĪ¶": 7841,
      "Ġnor": 7842,
      "åĪĨç¦»": 7843,
      "çĽ¸æ¯Ķ": 7844,
      "ä¸Ģæĺ¯": 7845,
      "æİ¢ç©¶": 7846,
      "é¥®é£Ł": 7847,
      "æ³¨éĩį": 7848,
      "åŃĲçļĦ": 7849,
      "Sim": 7850,
      "ser": 7851,
      "lick": 7852,
      "æ´¥": 7853,
      "tee": 7854,
      "Ġcourt": 7855,
      "Ġpieces": 7856,
      "ç¨¿": 7857,
      "ĠStat": 7858,
      "ĠCouncil": 7859,
      "ç§¦": 7860,
      "ĠLord": 7861,
      "æĭĶ": 7862,
      "Ġliterature": 7863,
      "æļĸ": 7864,
      "Ġreleased": 7865,
      "è¿¹": 7866,
      "éĤ®": 7867,
      "which": 7868,
      "US": 7869,
      "åľ£": 7870,
      "och": 7871,
      "äº§æĿĥ": 7872,
      "Ġrelevant": 7873,
      "æŃ£å¼ı": 7874,
      "Ġlayer": 7875,
      "Ġmeasured": 7876,
      "Ġupd": 7877,
      "Ġparticipants": 7878,
      "2009": 7879,
      "Ġrational": 7880,
      "Ġreducing": 7881,
      "å§ĵ": 7882,
      "åĨ³çŃĸ": 7883,
      "åĤ¬": 7884,
      "æ¨¡æĭŁ": 7885,
      "ç¨Ģ": 7886,
      ")ï¼Į": 7887,
      "ception": 7888,
      "æ¢¯": 7889,
      "Ġclasses": 7890,
      "rant": 7891,
      "Ġprefer": 7892,
      "Ġdecimal": 7893,
      "Ġoxygen": 7894,
      "Ġmedicine": 7895,
      "åľ¨äºİ": 7896,
      "Ġnoted": 7897,
      "åįļå£«": 7898,
      "89": 7899,
      "pen": 7900,
      "Ġtrust": 7901,
      "cular": 7902,
      "Calcul": 7903,
      "Ġinterval": 7904,
      "Ġfailure": 7905,
      "ault": 7906,
      "Ġplastic": 7907,
      "ä¸ĢçĽ´": 7908,
      "çļ®èĤ¤": 7909,
      "ategy": 7910,
      "ĠSecond": 7911,
      "Ġprepar": 7912,
      "æĭį": 7913,
      "åįµ": 7914,
      "ĠDisc": 7915,
      "Ġwanted": 7916,
      "ĠåĴĮ": 7917,
      "Ġmeters": 7918,
      "eta": 7919,
      "________________": 7920,
      "',": 7921,
      "ossible": 7922,
      "åıªèĥ½": 7923,
      "ä½ĵåĪ¶": 7924,
      "Äģ": 7925,
      "ln": 7926,
      "ĠÂ·": 7927,
      "Ġintegr": 7928,
      "èº«ä»½": 7929,
      "éĻ¶": 7930,
      "ç§ĳçĽ®": 7931,
      "éĢ»è¾ĳ": 7932,
      "ç¬¬äºĶ": 7933,
      "ancing": 7934,
      "èŀįåĲĪ": 7935,
      "Ġbone": 7936,
      "åįģåĪĨ": 7937,
      "tered": 7938,
      "struct": 7939,
      "Ġexpon": 7940,
      "Ġpages": 7941,
      "åŀĥ": 7942,
      "Ġdestroy": 7943,
      "],": 7944,
      "Ġurban": 7945,
      "Ġcopy": 7946,
      "ga": 7947,
      "Ġorganic": 7948,
      "CR": 7949,
      "ä¼ģä¸ļçļĦ": 7950,
      "ĠJewish": 7951,
      "asure": 7952,
      "Ġinternal": 7953,
      "ded": 7954,
      "åľ¾": 7955,
      "å£®": 7956,
      "çļĦå°ı": 7957,
      "tage": 7958,
      "åŀĥåľ¾": 7959,
      "htt": 7960,
      "èī¯å¥½": 7961,
      "Ġstrategy": 7962,
      "ĠAM": 7963,
      "ĠCommon": 7964,
      "Ġ2003": 7965,
      "ails": 7966,
      "Ġabsolute": 7967,
      "éī´å®ļ": 7968,
      "07": 7969,
      "ĠSl": 7970,
      "æµĭå®ļ": 7971,
      "æħ§": 7972,
      "äººä½ĵ": 7973,
      "Ġapproaches": 7974,
      "å®ŀéªĮå®¤": 7975,
      "ĠEnergy": 7976,
      "ĠRepublic": 7977,
      "å¸¦æĿ¥": 7978,
      "ĠAir": 7979,
      "ä¸ŃåĮ»": 7980,
      "åħģè®¸": 7981,
      "iders": 7982,
      "è½¦è¾Ĩ": 7983,
      "ç²Ĺ": 7984,
      "Ġoption": 7985,
      "ä½ĵéªĮ": 7986,
      "Ġminor": 7987,
      "xiety": 7988,
      "åįģä¸Ģ": 7989,
      "çĽŁ": 7990,
      "ping": 7991,
      "Ġelectricity": 7992,
      "Ġdynam": 7993,
      "Ġtrou": 7994,
      "2016": 7995,
      "é¢Ħæµĭ": 7996,
      "é¢ľèī²": 7997,
      "Ġple": 7998,
      "ä¼Ĭ": 7999,
      "Ġvitamin": 8000,
      "éĻ·": 8001,
      "ĠNA": 8002,
      "idth": 8003,
      "porary": 8004,
      "ĠGovernment": 8005,
      "Ġleads": 8006,
      "Ġocean": 8007,
      "Ġremoved": 8008,
      "ĠJapanese": 8009,
      "è¿ħéĢŁ": 8010,
      "Ġmentioned": 8011,
      "Ġassessment": 8012,
      "Ġsand": 8013,
      "çļĦèĥ½åĬĽ": 8014,
      "çĦ¶èĢĮ": 8015,
      "Pl": 8016,
      "cipl": 8017,
      "Ġmetal": 8018,
      "ressed": 8019,
      "èĬ½": 8020,
      "Ġbecoming": 8021,
      "Ġgreatest": 8022,
      "åĸľæ¬¢": 8023,
      "Ġhighlight": 8024,
      "ĠLearning": 8025,
      "éļľç¢į": 8026,
      "roid": 8027,
      "Ġflood": 8028,
      "Ġarm": 8029,
      "ĠST": 8030,
      "Ġkid": 8031,
      "Ġoutcomes": 8032,
      "Ġconservation": 8033,
      "Ġreality": 8034,
      "çĵ¶": 8035,
      "Ġcoe": 8036,
      "div": 8037,
      "çļĦçī¹çĤ¹": 8038,
      "Question": 8039,
      "antic": 8040,
      "ht": 8041,
      "Ġdiss": 8042,
      "Ġwonder": 8043,
      "éĵľ": 8044,
      "å²Ĺä½į": 8045,
      "?**": 8046,
      "äººå·¥": 8047,
      "riculum": 8048,
      "Ġconclud": 8049,
      "Ġresist": 8050,
      "æĸľ": 8051,
      "Ġgrav": 8052,
      "Ġeffectively": 8053,
      "èµĭ": 8054,
      "Ġreferred": 8055,
      "Ġcausing": 8056,
      "Ġfreedom": 8057,
      "Ġtradition": 8058,
      "Ġinteger": 8059,
      "Ġdisorders": 8060,
      "Using": 8061,
      "è¿Ļä¸ªéĹ®é¢ĺ": 8062,
      "ented": 8063,
      "çĶµæºĲ": 8064,
      "ressive": 8065,
      "Go": 8066,
      "Ġbuildings": 8067,
      "æ©": 8068,
      "ĠSupp": 8069,
      "çĶŁçļĦ": 8070,
      "çľŁå®ŀ": 8071,
      "ĠAD": 8072,
      "æĪĲéķ¿": 8073,
      "é«ĺçº§": 8074,
      "ç¾İåħĥ": 8075,
      "åĶ¯": 8076,
      "Ġhomes": 8077,
      "ĠGreek": 8078,
      "è´§å¸ģ": 8079,
      "Ġrecords": 8080,
      "ognitive": 8081,
      "ollow": 8082,
      "iveness": 8083,
      "çİ°å®ŀ": 8084,
      "ĠLess": 8085,
      "2008": 8086,
      "Ġefficiency": 8087,
      "Ġcomponent": 8088,
      "cers": 8089,
      "Ġsexual": 8090,
      "Ġprocessing": 8091,
      "Ġpartners": 8092,
      "Ġmultiplication": 8093,
      "åºĹ": 8094,
      "isher": 8095,
      "åĴĮç¤¾ä¼ļ": 8096,
      "board": 8097,
      "Ġdoll": 8098,
      "æĿ¨": 8099,
      "æĪ¿å±ĭ": 8100,
      "urt": 8101,
      "è°Ĳ": 8102,
      "Ġmessage": 8103,
      "éĩįæĸ°": 8104,
      "well": 8105,
      "Ġap": 8106,
      "Ġec": 8107,
      "Ġtrend": 8108,
      "Ġhear": 8109,
      "CS": 8110,
      "è¯¾é¢ĺ": 8111,
      "ç»´çĶŁç´ł": 8112,
      "iance": 8113,
      "Ġphase": 8114,
      "oper": 8115,
      "Ġtim": 8116,
      "Ġturned": 8117,
      "Ġsav": 8118,
      "ND": 8119,
      "çŁ©": 8120,
      "However": 8121,
      "ĠOff": 8122,
      "éħįåĲĪ": 8123,
      "Ġdivers": 8124,
      "Ġexists": 8125,
      "åŀĤ": 8126,
      "ä»ĸäºº": 8127,
      "Ġfine": 8128,
      "ä¿¡çĶ¨": 8129,
      "å¸Ń": 8130,
      "ä¹Łåı¯": 8131,
      "2014": 8132,
      "No": 8133,
      "Ġdepending": 8134,
      "vin": 8135,
      "Ġnuclear": 8136,
      "èģĮè´£": 8137,
      "ifies": 8138,
      "Ġmist": 8139,
      "Ġquadratic": 8140,
      "Ġdetect": 8141,
      "ĠDevelopment": 8142,
      "urance": 8143,
      "Ġbelong": 8144,
      "Ġradius": 8145,
      "Ġanswers": 8146,
      "ĠRec": 8147,
      "Ġready": 8148,
      "Ġpolicies": 8149,
      "ç³ĸå°¿": 8150,
      "äºĮæĺ¯": 8151,
      "æľīæīĢ": 8152,
      "æķħéļľ": 8153,
      "åĪĬ": 8154,
      "åĳ½ä»¤": 8155,
      "Te": 8156,
      "ä½Ľ": 8157,
      "ĠSqu": 8158,
      "åĪĨæķ°": 8159,
      "æĹ¥æľŁ": 8160,
      "Ġsurgery": 8161,
      "å¤įä¹ł": 8162,
      "oo": 8163,
      "Ġlived": 8164,
      "ĠEvery": 8165,
      "Ġrepresented": 8166,
      "åľ°åĿĢ": 8167,
      "Ġvalid": 8168,
      "Ġchronic": 8169,
      "å¤§ä¼ļ": 8170,
      "oting": 8171,
      "éĢĨ": 8172,
      "ãĢģâĢľ": 8173,
      "éķ¿åº¦": 8174,
      "Ġseed": 8175,
      "Ġmotor": 8176,
      "ä»¿": 8177,
      "Ġnutrition": 8178,
      "Ġrisks": 8179,
      "ĠEv": 8180,
      "ION": 8181,
      "Ġcampaign": 8182,
      "æĤī": 8183,
      "ä¸»è¦ģæĺ¯": 8184,
      "blems": 8185,
      "æĢ¥æĢ§": 8186,
      "ĠMethod": 8187,
      "æħİ": 8188,
      "å°ĺ": 8189,
      "ĠSun": 8190,
      "acing": 8191,
      "åıªè¦ģ": 8192,
      "Ġsynt": 8193,
      "rier": 8194,
      "Ġslope": 8195,
      "ä¸Ĭåįĩ": 8196,
      "åĽ½æľī": 8197,
      "Ġobvious": 8198,
      "ped": 8199,
      "Ġregarding": 8200,
      "å¯¸": 8201,
      "ĠSpanish": 8202,
      "çŀ": 8203,
      "print": 8204,
      "uzz": 8205,
      "æĿ¡ä»¶çļĦ": 8206,
      "}$": 8207,
      "ãĢĭ,": 8208,
      "è¿Ŀæ³ķ": 8209,
      "Ġdogs": 8210,
      "è´¡çĮ®": 8211,
      "Ġkg": 8212,
      "Ġletters": 8213,
      "Ġagg": 8214,
      "Ġformat": 8215,
      "Ġvessel": 8216,
      "Ġphysic": 8217,
      "iling": 8218,
      "è¾¨": 8219,
      "çĸ«æĥħ": 8220,
      "æ³ķæ²»": 8221,
      "osen": 8222,
      "çĥ¯": 8223,
      "ĠMulti": 8224,
      "åĲĽ": 8225,
      "conds": 8226,
      "MP": 8227,
      "åĬ¨ä½ľ": 8228,
      "Ġauthors": 8229,
      "ologists": 8230,
      "ç³ĸå°¿çĹħ": 8231,
      "æ¨¡åĿĹ": 8232,
      "Ġtour": 8233,
      "åħ¬å¼Ģ": 8234,
      "Ġstorage": 8235,
      "Ġsamples": 8236,
      "400": 8237,
      "âĢĺ": 8238,
      "åįģåĽĽ": 8239,
      "åĲĮåŃ¦ä»¬": 8240,
      "çľŁæŃ£": 8241,
      "åĴ¨": 8242,
      "æģ©": 8243,
      "According": 8244,
      "åĪĢ": 8245,
      "icular": 8246,
      "è¯ļ": 8247,
      "ĠElect": 8248,
      "Ġrace": 8249,
      "Ġkilled": 8250,
      "æ¶Īæ¯Ĵ": 8251,
      "Ġprove": 8252,
      "çĽ¸åħ³çļĦ": 8253,
      "Ġpair": 8254,
      "ĠSolving": 8255,
      "æĿ¥èĩª": 8256,
      "ĠStep": 8257,
      "è§Ī": 8258,
      "ç¾Ĭ": 8259,
      "ç»ª": 8260,
      "æĮĤ": 8261,
      "Ġbackground": 8262,
      "çļĩ": 8263,
      "down": 8264,
      "Ġobtained": 8265,
      "ĠCirc": 8266,
      "Ġcompleted": 8267,
      "Ġhyper": 8268,
      "Ġnotice": 8269,
      "å¤©æ°Ķ": 8270,
      "ĠMount": 8271,
      "inations": 8272,
      "æĮĩå®ļ": 8273,
      "çº³åħ¥": 8274,
      "æĴĳ": 8275,
      "è¿ĺè¦ģ": 8276,
      "éĢĶå¾Ħ": 8277,
      "Ġhelped": 8278,
      "ä»²è£ģ": 8279,
      "atically": 8280,
      "86": 8281,
      "pre": 8282,
      "Ġgenes": 8283,
      "åħ¶å®ĥ": 8284,
      "Ġargument": 8285,
      "Post": 8286,
      "Ġamounts": 8287,
      "ĠGraph": 8288,
      "æ½®": 8289,
      "Ġunc": 8290,
      "ĠRober": 8291,
      "Ar": 8292,
      "ĠOnce": 8293,
      "Ġconsists": 8294,
      "åĽ¾åĥı": 8295,
      "ĠGeorge": 8296,
      "éĿĴå¹´": 8297,
      "Ġviolence": 8298,
      "ĠHuman": 8299,
      "å¸¸çĶ¨": 8300,
      "Ġlooks": 8301,
      "ructure": 8302,
      "Ġprinciple": 8303,
      "Ġinterested": 8304,
      "æĶ¯åĩº": 8305,
      "æ³ķå®ļ": 8306,
      "çİ»": 8307,
      "Ġshowing": 8308,
      "ĠIntroduction": 8309,
      "wood": 8310,
      "åĶ±": 8311,
      "æģĴ": 8312,
      "âĶ": 8313,
      "rum": 8314,
      "Ġclosed": 8315,
      "Ġ500": 8316,
      "ĠSam": 8317,
      "å½¹": 8318,
      "Ġbattle": 8319,
      "Ġacademic": 8320,
      ".ãĢĬ": 8321,
      "åīª": 8322,
      "æ¢ħ": 8323,
      "çĽ¸å½ĵ": 8324,
      "Ġcombined": 8325,
      "Ġgrass": 8326,
      "ya": 8327,
      "çĶ³æĬ¥": 8328,
      "ĠDem": 8329,
      "ĠPower": 8330,
      "çº¦å®ļ": 8331,
      "Ġhorm": 8332,
      "çĽ¾": 8333,
      "é«ĺæķĪ": 8334,
      "è¿Ľç¨ĭ": 8335,
      "ĊĠĠĠĠĠĠĠ": 8336,
      "è¦ģç´ł": 8337,
      "That": 8338,
      "ĠPaul": 8339,
      "encing": 8340,
      "åĩ¡": 8341,
      "abol": 8342,
      "Ġfeeling": 8343,
      "å¤ļçļĦ": 8344,
      "Ġmostly": 8345,
      "æ´ª": 8346,
      "Ġattrib": 8347,
      "ules": 8348,
      "Ġradio": 8349,
      "Ġpal": 8350,
      "çĵľ": 8351,
      "incip": 8352,
      "ç»ŁçŃ¹": 8353,
      "ago": 8354,
      "itz": 8355,
      "Ġ;": 8356,
      "èªī": 8357,
      "Ġlinked": 8358,
      "Ġmaster": 8359,
      "Ġstation": 8360,
      "Ġsaying": 8361,
      "BN": 8362,
      "Ġquar": 8363,
      "Ġexcell": 8364,
      "ĠRad": 8365,
      "ĠFore": 8366,
      "éĨĴ": 8367,
      "çľģçº§": 8368,
      "Ġjour": 8369,
      "Ġcreation": 8370,
      "Ġlanguages": 8371,
      "Ġsignal": 8372,
      "Ġspot": 8373,
      "ĠFunctions": 8374,
      "Ġwhom": 8375,
      "Ġadvantage": 8376,
      "Ġcurve": 8377,
      "Ġinfections": 8378,
      "è¿ĳå¹³": 8379,
      "Ġï¼Į": 8380,
      "ĠFre": 8381,
      "Ġencourage": 8382,
      "è®¸åı¯": 8383,
      "Ġoffic": 8384,
      "æķĪåºĶ": 8385,
      "ĠChildren": 8386,
      "eties": 8387,
      "ĨĴ": 8388,
      "Ġcore": 8389,
      "bi": 8390,
      "åĽĽä¸ª": 8391,
      "Ġhit": 8392,
      "Ġdivis": 8393,
      "Ġproperly": 8394,
      "åĴ¨è¯¢": 8395,
      "Ġfacts": 8396,
      "ishing": 8397,
      "Ġclick": 8398,
      "çī©ä½ĵ": 8399,
      "ĠYear": 8400,
      "ĠDon": 8401,
      "ä¸»ä»»": 8402,
      "æĹ©æľŁ": 8403,
      "ĠCD": 8404,
      "ä¸ŃåĽ½çī¹èī²": 8405,
      "äºĴèģĶç½ĳ": 8406,
      "Ġsatisf": 8407,
      "Ġunf": 8408,
      "å½¢æĢģ": 8409,
      "ä¹łè¿ĳå¹³": 8410,
      "æ»´": 8411,
      "Ġhorizon": 8412,
      "Ġincorpor": 8413,
      "è§Ĩé¢ĳ": 8414,
      "Ġburn": 8415,
      "Ġpreviously": 8416,
      "ç§įåŃĲ": 8417,
      "æħ¢æĢ§": 8418,
      "ĠMuseum": 8419,
      "ĠBel": 8420,
      "ML": 8421,
      "tion": 8422,
      "estions": 8423,
      "Ġterrit": 8424,
      "çĩ¥": 8425,
      "Ġgender": 8426,
      "å±ķç¤º": 8427,
      "Ġallowing": 8428,
      "äºķ": 8429,
      "roph": 8430,
      "ĠAdd": 8431,
      "çĹħäºº": 8432,
      "ĠIr": 8433,
      "Ġdatab": 8434,
      "äº«åıĹ": 8435,
      "æĸ°éĹ»": 8436,
      "umber": 8437,
      "æ¯ıå¤©": 8438,
      "ĠOrgan": 8439,
      "Ġ2001": 8440,
      "çº¢èī²": 8441,
      "èĭ±åĽ½": 8442,
      "Ġyellow": 8443,
      "ĠTex": 8444,
      "Ġtheorem": 8445,
      "Ġreligion": 8446,
      "Ġwest": 8447,
      "'m": 8448,
      "essor": 8449,
      "Ġproposed": 8450,
      "mathbb": 8451,
      "Ġmm": 8452,
      "Ġliber": 8453,
      "Ġ&=": 8454,
      "ĠFood": 8455,
      "Ġmeant": 8456,
      "ij": 8457,
      "Ġexperienced": 8458,
      "äºĪä»¥": 8459,
      "ĠMac": 8460,
      "Ġgrant": 8461,
      "ĠRich": 8462,
      "åĲĦåľ°": 8463,
      "åĽ¢éĺŁ": 8464,
      "Why": 8465,
      "Ġwave": 8466,
      "å¹´ä»£": 8467,
      "é¢Ħç®Ĺ": 8468,
      "ĠReview": 8469,
      "Ġpret": 8470,
      "ĠTur": 8471,
      "Ġspent": 8472,
      "éĺŁä¼į": 8473,
      "ĠService": 8474,
      "acific": 8475,
      "âĸ": 8476,
      "****": 8477,
      "Ġindicate": 8478,
      "ĠMass": 8479,
      "ç¼´çº³": 8480,
      "Ġisland": 8481,
      "åĬ¨èĦī": 8482,
      "Ġmeat": 8483,
      "Ġreached": 8484,
      "Ġship": 8485,
      "å²¸": 8486,
      "Ġmanner": 8487,
      "Ġmeeting": 8488,
      "æµģéĩı": 8489,
      "alled": 8490,
      "ĠPort": 8491,
      "Ġemotional": 8492,
      "reci": 8493,
      "ey": 8494,
      "Ġ300": 8495,
      "Ġcontaining": 8496,
      "Ġprofession": 8497,
      "æľºä¼ļ": 8498,
      "èĥ½éĩı": 8499,
      "lamb": 8500,
      "åºĦ": 8501,
      "ĠBer": 8502,
      "çĽ®å½ķ": 8503,
      "æ¡£æ¡Ī": 8504,
      "æ´ŀ": 8505,
      "çļĦè¯Ŀ": 8506,
      "rog": 8507,
      "ĠSk": 8508,
      "Ġindex": 8509,
      "Ġexpert": 8510,
      "ander": 8511,
      "èŀº": 8512,
      "84": 8513,
      "åıĳèĤ²": 8514,
      "Ġsecret": 8515,
      "æ·¡": 8516,
      "ortunately": 8517,
      "çıį": 8518,
      "Ġradiation": 8519,
      ":(": 8520,
      "Ġcub": 8521,
      "Ġarticles": 8522,
      "Ġcoal": 8523,
      "Ġkept": 8524,
      "iform": 8525,
      "å¤įåĲĪ": 8526,
      "ç¼ĸè¾ĳ": 8527,
      "ĠCentral": 8528,
      "Ġtrain": 8529,
      "ä¸ĭæĿ¥": 8530,
      "Ġheard": 8531,
      "åĩºæĿ¥": 8532,
      "èĽĭçĻ½è´¨": 8533,
      "aker": 8534,
      "ç¨»": 8535,
      "ĠMal": 8536,
      "Ġsituations": 8537,
      "ĠHen": 8538,
      "çļĦä¸Ģä¸ª": 8539,
      "Ġkill": 8540,
      "Ġnorthern": 8541,
      "Ġbeautiful": 8542,
      "åĬ³åĬ¨åĲĪåĲĮ": 8543,
      "Ġpercentage": 8544,
      "Ġvictim": 8545,
      "åŁºå±Ĥ": 8546,
      "Ġserved": 8547,
      "çĿ¡": 8548,
      "lambda": 8549,
      "Ġnav": 8550,
      "çļĦæ°´": 8551,
      "ç§įç±»": 8552,
      "èĢĮæĺ¯": 8553,
      "la": 8554,
      "Ġmal": 8555,
      "å¤ļæł·": 8556,
      "Ġpurposes": 8557,
      "vision": 8558,
      "Ġtum": 8559,
      "Ġfixed": 8560,
      "ria": 8561,
      "æķ´çĲĨ": 8562,
      "Ġcompl": 8563,
      "æŃ£åľ¨": 8564,
      "Ġlandsc": 8565,
      "Ġideal": 8566,
      "Ġuns": 8567,
      "åĭ¤": 8568,
      "Ġdiscover": 8569,
      "Ġdepends": 8570,
      "Ġseeds": 8571,
      "Ġdecided": 8572,
      "çī§": 8573,
      "heet": 8574,
      "uable": 8575,
      "æµħ": 8576,
      "GB": 8577,
      "å¹¼åĦ¿åĽŃ": 8578,
      "opes": 8579,
      "ĠFurther": 8580,
      "rust": 8581,
      "anges": 8582,
      "éĥ¨ä½į": 8583,
      "ĠIslam": 8584,
      "è®¯": 8585,
      "Ġmanufacture": 8586,
      "æĩĤ": 8587,
      "ĠBoth": 8588,
      "æıĲäº¤": 8589,
      "æĭħä¿Ŀ": 8590,
      "(-": 8591,
      "nam": 8592,
      "å±ŀæĢ§": 8593,
      "Ġphenomen": 8594,
      "Ġdetailed": 8595,
      "å¦ĤåĽ¾": 8596,
      "Ġexperts": 8597,
      "Ġhelping": 8598,
      "åıĳçĶµ": 8599,
      "Ġexposed": 8600,
      "Ġdram": 8601,
      "Ġsouthern": 8602,
      "èĢĮè¨Ģ": 8603,
      "Ġfluid": 8604,
      "å¼ºçļĦ": 8605,
      "ĠArea": 8606,
      "æĽ²çº¿": 8607,
      "éĢĤçĶ¨äºİ": 8608,
      "Ġeggs": 8609,
      "berg": 8610,
      "æıĲç¤º": 8611,
      "ä¸ĵé¡¹": 8612,
      "Ġplatform": 8613,
      "dx": 8614,
      "æľĢå¤§çļĦ": 8615,
      "åİĭç¼©": 8616,
      "æ³ķçļĦ": 8617,
      "åłĨ": 8618,
      "Ġcong": 8619,
      "inf": 8620,
      "æīĢå¾Ĺç¨İ": 8621,
      "Ġvul": 8622,
      "åĪĳäºĭ": 8623,
      "ĠAcad": 8624,
      "Ġaid": 8625,
      "ĠWhite": 8626,
      "Ġprocedure": 8627,
      "umin": 8628,
      "Ġsong": 8629,
      "çıł": 8630,
      "Ġprepared": 8631,
      "æİī": 8632,
      "åģ¶": 8633,
      "é«ĺèĢĥ": 8634,
      "ĠThomas": 8635,
      "Ġmanage": 8636,
      "Des": 8637,
      "Ġbud": 8638,
      "æľīäºĽ": 8639,
      "å¹¸": 8640,
      "Delta": 8641,
      "ĠTime": 8642,
      "Ġconflict": 8643,
      "win": 8644,
      "éĩĳé¢Ŀ": 8645,
      "Ġfilm": 8646,
      "Ġcomment": 8647,
      "äº¤æį¢": 8648,
      "Ġcontinues": 8649,
      "Ġconcerns": 8650,
      "åı¯è§ģ": 8651,
      "ĠMr": 8652,
      "Ġinflamm": 8653,
      "ael": 8654,
      "Ġmel": 8655,
      "åıĳçĶŁçļĦ": 8656,
      "Ġdangerous": 8657,
      "gal": 8658,
      "å¯¿": 8659,
      "ç¼ºä¹ı": 8660,
      "vis": 8661,
      "æĹłè®º": 8662,
      "ä¸ĵéĹ¨": 8663,
      "Ġdepth": 8664,
      "Ġelectrical": 8665,
      "Ġreb": 8666,
      "cosystem": 8667,
      "ĠRef": 8668,
      "èĳ¡èĲ": 8669,
      "èĳ¡èĲĦ": 8670,
      "ĠÐ": 8671,
      "çĶµåĬĽ": 8672,
      "Ġcolumn": 8673,
      "CH": 8674,
      "ishes": 8675,
      "Ġdefic": 8676,
      "Cont": 8677,
      "ĠMars": 8678,
      "position": 8679,
      "body": 8680,
      "ias": 8681,
      "æ¸ł": 8682,
      "åįģä¸ī": 8683,
      "åĪ°çļĦ": 8684,
      "æ··åĩĿ": 8685,
      "Ġconsult": 8686,
      "Ġkn": 8687,
      "ä¹¦è®°": 8688,
      "ĠSet": 8689,
      "Ġspl": 8690,
      "Ġrelation": 8691,
      "ä¸¹": 8692,
      "åĲ§": 8693,
      "Ġreduction": 8694,
      "Ġoral": 8695,
      "ĠBro": 8696,
      "æ¿Ģåıĳ": 8697,
      "æ³°": 8698,
      "Ġlinks": 8699,
      "åĽ½æ°ĳ": 8700,
      "åı¬": 8701,
      "Ġemail": 8702,
      "igation": 8703,
      "Ġpromote": 8704,
      "CM": 8705,
      "Many": 8706,
      "Ġparticles": 8707,
      "âĳ£": 8708,
      "kes": 8709,
      "aughter": 8710,
      "ĠSolve": 8711,
      "Ġimproved": 8712,
      "æĿľ": 8713,
      "Ġremaining": 8714,
      "ç¨İæĶ¶": 8715,
      "Ġaccurate": 8716,
      "Ġcast": 8717,
      "çł´åĿı": 8718,
      "Ġpun": 8719,
      "è´«åĽ°": 8720,
      "åĽŀçŃĶ": 8721,
      "è¶ĬæĿ¥": 8722,
      "è¾ħåĬ©": 8723,
      "Ġintended": 8724,
      "Ġrevolution": 8725,
      "ĠÃ": 8726,
      "é«ĺäºİ": 8727,
      "ĠHol": 8728,
      "Problem": 8729,
      "ä½¿å¾Ĺ": 8730,
      "è·ĳ": 8731,
      "Ġdensity": 8732,
      "orean": 8733,
      "Ġcos": 8734,
      "åºĶå¯¹": 8735,
      "è¡¥åģ¿": 8736,
      "åĲĦä¸ª": 8737,
      "âī": 8738,
      "Ġprofessor": 8739,
      "èĿ": 8740,
      "ä¹Łä¸į": 8741,
      "Our": 8742,
      "riage": 8743,
      "ĠAsia": 8744,
      "oyal": 8745,
      "Ġlung": 8746,
      "è¶ĬæĿ¥è¶Ĭ": 8747,
      "Ġcomfort": 8748,
      "å°ĸ": 8749,
      "TS": 8750,
      "åĪł": 8751,
      "æ³Į": 8752,
      "Ġ\\(-": 8753,
      "ä¸Ĭå¸Ĥ": 8754,
      "ĠBay": 8755,
      "çºµ": 8756,
      "2022": 8757,
      "æ£®æŀĹ": 8758,
      "çĪ¶æ¯į": 8759,
      "åĩºè¡Ģ": 8760,
      "Ġpollution": 8761,
      "å¤©çĦ¶": 8762,
      "å¸¸è§ģçļĦ": 8763,
      "ĠCourt": 8764,
      "Ġstone": 8765,
      "Consider": 8766,
      "Ġphysics": 8767,
      "ĠExerc": 8768,
      "Ġcomprehensive": 8769,
      "den": 8770,
      "Ġmix": 8771,
      "éĴł": 8772,
      "ä¼łæŁĵ": 8773,
      "Ġeast": 8774,
      "rations": 8775,
      "Ġfigures": 8776,
      "eline": 8777,
      "Ġflowers": 8778,
      "ĠVari": 8779,
      "Ġinjury": 8780,
      "ĠCath": 8781,
      "å½¢è±¡": 8782,
      "ĠTexas": 8783,
      "ä¹Łå°±æĺ¯": 8784,
      "Ġmort": 8785,
      "åĽĬ": 8786,
      "ĠMiss": 8787,
      "Ġexplains": 8788,
      "æĲŃ": 8789,
      "é©¬åħĭæĢĿä¸»ä¹ī": 8790,
      "éĿ¢å¯¹": 8791,
      "Ġsin": 8792,
      "æ¯ĶèµĽ": 8793,
      "æĶ¯æĴĳ": 8794,
      "Ġbrief": 8795,
      "Ġanxiety": 8796,
      "Ġstring": 8797,
      "Ġshared": 8798,
      "è¿«": 8799,
      "Ġapart": 8800,
      "Ġsupported": 8801,
      "what": 8802,
      "ndrome": 8803,
      "å°ĳå¹´": 8804,
      "Im": 8805,
      "81": 8806,
      "é¥²": 8807,
      "åĩºçīĪç¤¾": 8808,
      "æķ°ç»Ħ": 8809,
      "éĶģ": 8810,
      "æł¡åĽŃ": 8811,
      "92": 8812,
      "æĴ¤": 8813,
      "Ġfif": 8814,
      "åĽ¾ä¹¦": 8815,
      "ĠConf": 8816,
      "ĠSolution": 8817,
      "ormal": 8818,
      "Ġonto": 8819,
      "åı¤ä»£": 8820,
      "çļĦæķĻåŃ¦": 8821,
      "Ġtwice": 8822,
      "igma": 8823,
      "å¯Ħ": 8824,
      "æ·±åº¦": 8825,
      "Ġcircuit": 8826,
      "æĪ´": 8827,
      "Ġrefers": 8828,
      "èĶ¬": 8829,
      "Ġbrother": 8830,
      "Ġwire": 8831,
      "Ġ2019": 8832,
      "Ġcontribute": 8833,
      "mary": 8834,
      "æ¬²": 8835,
      "çŁĽ": 8836,
      "æĶ¹éĢł": 8837,
      "çĤŃ": 8838,
      "}_": 8839,
      "ä»£è°¢": 8840,
      "iate": 8841,
      "å±ı": 8842,
      "ĠFe": 8843,
      "Ġedge": 8844,
      "ÃŃ": 8845,
      "=\"": 8846,
      "eria": 8847,
      "iverse": 8848,
      "Ġwealth": 8849,
      "ĠWind": 8850,
      "åī²": 8851,
      "Ġconcern": 8852,
      "åĭĩ": 8853,
      "ĠIsland": 8854,
      "æĬ¥èĢĥ": 8855,
      "Ind": 8856,
      "åĬĽåº¦": 8857,
      "Stud": 8858,
      "Ġcredit": 8859,
      "Ġhearing": 8860,
      "Ġflex": 8861,
      "tical": 8862,
      "æĹ¦": 8863,
      "æĹ¥èµ·": 8864,
      "ĠAddition": 8865,
      "Ġsector": 8866,
      "ä¾ĽåºĶ": 8867,
      "cap": 8868,
      "åħ±äº«": 8869,
      "Ġraised": 8870,
      "Ġfarmers": 8871,
      "istan": 8872,
      "Ġfinally": 8873,
      "ework": 8874,
      "Ġhelpful": 8875,
      "ĠInformation": 8876,
      "Ġmainly": 8877,
      "ache": 8878,
      "active": 8879,
      "èĤª": 8880,
      "ä¹Į": 8881,
      "ĠSpace": 8882,
      "åĲĪå¹¶": 8883,
      "ç¼´è´¹": 8884,
      "Ġgod": 8885,
      "Ġ2002": 8886,
      "olds": 8887,
      "Ġperp": 8888,
      "Ġbird": 8889,
      "åĮ¹": 8890,
      "acters": 8891,
      "èĦĤèĤª": 8892,
      "èµĸ": 8893,
      "ä¸Ńæľī": 8894,
      "è´¯å½»": 8895,
      "é¢Ī": 8896,
      "çļĦæĥħåĨµ": 8897,
      "Ġseek": 8898,
      "æ¦Ĥè¿°": 8899,
      "æī«": 8900,
      "RI": 8901,
      "My": 8902,
      "ĠåĽĽ": 8903,
      "ä¸ĢåĪĩ": 8904,
      "Ġfamiliar": 8905,
      "Ġfaster": 8906,
      "ç«ĭåį³": 8907,
      "nic": 8908,
      "æĹĹ": 8909,
      "åĬŀåħ¬": 8910,
      "Ġdivide": 8911,
      "æ·Ģ": 8912,
      "Ġawareness": 8913,
      "Ġauthority": 8914,
      "ested": 8915,
      "Ġappoint": 8916,
      "dered": 8917,
      "mg": 8918,
      "Ġlic": 8919,
      "Ġselected": 8920,
      "æĿ¯": 8921,
      "Ġformation": 8922,
      "Ġalt": 8923,
      "Ġprimarily": 8924,
      "Ġatmosphere": 8925,
      "å¹²éĥ¨": 8926,
      "å£³": 8927,
      "åŃĻ": 8928,
      "Ġdomain": 8929,
      "ado": 8930,
      "èĥĢ": 8931,
      "ĠHIV": 8932,
      "EP": 8933,
      "Ġtasks": 8934,
      "æ¹¾": 8935,
      "åĪ©æ¶¦": 8936,
      "lar": 8937,
      "inder": 8938,
      "120": 8939,
      "150": 8940,
      "æīİ": 8941,
      "Ġdecrease": 8942,
      "ira": 8943,
      "ĠProblems": 8944,
      "åĮ»çĶŁ": 8945,
      "Although": 8946,
      "Ġrecorded": 8947,
      "ãĢĭ(": 8948,
      "ĠCle": 8949,
      "ä½¿çĶ¨çļĦ": 8950,
      "è¿Ĳç®Ĺ": 8951,
      "è¡¥è´´": 8952,
      "èļĢ": 8953,
      "çĲĨæĥ³": 8954,
      "Ġotherwise": 8955,
      "ĠLife": 8956,
      "ĠMuslim": 8957,
      "ĠMet": 8958,
      "èĩ³å°ĳ": 8959,
      "2007": 8960,
      "First": 8961,
      "è®¿éĹ®": 8962,
      "Ġpark": 8963,
      "Ġvegetables": 8964,
      "akers": 8965,
      "ĠLou": 8966,
      "Ġ48": 8967,
      "æŁĲäºĽ": 8968,
      "äººåľ¨": 8969,
      "Ab": 8970,
      "hand": 8971,
      "Ġclim": 8972,
      "Ġkinds": 8973,
      "Ġvolunt": 8974,
      "Ġliquid": 8975,
      "Ġbegins": 8976,
      "Ġfocused": 8977,
      "field": 8978,
      "2006": 8979,
      "gl": 8980,
      "æł¼å¼ı": 8981,
      "è¡Ģæ¶²": 8982,
      "æĻ®éģį": 8983,
      "inger": 8984,
      "æķĪçĽĬ": 8985,
      "CA": 8986,
      "èĬĤçĤ¹": 8987,
      "å¢ŀåĢ¼": 8988,
      "astern": 8989,
      "ounced": 8990,
      "ario": 8991,
      "ĠPoly": 8992,
      "pd": 8993,
      "åĽ¾çīĩ": 8994,
      "ç®Ģä»ĭ": 8995,
      "Ġmorning": 8996,
      "æ·ĭ": 8997,
      "roduct": 8998,
      "éļ¾çĤ¹": 8999,
      "rich": 9000,
      "that": 9001,
      "è¾Ľ": 9002,
      "ï¼į": 9003,
      "è¿ĽæŃ¥": 9004,
      "ä»ĸä»¬çļĦ": 9005,
      "Ġobtain": 9006,
      "inity": 9007,
      "Can": 9008,
      "æĻºæħ§": 9009,
      "åĬŁçİĩ": 9010,
      "west": 9011,
      "Ġowners": 9012,
      "otic": 9013,
      "è¾ĥé«ĺ": 9014,
      "Ġwaters": 9015,
      "æµĻ": 9016,
      "Ġspecifically": 9017,
      "çĽ´çº¿": 9018,
      "ĠOld": 9019,
      "è¯ĨåĪ«": 9020,
      "Ġdiscussed": 9021,
      "ĠArab": 9022,
      "add": 9023,
      "è½¬åıĺ": 9024,
      "éĽħ": 9025,
      "ĠGroup": 9026,
      "çŁĽçĽ¾": 9027,
      "Ġmotiv": 9028,
      "Ġ75": 9029,
      "2005": 9030,
      "ĠBritain": 9031,
      "Ġtaught": 9032,
      "ĠWorks": 9033,
      "è¿ĩåİ»": 9034,
      "å¹³éĿ¢": 9035,
      "ä»¥ä¸ĬçļĦ": 9036,
      "Ġyouth": 9037,
      "æĲľ": 9038,
      "bin": 9039,
      "Ġlimits": 9040,
      "Ġintegration": 9041,
      "ä»įçĦ¶": 9042,
      "åľ°è´¨": 9043,
      "Ġjobs": 9044,
      "97": 9045,
      "De": 9046,
      "Ġ1990": 9047,
      "Ġdigits": 9048,
      "ansion": 9049,
      "Ġtoxic": 9050,
      "Ġsubjects": 9051,
      "Ġintegers": 9052,
      "åĩī": 9053,
      "ĠPers": 9054,
      "åĿ¦": 9055,
      "åĳĺå·¥": 9056,
      "æĽ´æĸ°": 9057,
      "Ġsusp": 9058,
      "Ġsyn": 9059,
      "æ§": 9060,
      "Ġblog": 9061,
      "riting": 9062,
      "Most": 9063,
      "ague": 9064,
      "ä»ģ": 9065,
      "ĠJews": 9066,
      "æ±¡æ°´": 9067,
      "ç³»æķ°": 9068,
      "æī°": 9069,
      "exp": 9070,
      "Ġintroduction": 9071,
      "anged": 9072,
      "ä¸»ç®¡éĥ¨éĹ¨": 9073,
      "äº§éĩı": 9074,
      "åĭĴ": 9075,
      "87": 9076,
      "Ġtechnical": 9077,
      "çļĦåºĶçĶ¨": 9078,
      "æŁ¥è¯¢": 9079,
      "çĴĥ": 9080,
      "iday": 9081,
      "æĶ¾åľ¨": 9082,
      "Ġinstitutions": 9083,
      "ĠNews": 9084,
      "leg": 9085,
      "Ġexplained": 9086,
      "Ġsen": 9087,
      "çļĦåīį": 9088,
      "ĠMexico": 9089,
      "æĸ¹ä¾¿": 9090,
      "å¿Ĩ": 9091,
      "çļĦæ¦Ĥå¿µ": 9092,
      "æĿ¡ä»¶ä¸ĭ": 9093,
      "åı¯éĿł": 9094,
      "Ġspend": 9095,
      "ĠVirgin": 9096,
      "rd": 9097,
      "Ġtang": 9098,
      "çĽĨ": 9099,
      "æµª": 9100,
      "è¯±": 9101,
      "Ġcertainly": 9102,
      "Ġsuggested": 9103,
      "Ġoccurred": 9104,
      "PP": 9105,
      "Ġadvance": 9106,
      "Given": 9107,
      "Ġcere": 9108,
      "çĶµè§Ĩ": 9109,
      "ĠPri": 9110,
      "Ġseconds": 9111,
      "åĪĨè§£": 9112,
      "Ġsubs": 9113,
      "Ġdefinite": 9114,
      "Ġdenominator": 9115,
      "bability": 9116,
      "Ġoffered": 9117,
      "æļĹ": 9118,
      "åİŁåŃĲ": 9119,
      "çĶŁæĢģçİ¯å¢ĥ": 9120,
      "è¿Ŀåıį": 9121,
      "Ġexistence": 9122,
      "Ġunknown": 9123,
      "Ġtooth": 9124,
      "ĠEngine": 9125,
      "Ġqual": 9126,
      "Ġconcentration": 9127,
      "93": 9128,
      "Ġperiods": 9129,
      "ĠCam": 9130,
      "æĢģåº¦": 9131,
      "Ġç¬¬ä¸ĢèĬĤ": 9132,
      ")\\": 9133,
      "ĠMart": 9134,
      "ĠPoint": 9135,
      "å§Ĩ": 9136,
      "ĠTer": 9137,
      "ç»ĨèıĮ": 9138,
      "Ġresponsibility": 9139,
      "aturally": 9140,
      "Ġrepeated": 9141,
      "going": 9142,
      "Ġvertical": 9143,
      "zy": 9144,
      "æ¡ĥ": 9145,
      "Ġelev": 9146,
      "rep": 9147,
      "Ġsed": 9148,
      "æīĭç»Ń": 9149,
      "Ġdiagnosis": 9150,
      "Ġfalse": 9151,
      "ĠBen": 9152,
      "æ·±åĮĸ": 9153,
      "Ġmultiply": 9154,
      "unk": 9155,
      "Ġmixed": 9156,
      "å°½éĩı": 9157,
      "å¹¿å¤§": 9158,
      "Ġcris": 9159,
      "Ġflat": 9160,
      "?\"": 9161,
      "oughly": 9162,
      "icated": 9163,
      "åıĺæĽ´": 9164,
      "ura": 9165,
      "æķ¬": 9166,
      "æĪĲå¹´": 9167,
      "Expl": 9168,
      "æľĢä½İ": 9169,
      "Ġslightly": 9170,
      "ä¿Ħ": 9171,
      "ĠSal": 9172,
      "æĮĩæķ°": 9173,
      "Ġremained": 9174,
      "ç»ıåİĨ": 9175,
      "è´¦æĪ·": 9176,
      "ĠAnother": 9177,
      "Ġextent": 9178,
      "ĠTechnology": 9179,
      "æ··åĩĿåľŁ": 9180,
      "å¯¹çħ§": 9181,
      "å°ıäºİ": 9182,
      "èĳĹåĲį": 9183,
      "Ġrespectively": 9184,
      "Ġfort": 9185,
      "éģĹä¼ł": 9186,
      "ç¼ĸåĨĻ": 9187,
      "ĠSen": 9188,
      "Ġinvestment": 9189,
      "ä¿ĿåŃĺ": 9190,
      "åįģäºĶ": 9191,
      "çļĦåŃ¦ä¹ł": 9192,
      "Ġstorm": 9193,
      "no": 9194,
      "Ġpaint": 9195,
      "Ġlargely": 9196,
      "def": 9197,
      "Ġrou": 9198,
      "Ġshar": 9199,
      "ĠQue": 9200,
      "Ġcharacters": 9201,
      "çİ¯ä¿Ŀ": 9202,
      "å°±åı¯ä»¥": 9203,
      "ĠJer": 9204,
      "ibrary": 9205,
      "Ġlov": 9206,
      "äººæķ°": 9207,
      "åįĩé«ĺ": 9208,
      "pers": 9209,
      "Ġarmy": 9210,
      "%)": 9211,
      "æī¿åĮħ": 9212,
      "Ġperspective": 9213,
      "Ġsnow": 9214,
      "Ġç¬¬äºĮèĬĤ": 9215,
      "çļĦåıĳçĶŁ": 9216,
      "åĢºåĪ¸": 9217,
      "æĿ¡è§Ħå®ļ": 9218,
      "éĺ²æĬ¤": 9219,
      "æĪĺäºī": 9220,
      "ĠMake": 9221,
      "Ġtrial": 9222,
      "Ġstudied": 9223,
      "çłĶåıĳ": 9224,
      "Ġtypical": 9225,
      "stood": 9226,
      "é©±åĬ¨": 9227,
      "èĤ¡ç¥¨": 9228,
      "Ġwet": 9229,
      "ka": 9230,
      "é¢ĳçİĩ": 9231,
      "ä½ĵç§¯": 9232,
      "Ġchemicals": 9233,
      "Ġenhance": 9234,
      "çļĦåıĺåĮĸ": 9235,
      "ING": 9236,
      "çİ»çĴĥ": 9237,
      "ĠPacific": 9238,
      "æĮĳæĪĺ": 9239,
      "Ġfoss": 9240,
      "ĠProper": 9241,
      "æĿ°": 9242,
      "Ġecosystem": 9243,
      "Ġminim": 9244,
      "æįŁä¼¤": 9245,
      "Ġoperating": 9246,
      "Ġchain": 9247,
      "Ġju": 9248,
      "enses": 9249,
      "æľ¬äºº": 9250,
      "è®¤è¯ģ": 9251,
      "Ġgall": 9252,
      "Right": 9253,
      "Ġhospital": 9254,
      "å·¥ä¼¤": 9255,
      "çķľ": 9256,
      "ĠAnalysis": 9257,
      "otion": 9258,
      "çłĤ": 9259,
      "Ġplayed": 9260,
      "ĠBook": 9261,
      "éľī": 9262,
      "Ġcollected": 9263,
      "itness": 9264,
      "ĠHome": 9265,
      "ĠCommission": 9266,
      "Ġvaccine": 9267,
      "Ġaffects": 9268,
      "ä¼łæĦŁ": 9269,
      "Ġkeeping": 9270,
      "è¯Ħè®º": 9271,
      "Ġsettle": 9272,
      "Ġdescribes": 9273,
      "Ġsubsequ": 9274,
      "ĠNASA": 9275,
      "Ġchart": 9276,
      "rors": 9277,
      "Ġexternal": 9278,
      "imeter": 9279,
      "å¹³è¡Į": 9280,
      "Ġsustainable": 9281,
      "UR": 9282,
      "èİ«": 9283,
      "Ġtro": 9284,
      "heets": 9285,
      "å¿½": 9286,
      "çŃīäºİ": 9287,
      "è¿ĳå¹´æĿ¥": 9288,
      "OL": 9289,
      "Ġcook": 9290,
      "èĮĥåĽ´åĨħ": 9291,
      "Ġapparent": 9292,
      "Ġmg": 9293,
      "Ġbright": 9294,
      "ä¸Ģå¹´": 9295,
      "Ġneuro": 9296,
      "Gen": 9297,
      "æĬĬæı¡": 9298,
      "Ġvulner": 9299,
      "éĽĨåĽ¢": 9300,
      "æŃ¤æĹ¶": 9301,
      "Ġstock": 9302,
      "ĠFunction": 9303,
      "åĪ·": 9304,
      "Ġ?": 9305,
      "Ġconsequences": 9306,
      "Ġforced": 9307,
      "Ġconvert": 9308,
      "Ġlessons": 9309,
      "Ġcareer": 9310,
      "æľīåĵªäºĽ": 9311,
      "Ġtried": 9312,
      "83": 9313,
      "Ġparam": 9314,
      "long": 9315,
      "ĠãĢĤ": 9316,
      "å¤¹": 9317,
      "çĻ¾åĪĨ": 9318,
      "Ġtherm": 9319,
      "æľºåĻ¨": 9320,
      "Ġgirls": 9321,
      "Ġpros": 9322,
      "æµ¸": 9323,
      "Ġvehicle": 9324,
      "iced": 9325,
      "Ġ150": 9326,
      "Ġincl": 9327,
      "Ġwife": 9328,
      "åķĨåĬ¡": 9329,
      "path": 9330,
      "Ġmere": 9331,
      "Ġtested": 9332,
      "ĠQuestions": 9333,
      "æķĻèĤ²éĥ¨": 9334,
      "Ġlabel": 9335,
      "eles": 9336,
      "Ġvital": 9337,
      "å¹¶åľ¨": 9338,
      "æľºçļĦ": 9339,
      "Ġindicates": 9340,
      "hips": 9341,
      "ĠĊ": 9342,
      "ä¸Ģä½ĵ": 9343,
      "å®¢è§Ĥ": 9344,
      "SP": 9345,
      "igenous": 9346,
      "èģĺ": 9347,
      "å¸ĥå±Ģ": 9348,
      "æłı": 9349,
      "é«ĺæ¸©": 9350,
      "array": 9351,
      "More": 9352,
      "stream": 9353,
      "Ġ(\\": 9354,
      "Ġdrinking": 9355,
      "Ġexcellent": 9356,
      "çŃ¾è®¢": 9357,
      "ĠMil": 9358,
      "ĠAny": 9359,
      "Ġfelt": 9360,
      "ï¼ĳ": 9361,
      "å®ı": 9362,
      "Ġprecise": 9363,
      "App": 9364,
      "åĵģè´¨": 9365,
      "ĠIdent": 9366,
      "Ġliver": 9367,
      "OC": 9368,
      "å¯ĨåĪĩ": 9369,
      "pass": 9370,
      "omic": 9371,
      "åħ¬å¸ĥ": 9372,
      "æıĲåĩºäºĨ": 9373,
      "Ġrenew": 9374,
      "ien": 9375,
      "Ġlose": 9376,
      "Ġvoltage": 9377,
      "éĿ¢åĲĳ": 9378,
      "Ġdespite": 9379,
      "ãģ": 9380,
      "ĠBet": 9381,
      "Ġfill": 9382,
      "Ġpersons": 9383,
      "Ġleader": 9384,
      "Ġtriangles": 9385,
      "Ġgoods": 9386,
      "Ġhttps": 9387,
      "Ġç¬¬åĽĽ": 9388,
      "IM": 9389,
      "En": 9390,
      "Ġpowers": 9391,
      "Ġchapter": 9392,
      "Ġimpacts": 9393,
      "åľ°éľĩ": 9394,
      "æĸ¹éĿ¢çļĦ": 9395,
      "icks": 9396,
      "plant": 9397,
      "Step": 9398,
      "olars": 9399,
      "Ġderived": 9400,
      "Ġhundreds": 9401,
      "æ³Ħ": 9402,
      "Ġfloor": 9403,
      "hi": 9404,
      "net": 9405,
      "ĠMicro": 9406,
      "è¯ķçĤ¹": 9407,
      "Ġnations": 9408,
      "faces": 9409,
      "ĠLatin": 9410,
      "Ġnit": 9411,
      "ny": 9412,
      "ç«¹": 9413,
      "Ġthin": 9414,
      "ĠGoogle": 9415,
      "Do": 9416,
      "Ġsurrounding": 9417,
      "çĶŁæ´»ä¸Ń": 9418,
      "ĠUs": 9419,
      "othing": 9420,
      "çī¢": 9421,
      "mu": 9422,
      "Ġrail": 9423,
      "åıªæĺ¯": 9424,
      "åħ±äº§åħļ": 9425,
      "nel": 9426,
      "state": 9427,
      "itative": 9428,
      "section": 9429,
      "çĽ¸ç»ĵåĲĪ": 9430,
      "çĸ¼": 9431,
      "pping": 9432,
      "å°Ŀ": 9433,
      "ĠTop": 9434,
      "çĶµå½±": 9435,
      "oxide": 9436,
      "IR": 9437,
      "åŁ¹èĤ²": 9438,
      "Ġdiscrim": 9439,
      "éŀ": 9440,
      "fe": 9441,
      "Ġpurs": 9442,
      "èĩªè¡Į": 9443,
      "Ġnutrients": 9444,
      "rates": 9445,
      "verty": 9446,
      "Ġshapes": 9447,
      "Ġcert": 9448,
      "ç®Ģç§°": 9449,
      "åħ¬åı¸çļĦ": 9450,
      "Ġplaying": 9451,
      "eal": 9452,
      "from": 9453,
      "Ġgrand": 9454,
      "Ġtrac": 9455,
      "èĲ¨": 9456,
      "æľīä¸Ģ": 9457,
      "ĠAtt": 9458,
      "ĠBur": 9459,
      "äººç¾¤": 9460,
      "è¿Ļæł·çļĦ": 9461,
      "Ġvast": 9462,
      "å®ŀçĶ¨": 9463,
      "atric": 9464,
      "ĠCivil": 9465,
      "Ġpoverty": 9466,
      "å¤Ħç½ļ": 9467,
      "Ġpaid": 9468,
      "çļĦå®īåħ¨": 9469,
      "Ġ1000": 9470,
      "èĶ¬èıľ": 9471,
      "Ġneut": 9472,
      "Ġadvice": 9473,
      "Ġvent": 9474,
      "çī©æµģ": 9475,
      "Ġaren": 9476,
      "osa": 9477,
      "Ġperman": 9478,
      "Ġcenturies": 9479,
      "å¤§éĥ¨åĪĨ": 9480,
      "ĠOper": 9481,
      "rolog": 9482,
      "Ġcurriculum": 9483,
      "å±±ä¸ľ": 9484,
      "ĠAtl": 9485,
      "Ġrein": 9486,
      "van": 9487,
      "ĠFoundation": 9488,
      "Ġsubstant": 9489,
      "asp": 9490,
      "ĠMedicine": 9491,
      "ä¸įå°ĳ": 9492,
      "æİ¥ç§į": 9493,
      "Ġtreatments": 9494,
      "roke": 9495,
      "Ġstars": 9496,
      "ĠSmith": 9497,
      "ĠBat": 9498,
      "ä¸ŃåĽ½çī¹èī²ç¤¾ä¼ļä¸»ä¹ī": 9499,
      "Ġsend": 9500,
      "åįģåħ«": 9501,
      "Ġnerv": 9502,
      "Ġdrop": 9503,
      "ä¼łè¾ĵ": 9504,
      "éļ¾ä»¥": 9505,
      "åĪºæ¿Ģ": 9506,
      "ĠMathematics": 9507,
      ")\\).": 9508,
      "Ġemployees": 9509,
      "Ġpotentially": 9510,
      "anguage": 9511,
      "ithmetic": 9512,
      "å¯¹å¤ĸ": 9513,
      "Ġconfidence": 9514,
      "Ġportion": 9515,
      "ville": 9516,
      "åĲ´": 9517,
      "ĠMiddle": 9518,
      "çİ°éĩĳ": 9519,
      "æ¸ħæ¥ļ": 9520,
      "Ġcognitive": 9521,
      "åĨ»": 9522,
      "Ġdiameter": 9523,
      "Ġstem": 9524,
      "ç±»ä¼¼": 9525,
      "Ġfib": 9526,
      "fall": 9527,
      "çĶ¨æ°´": 9528,
      "æīĢè°ĵ": 9529,
      "ä¹Łä¼ļ": 9530,
      "Note": 9531,
      "ä¼Ļ": 9532,
      "éĩįå¤į": 9533,
      "apping": 9534,
      "çĳŀ": 9535,
      "Ġagricultural": 9536,
      "ĠCalculate": 9537,
      "Ġdistingu": 9538,
      "Ġsalt": 9539,
      "å¤§åĬĽ": 9540,
      "Ġdomestic": 9541,
      "inition": 9542,
      "ĠApplic": 9543,
      "Ġ1999": 9544,
      "Ġconcerned": 9545,
      "itors": 9546,
      "bert": 9547,
      "Ġdefine": 9548,
      "Ġ\\([": 9549,
      "çģ¾å®³": 9550,
      "åĴĮåħ¶ä»ĸ": 9551,
      "uls": 9552,
      "æ¶ĪåĮĸ": 9553,
      "çļĦè¡Įä¸º": 9554,
      "Ġestimate": 9555,
      "Ġleaving": 9556,
      "èĥº": 9557,
      "ä½łä»¬": 9558,
      "åĲĮæĦı": 9559,
      "rian": 9560,
      "ä½ľçī©": 9561,
      "Ġstated": 9562,
      "ircul": 9563,
      "Ġofficials": 9564,
      "çģ«çģ¾": 9565,
      "åıī": 9566,
      "ĠDise": 9567,
      "Americ": 9568,
      "éªĮè¯ģ": 9569,
      "{-": 9570,
      "ĠLike": 9571,
      "Ġinterests": 9572,
      "ä»Ĭå¹´": 9573,
      "éĶħ": 9574,
      "åĵ¥": 9575,
      "ificial": 9576,
      "band": 9577,
      "åı¯ä»¥åľ¨": 9578,
      "ĠArmy": 9579,
      "æ¯ıä¸Ģ": 9580,
      "Ġcandid": 9581,
      "ĠUnderstanding": 9582,
      "*}": 9583,
      "å¤ĸçļĦ": 9584,
      "æ·±åĪ»": 9585,
      "Ġcorresponding": 9586,
      "Ġoptim": 9587,
      "Ġwalls": 9588,
      "ĠToday": 9589,
      "æĵ¦": 9590,
      "Ġmuscles": 9591,
      "ĠRobert": 9592,
      "NS": 9593,
      "åħ¬æ°ĳ": 9594,
      "ä¸Ĭä¸ĭ": 9595,
      "åī©": 9596,
      "åħ³èĬĤ": 9597,
      "å±Ģéĥ¨": 9598,
      "æ¸¡": 9599,
      "äºĭåĬ¡": 9600,
      "ĠDifferent": 9601,
      "dis": 9602,
      "Ġwestern": 9603,
      "LE": 9604,
      "bar": 9605,
      "Ġbiological": 9606,
      "chers": 9607,
      "åĪĩå®ŀ": 9608,
      "Ġplot": 9609,
      "partial": 9610,
      "ĊĊĠ": 9611,
      "94": 9612,
      "atever": 9613,
      "ircraft": 9614,
[...]
